{
  "version": "1.0",
  "truncation": null,
  "padding": null,
  "added_tokens": [
    {
      "id": 0,
      "content": "<|endoftext|>",
      "single_word": false,
      "lstrip": false,
      "rstrip": false,
      "normalized": false,
      "special": true
    },
    {
      "id": 1,
      "content": "<unk>",
      "single_word": false,
      "lstrip": false,
      "rstrip": false,
      "normalized": false,
      "special": true
    }
  ],
  "normalizer": null,
  "pre_tokenizer": {
    "type": "ByteLevel",
    "add_prefix_space": false,
    "trim_offsets": true,
    "use_regex": true
  },
  "post_processor": null,
  "decoder": {
    "type": "ByteLevel",
    "add_prefix_space": true,
    "trim_offsets": true,
    "use_regex": true
  },
  "model": {
    "type": "BPE",
    "dropout": null,
    "unk_token": "<unk>",
    "continuing_subword_prefix": null,
    "end_of_word_suffix": null,
    "fuse_unk": false,
    "byte_fallback": false,
    "ignore_merges": false,
    "vocab": {
      "<|endoftext|>": 0,
      "<unk>": 1,
      "!": 2,
      "\"": 3,
      "#": 4,
      "$": 5,
      "%": 6,
      "&": 7,
      "'": 8,
      "(": 9,
      ")": 10,
      "*": 11,
      "+": 12,
      ",": 13,
      "-": 14,
      ".": 15,
      "/": 16,
      "0": 17,
      "1": 18,
      "2": 19,
      "3": 20,
      "4": 21,
      "5": 22,
      "6": 23,
      "7": 24,
      "8": 25,
      "9": 26,
      ":": 27,
      ";": 28,
      "<": 29,
      "=": 30,
      ">": 31,
      "?": 32,
      "@": 33,
      "A": 34,
      "B": 35,
      "C": 36,
      "D": 37,
      "E": 38,
      "F": 39,
      "G": 40,
      "H": 41,
      "I": 42,
      "J": 43,
      "K": 44,
      "L": 45,
      "M": 46,
      "N": 47,
      "O": 48,
      "P": 49,
      "Q": 50,
      "R": 51,
      "S": 52,
      "T": 53,
      "U": 54,
      "V": 55,
      "W": 56,
      "X": 57,
      "Y": 58,
      "Z": 59,
      "[": 60,
      "\\": 61,
      "]": 62,
      "_": 63,
      "`": 64,
      "a": 65,
      "b": 66,
      "c": 67,
      "d": 68,
      "e": 69,
      "f": 70,
      "g": 71,
      "h": 72,
      "i": 73,
      "j": 74,
      "k": 75,
      "l": 76,
      "m": 77,
      "n": 78,
      "o": 79,
      "p": 80,
      "q": 81,
      "r": 82,
      "s": 83,
      "t": 84,
      "u": 85,
      "v": 86,
      "w": 87,
      "x": 88,
      "y": 89,
      "z": 90,
      "{": 91,
      "}": 92,
      "¡": 93,
      "¢": 94,
      "£": 95,
      "¤": 96,
      "¥": 97,
      "¦": 98,
      "§": 99,
      "¨": 100,
      "©": 101,
      "ª": 102,
      "«": 103,
      "¬": 104,
      "®": 105,
      "¯": 106,
      "°": 107,
      "±": 108,
      "²": 109,
      "³": 110,
      "´": 111,
      "µ": 112,
      "¶": 113,
      "·": 114,
      "¸": 115,
      "¹": 116,
      "º": 117,
      "»": 118,
      "¼": 119,
      "½": 120,
      "¾": 121,
      "¿": 122,
      "Â": 123,
      "Ã": 124,
      "Å": 125,
      "Î": 126,
      "Ð": 127,
      "Ñ": 128,
      "Ù": 129,
      "â": 130,
      "ã": 131,
      "ä": 132,
      "å": 133,
      "æ": 134,
      "ç": 135,
      "è": 136,
      "é": 137,
      "ï": 138,
      "ð": 139,
      "ĉ": 140,
      "Ċ": 141,
      "Ġ": 142,
      "Ģ": 143,
      "ģ": 144,
      "Ĥ": 145,
      "ĥ": 146,
      "Ħ": 147,
      "ħ": 148,
      "Ĩ": 149,
      "ĩ": 150,
      "Ī": 151,
      "ī": 152,
      "Ĭ": 153,
      "ĭ": 154,
      "Į": 155,
      "į": 156,
      "İ": 157,
      "ı": 158,
      "Ĳ": 159,
      "ĳ": 160,
      "Ĵ": 161,
      "ĵ": 162,
      "Ķ": 163,
      "ķ": 164,
      "ĸ": 165,
      "Ĺ": 166,
      "ĺ": 167,
      "Ļ": 168,
      "ļ": 169,
      "Ľ": 170,
      "ľ": 171,
      "Ŀ": 172,
      "ŀ": 173,
      "Ł": 174,
      "ł": 175,
      "Ń": 176,
      "Ġ1": 177,
      "=\"": 178,
      "ĠL": 179,
      "ro": 180,
      "st": 181,
      "ke": 182,
      "roke": 183,
      "stroke": 184,
      "Ġstroke": 185,
      "th": 186,
      "00": 187,
      "Ġ2": 188,
      "ĠC": 189,
      "pa": 190,
      "il": 191,
      "fil": 192,
      "fill": 193,
      "Ġfill": 194,
      "Ġ0": 195,
      "ĠĠ": 196,
      "id": 197,
      "/>": 198,
      "\"/>": 199,
      "Ġ12": 200,
      "in": 201,
      "Ġ10": 202,
      "Ġ9": 203,
      "Ġ11": 204,
      "Ġ8": 205,
      "path": 206,
      "Ġd": 207,
      "Ġ13": 208,
      "12": 209,
      "Ġ14": 210,
      "Ġ7": 211,
      "Ġ15": 212,
      "idth": 213,
      "width": 214,
      "Ġ6": 215,
      "-.": 216,
      "Ġ16": 217,
      "Ġ3": 218,
      "10": 219,
      "on": 220,
      "Ġ5": 221,
      "Ġ4": 222,
      "11": 223,
      "13": 224,
      "la": 225,
      "Ġ17": 226,
      "vg": 227,
      "svg": 228,
      "it": 229,
      "14": 230,
      "non": 231,
      "16": 232,
      "none": 233,
      "15": 234,
      "pac": 235,
      "ht": 236,
      "Ġ18": 237,
      "ww": 238,
      "ity": 239,
      "pacity": 240,
      "opacity": 241,
      "ck": 242,
      "ing": 243,
      "17": 244,
      "=\".": 245,
      "lack": 246,
      "black": 247,
      "Ġfilling": 248,
      "</": 249,
      "px": 250,
      "18": 251,
      "Ġc": 252,
      "19": 253,
      "Ġx": 254,
      "Ġ19": 255,
      "or": 256,
      "200": 257,
      "\">": 258,
      "ns": 259,
      "lin": 260,
      "20": 261,
      "ĠĠĠĠ": 262,
      "ml": 263,
      "0000": 264,
      "Ġxml": 265,
      "le": 266,
      "800": 267,
      "Ġ24": 268,
      "=\"#": 269,
      "Ġ20": 270,
      "htt": 271,
      "http": 272,
      "//": 273,
      "://": 274,
      "org": 275,
      "Ġxmlns": 276,
      "Ġv": 277,
      "www": 278,
      "ig": 279,
      "Ġh": 280,
      "ight": 281,
      "eight": 282,
      "Ġheight": 283,
      "Ġwidth": 284,
      "23": 285,
      "line": 286,
      "22": 287,
      "ie": 288,
      "24": 289,
      "iew": 290,
      "2000": 291,
      "ox": 292,
      "Box": 293,
      "Ġview": 294,
      "ĠviewBox": 295,
      "rou": 296,
      "21": 297,
      "nd": 298,
      "Ġid": 299,
      "round": 300,
      "Ġ21": 301,
      "ĠĠĠ": 302,
      "25": 303,
      "Ġ-": 304,
      "er": 305,
      "Ġ<": 306,
      "27": 307,
      "ss": 308,
      "32": 309,
      "000000": 310,
      "28": 311,
      "26": 312,
      "29": 313,
      "Ġ22": 314,
      "33": 315,
      "lass": 316,
      "Ġclass": 317,
      ",-": 318,
      "ap": 319,
      "30": 320,
      "ĠM": 321,
      "\"/><": 322,
      "sty": 323,
      "style": 324,
      "36": 325,
      "oin": 326,
      "re": 327,
      "44": 328,
      "cap": 329,
      "\"/></": 330,
      "\"><": 331,
      "34": 332,
      "35": 333,
      "38": 334,
      "37": 335,
      ":#": 336,
      "linecap": 337,
      "39": 338,
      "ve": 339,
      "Ġy": 340,
      "48": 341,
      "join": 342,
      "linejoin": 343,
      "link": 344,
      "31": 345,
      "xlink": 346,
      "40": 347,
      "at": 348,
      "99": 349,
      "Ġ32": 350,
      "45": 351,
      "ZM": 352,
      "46": 353,
      "56": 354,
      "47": 355,
      "ra": 356,
      "Ġstyle": 357,
      "cl": 358,
      "Ġr": 359,
      "ĠĠĠĠĠĠĠ": 360,
      "ru": 361,
      "ct": 362,
      "de": 363,
      "49": 364,
      "42": 365,
      ",.": 366,
      "zm": 367,
      "od": 368,
      "ion": 369,
      "ar": 370,
      "me": 371,
      "50": 372,
      "55": 373,
      "41": 374,
      "Ġ.": 375,
      "cls": 376,
      "im": 377,
      "rans": 378,
      "rule": 379,
      "ol": 380,
      "57": 381,
      "43": 382,
      "Ġ23": 383,
      "ĠZ": 384,
      "trans": 385,
      "na": 386,
      "con": 387,
      "58": 388,
      "eve": 389,
      ";}": 390,
      "even": 391,
      "Ġ26": 392,
      "odd": 393,
      "evenodd": 394,
      "Ġ28": 395,
      "Ġ25": 396,
      "ers": 397,
      "ersion": 398,
      "66": 399,
      "1999": 400,
      "59": 401,
      "Ġversion": 402,
      "te": 403,
      "FF": 404,
      "Ġ</": 405,
      "Ġ27": 406,
      "64": 407,
      "itle": 408,
      "ff": 409,
      "52": 410,
      "title": 411,
      "zM": 412,
      "60": 413,
      "Ġ48": 414,
      "Ġ30": 415,
      "rect": 416,
      "54": 417,
      "Ġ29": 418,
      "ata": 419,
      "51": 420,
      "ser": 421,
      "53": 422,
      "68": 423,
      "name": 424,
      "ip": 425,
      "rc": 426,
      "orm": 427,
      "67": 428,
      "Ġ36": 429,
      "Ġdata": 430,
      "88": 431,
      "Ġ512": 432,
      "ĠĠĠĠĠĠĠĠĠĠĠ": 433,
      "ci": 434,
      "def": 435,
      "defs": 436,
      "pre": 437,
      "serve": 438,
      "preserve": 439,
      "yer": 440,
      "Ġcy": 441,
      "Ġcx": 442,
      "77": 443,
      "rcle": 444,
      "circle": 445,
      "icon": 446,
      "form": 447,
      "70": 448,
      "se": 449,
      "78": 450,
      "96": 451,
      "75": 452,
      "La": 453,
      "Ġ31": 454,
      "Zm": 455,
      "Ġ64": 456,
      "Layer": 457,
      "pace": 458,
      "61": 459,
      "pe": 460,
      "80": 461,
      "79": 462,
      "Ġ38": 463,
      "69": 464,
      "62": 465,
      "Ġl": 466,
      "space": 467,
      "transform": 468,
      "Ġ40": 469,
      "nt": 470,
      "Ġtransform": 471,
      "Ġ34": 472,
      "63": 473,
      "89": 474,
      "Ġ33": 475,
      "ary": 476,
      "Ġ35": 477,
      "mit": 478,
      "72": 479,
      "76": 480,
      "miter": 481,
      "256": 482,
      "Ġ39": 483,
      "ts": 484,
      "imit": 485,
      "limit": 486,
      "miterlimit": 487,
      "pol": 488,
      "poly": 489,
      "Ġ37": 490,
      "Ġ42": 491,
      "Ġp": 492,
      "65": 493,
      "late": 494,
      "olor": 495,
      "translate": 496,
      "dc": 497,
      "lip": 498,
      "oints": 499,
      "Ġpoints": 500,
      "Pa": 501,
      "71": 502,
      "73": 503,
      "Ġround": 504,
      "Ġ44": 505,
      "85": 506,
      "90": 507,
      "74": 508,
      "ĉĉ": 509,
      "Ġ41": 510,
      "128": 511,
      ");": 512,
      "Ġz": 513,
      "><": 514,
      "84": 515,
      "274": 516,
      "ĠĠĠĠĠĠĠĠĠĠĠĠĠĠĠ": 517,
      "gb": 518,
      "87": 519,
      "94": 520,
      "ty": 521,
      "ĠĠĠĠĠ": 522,
      "type": 523,
      "Path": 524,
      "Ġ43": 525,
      "Ġ50": 526,
      "pr": 527,
      "92": 528,
      "83": 529,
      "ble": 530,
      "86": 531,
      "prim": 532,
      "primary": 533,
      "Ġs": 534,
      "ch": 535,
      "82": 536,
      "Ġrgb": 537,
      "ba": 538,
      "81": 539,
      "93": 540,
      "Ġclip": 541,
      "xt": 542,
      "=\"_": 543,
      "Ġ45": 544,
      "text": 545,
      ";\"": 546,
      ")\"": 547,
      "color": 548,
      "al": 549,
      "95": 550,
      "91": 551,
      "gon": 552,
      "polygon": 553,
      "Ġ46": 554,
      "Ġm": 555,
      "ge": 556,
      "Ġ47": 557,
      "ink": 558,
      "if": 559,
      "Mid": 560,
      "Ġ49": 561,
      "op": 562,
      "cape": 563,
      "scape": 564,
      "inkscape": 565,
      "292": 566,
      "97": 567,
      "98": 568,
      "ne": 569,
      "Ġ256": 570,
      "om": 571,
      "512": 572,
      "ou": 573,
      "100": 574,
      "Ġ51": 575,
      "Ġ52": 576,
      "lat": 577,
      "ad": 578,
      "cc": 579,
      "Ġ56": 580,
      "Ġro": 581,
      "Ġtype": 582,
      "sc": 583,
      "ia": 584,
      "df": 585,
      "Ġ100": 586,
      "ati": 587,
      "ify": 588,
      "stop": 589,
      "Ġnone": 590,
      ")\">": 591,
      "css": 592,
      "iconify": 593,
      "112": 594,
      "ur": 595,
      "(-": 596,
      "ffff": 597,
      "ic": 598,
      "_\"": 599,
      "Ġ53": 600,
      "back": 601,
      "ground": 602,
      "FFFF": 603,
      "background": 604,
      "ena": 605,
      "enable": 606,
      "Ġinkscape": 607,
      "desc": 608,
      "new": 609,
      "ket": 610,
      "Ġrx": 611,
      "aria": 612,
      "ow": 613,
      "Ġ\"/>": 614,
      "104": 615,
      ";}</": 616,
      ">.": 617,
      "ate": 618,
      "192": 619,
      "Ġ54": 620,
      "Ġ60": 621,
      "Ġ55": 622,
      "114": 623,
      "113": 624,
      "106": 625,
      "ee": 626,
      "is": 627,
      "121": 628,
      "rad": 629,
      "roup": 630,
      "Ġ1024": 631,
      "ketch": 632,
      "img": 633,
      "Ġrole": 634,
      "com": 635,
      "ape": 636,
      "hape": 637,
      "cond": 638,
      "Ġenable": 639,
      "Ġ169": 640,
      "second": 641,
      "Group": 642,
      "Ġ57": 643,
      "ient": 644,
      "secondary": 645,
      "tru": 646,
      "102": 647,
      "Ġf": 648,
      "ze": 649,
      "true": 650,
      "--": 651,
      "mo": 652,
      "polyline": 653,
      "an": 654,
      "Ġ76": 655,
      "001": 656,
      "108": 657,
      "ĠS": 658,
      ";\"/>": 659,
      "Ġ58": 660,
      "144": 661,
      "3333": 662,
      "Ġ188": 663,
      "105": 664,
      "103": 665,
      "120": 666,
      ";\"/><": 667,
      "clip": 668,
      "spe": 669,
      "212": 670,
      "url": 671,
      "sh": 672,
      "208": 673,
      "Ġopacity": 674,
      "107": 675,
      "et": 676,
      "ect": 677,
      "09": 678,
      "radient": 679,
      "Ġ72": 680,
      "atio": 681,
      "spect": 682,
      "Ratio": 683,
      "Aspect": 684,
      "Ġpreserve": 685,
      "AspectRatio": 686,
      "ĠpreserveAspectRatio": 687,
      "=\"-": 688,
      "Ġ62": 689,
      "116": 690,
      "101": 691,
      "Ġ128": 692,
      "el": 693,
      "109": 694,
      "02": 695,
      "136": 696,
      "Ġaria": 697,
      "216": 698,
      "231": 699,
      "160": 700,
      "ite": 701,
      "></": 702,
      "Ġ59": 703,
      "124": 704,
      "176": 705,
      "111": 706,
      "241": 707,
      "118": 708,
      "115": 709,
      "ph": 710,
      ";}.": 711,
      "119": 712,
      "YMid": 713,
      "xMid": 714,
      "xMidYMid": 715,
      "Ġ61": 716,
      "125": 717,
      "den": 718,
      "ine": 719,
      "232": 720,
      "wh": 721,
      "idden": 722,
      "184": 723,
      "117": 724,
      "hidden": 725,
      "152": 726,
      "white": 727,
      "168": 728,
      "rdf": 729,
      "126": 730,
      "05": 731,
      "Icon": 732,
      "06": 733,
      "Shape": 734,
      "127": 735,
      "Ġ96": 736,
      "Flat": 737,
      "123": 738,
      "08": 739,
      "emo": 740,
      "110": 741,
      "zero": 742,
      "nonzero": 743,
      "emoj": 744,
      "122": 745,
      "224": 746,
      "ri": 747,
      "Ġme": 748,
      "07": 749,
      "off": 750,
      "Ġmeet": 751,
      "Ġ00": 752,
      "ly": 753,
      "132": 754,
      "lo": 755,
      "Ġ80": 756,
      "153": 757,
      "213": 758,
      "Ġ70": 759,
      "set": 760,
      "Ġ63": 761,
      "135": 762,
      "129": 763,
      "Ġ65": 764,
      "134": 765,
      "01": 766,
      "141": 767,
      "137": 768,
      "202": 769,
      "149": 770,
      "170": 771,
      "166": 772,
      "146": 773,
      "143": 774,
      "164": 775,
      "133": 776,
      "130": 777,
      "een": 778,
      "138": 779,
      "384": 780,
      "156": 781,
      "131": 782,
      "lipse": 783,
      "172": 784,
      "139": 785,
      "140": 786,
      "142": 787,
      "148": 788,
      "lyph": 789,
      "gle": 790,
      "Ġ85": 791,
      "145": 792,
      "glyph": 793,
      "Ġiconify": 794,
      "323": 795,
      "157": 796,
      "ormal": 797,
      "normal": 798,
      "158": 799,
      "174": 800,
      "linear": 801,
      "ffffff": 802,
      "002": 803,
      "188": 804,
      "173": 805,
      "ont": 806,
      "rce": 807,
      "ource": 808,
      "CC": 809,
      "angle": 810,
      "154": 811,
      "cre": 812,
      "2222": 813,
      "180": 814,
      "met": 815,
      "Ġry": 816,
      "162": 817,
      "offset": 818,
      "147": 819,
      "odi": 820,
      "odip": 821,
      "odipodi": 822,
      "204": 823,
      "159": 824,
      "167": 825,
      "Ġ71": 826,
      "Ġ66": 827,
      "178": 828,
      "to": 829,
      "03": 830,
      "Ġ73": 831,
      "448": 832,
      "out": 833,
      "169": 834,
      "Ġ68": 835,
      "228": 836,
      "04": 837,
      "182": 838,
      "FFFFFF": 839,
      "151": 840,
      "155": 841,
      "179": 842,
      "255": 843,
      "244": 844,
      "175": 845,
      "234": 846,
      "Ġ74": 847,
      "186": 848,
      "Ġ67": 849,
      "source": 850,
      "Gradient": 851,
      "177": 852,
      "165": 853,
      "si": 854,
      "196": 855,
      "207": 856,
      "248": 857,
      "171": 858,
      "tw": 859,
      "161": 860,
      "225": 861,
      "288": 862,
      "Rect": 863,
      "Rectangle": 864,
      ";\"/></": 865,
      "ma": 866,
      "Ġ69": 867,
      "mon": 868,
      "Ġ75": 869,
      "ĠColor": 870,
      "ellipse": 871,
      "444": 872,
      "181": 873,
      "197": 874,
      "223": 875,
      "163": 876,
      "ĠĠĠĠĠĠĠĠĠĠĠĠĠĠĠĠĠĠĠ": 877,
      "185": 878,
      "193": 879,
      "198": 880,
      "240": 881,
      "183": 882,
      "font": 883,
      "Ġ92": 884,
      "150": 885,
      "246": 886,
      "(#": 887,
      "352": 888,
      "320": 889,
      "195": 890,
      "Ġ81": 891,
      "214": 892,
      "rix": 893,
      "da": 894,
      "atrix": 895,
      "ĠĠĠĠĊ": 896,
      "Ġoffset": 897,
      "206": 898,
      "art": 899,
      "sk": 900,
      "191": 901,
      "187": 902,
      "219": 903,
      "254": 904,
      "217": 905,
      "344": 906,
      "215": 907,
      "emoji": 908,
      "220": 909,
      "Ġ01": 910,
      "Ġ79": 911,
      "sodipodi": 912,
      "222": 913,
      "205": 914,
      "194": 915,
      "Ġ84": 916,
      "203": 917,
      "matrix": 918,
      "Ġ78": 919,
      "211": 920,
      "209": 921,
      "434": 922,
      "333": 923,
      "ID": 924,
      "226": 925,
      "189": 926,
      "336": 927,
      "277": 928,
      "Line": 929,
      "wi": 930,
      "218": 931,
      "Ġ90": 932,
      "252": 933,
      "293": 934,
      "#\"": 935,
      "Ġ83": 936,
      "oc": 937,
      "ĠA": 938,
      "Icons": 939,
      "Ġ77": 940,
      "199": 941,
      "363": 942,
      "dow": 943,
      "with": 944,
      ")\"/>": 945,
      "DF": 946,
      "229": 947,
      "Ġflat": 948,
      "icons": 949,
      "ation": 950,
      "Ġ86": 951,
      "298": 952,
      "341": 953,
      "ĉĉĉ": 954,
      "Ġ192": 955,
      "328": 956,
      "Ġ89": 957,
      "Ġ88": 958,
      "Ġ82": 959,
      "343": 960,
      "Ġ91": 961,
      "201": 962,
      "Ġ160": 963,
      "Cre": 964,
      "Ġ87": 965,
      "243": 966,
      "227": 967,
      "Ġwith": 968,
      "ated": 969,
      "333333": 970,
      ".</": 971,
      "int": 972,
      "Created": 973,
      "Ġrdf": 974,
      "247": 975,
      "Ġ95": 976,
      "Ġg": 977,
      "233": 978,
      "236": 979,
      "ce": 980,
      "221": 981,
      "253": 982,
      "249": 983,
      "Ġ112": 984,
      "006": 985,
      "242": 986,
      "282": 987,
      "po": 988,
      "Ġ94": 989,
      "272": 990,
      "245": 991,
      "264": 992,
      "linearGradient": 993,
      "ed": 994,
      "MS": 995,
      "239": 996,
      "Ġsketch": 997,
      "ĠSketch": 998,
      "257": 999,
      "adata": 1000,
      "metadata": 1001,
      "Ġ93": 1002,
      "210": 1003,
      "262": 1004,
      "Ġ106": 1005,
      "237": 1006,
      "258": 1007,
      "St": 1008,
      "238": 1009,
      "tate": 1010,
      "dash": 1011,
      "368": 1012,
      "der": 1013,
      "312": 1014,
      "235": 1015,
      "375": 1016,
      "286": 1017,
      "ative": 1018,
      "304": 1019,
      "Ġ102": 1020,
      "Trans": 1021,
      "003": 1022,
      "251": 1023,
      "416": 1024,
      "266": 1025,
      "Ġ98": 1026,
      "be": 1027,
      "Ġstop": 1028,
      "289": 1029,
      "296": 1030,
      "/\"": 1031,
      "common": 1032,
      "297": 1033,
      "creative": 1034,
      "commons": 1035,
      "Ġ97": 1036,
      "creativecommons": 1037,
      "337": 1038,
      "707": 1039,
      "olid": 1040,
      "gu": 1041,
      "solid": 1042,
      "268": 1043,
      "rent": 1044,
      "287": 1045,
      "190": 1046,
      "250": 1047,
      "271": 1048,
      "purl": 1049,
      "vis": 1050,
      "Ġ104": 1051,
      "ĠV": 1052,
      "fa": 1053,
      "es": 1054,
      "338": 1055,
      "372": 1056,
      "285": 1057,
      "305": 1058,
      "ment": 1059,
      "one": 1060,
      "Ġb": 1061,
      "334": 1062,
      "Ġ120": 1063,
      "284": 1064,
      "263": 1065,
      "Ġ99": 1066,
      "373": 1067,
      "visi": 1068,
      "outline": 1069,
      "300": 1070,
      "Page": 1071,
      "265": 1072,
      "424": 1073,
      "259": 1074,
      "275": 1075,
      "326": 1076,
      "Ġ101": 1077,
      "316": 1078,
      "426": 1079,
      "273": 1080,
      "307": 1081,
      "Ġ103": 1082,
      "281": 1083,
      "atch": 1084,
      "261": 1085,
      "004": 1086,
      "396": 1087,
      "sa": 1088,
      "file": 1089,
      "005": 1090,
      "269": 1091,
      "362": 1092,
      "295": 1093,
      "365": 1094,
      "313": 1095,
      "Fil": 1096,
      "qu": 1097,
      "ork": 1098,
      "Ġ110": 1099,
      "_\">": 1100,
      "432": 1101,
      "279": 1102,
      "354": 1103,
      "364": 1104,
      "Ġ105": 1105,
      "303": 1106,
      "314": 1107,
      "win": 1108,
      "317": 1109,
      "366": 1110,
      "ML": 1111,
      "276": 1112,
      "ub": 1113,
      "XML": 1114,
      "ĠH": 1115,
      "XMLID": 1116,
      "ter": 1117,
      "329": 1118,
      "302": 1119,
      "283": 1120,
      "Ġ116": 1121,
      "267": 1122,
      "CE": 1123,
      "clipPath": 1124,
      "are": 1125,
      "332": 1126,
      "lar": 1127,
      "324": 1128,
      "376": 1129,
      "lu": 1130,
      "ray": 1131,
      "Ġ111": 1132,
      "visible": 1133,
      "230": 1134,
      "294": 1135,
      "308": 1136,
      "window": 1137,
      "Ġ113": 1138,
      "367": 1139,
      "358": 1140,
      "278": 1141,
      "base": 1142,
      "400": 1143,
      "371": 1144,
      "Ġ108": 1145,
      "311": 1146,
      "405": 1147,
      "378": 1148,
      "379": 1149,
      "299": 1150,
      "260": 1151,
      "Ġ109": 1152,
      "291": 1153,
      "377": 1154,
      "plo": 1155,
      "369": 1156,
      "Ġ114": 1157,
      "359": 1158,
      "327": 1159,
      "nit": 1160,
      "Ġ127": 1161,
      "318": 1162,
      "Work": 1163,
      "391": 1164,
      "Ġ122": 1165,
      "parent": 1166,
      "335": 1167,
      "Transparent": 1168,
      "007": 1169,
      "472": 1170,
      "346": 1171,
      "nits": 1172,
      "475": 1173,
      "447": 1174,
      "353": 1175,
      "lr": 1176,
      "494": 1177,
      "464": 1178,
      "gent": 1179,
      "315": 1180,
      "301": 1181,
      "306": 1182,
      "449": 1183,
      "342": 1184,
      "ade": 1185,
      "212121": 1186,
      "AA": 1187,
      "Ġ107": 1188,
      "325": 1189,
      "view": 1190,
      "ado": 1191,
      "331": 1192,
      "Ġline": 1193,
      "ca": 1194,
      "DD": 1195,
      "format": 1196,
      "385": 1197,
      "RDF": 1198,
      "Ġ144": 1199,
      "Ġa": 1200,
      "383": 1201,
      "406": 1202,
      "008": 1203,
      "394": 1204,
      "319": 1205,
      "339": 1206,
      "309": 1207,
      "360": 1208,
      "356": 1209,
      "374": 1210,
      "resource": 1211,
      "397": 1212,
      "446": 1213,
      "Uplo": 1214,
      "222222": 1215,
      "422": 1216,
      "423": 1217,
      "Ġ126": 1218,
      "Ġ115": 1219,
      "adow": 1220,
      "ot": 1221,
      "layer": 1222,
      "right": 1223,
      "Ġ130": 1224,
      "345": 1225,
      "Ġ117": 1226,
      "Ġ119": 1227,
      "322": 1228,
      "[#": 1229,
      "Ġ118": 1230,
      "382": 1231,
      "Ġto": 1232,
      "array": 1233,
      "dasharray": 1234,
      "age": 1235,
      "repo": 1236,
      "438": 1237,
      "aded": 1238,
      "355": 1239,
      "ice": 1240,
      "Uploaded": 1241,
      "Ġsvg": 1242,
      "Ġsvgrepo": 1243,
      "357": 1244,
      "user": 1245,
      "Ġclr": 1246,
      "280": 1247,
      "392": 1248,
      "mart": 1249,
      "387": 1250,
      "469": 1251,
      "386": 1252,
      "414": 1253,
      "408": 1254,
      "Ġ132": 1255,
      "Agent": 1256,
      "321": 1257,
      ");\"/><": 1258,
      "455": 1259,
      "Ġ131": 1260,
      "351": 1261,
      "Ġrotate": 1262,
      "Ġ121": 1263,
      "395": 1264,
      "quare": 1265,
      "Ġgradient": 1266,
      "393": 1267,
      "435": 1268,
      "348": 1269,
      "Pro": 1270,
      "bb": 1271,
      "twemoji": 1272,
      "399": 1273,
      "511": 1274,
      "361": 1275,
      "fe": 1276,
      "Ġ125": 1277,
      "480": 1278,
      "413": 1279,
      "Ġ124": 1280,
      "varia": 1281,
      "variant": 1282,
      "square": 1283,
      "cor": 1284,
      "465": 1285,
      "ul": 1286,
      "429": 1287,
      "fal": 1288,
      "ED": 1289,
      "388": 1290,
      "Ġ129": 1291,
      "AF": 1292,
      "270": 1293,
      "389": 1294,
      "340": 1295,
      "445": 1296,
      "Ġ140": 1297,
      "412": 1298,
      "454": 1299,
      "347": 1300,
      "443": 1301,
      ");\"/></": 1302,
      "Ġ136": 1303,
      "398": 1304,
      "436": 1305,
      "false": 1306,
      "Smart": 1307,
      "Watch": 1308,
      "349": 1309,
      "__": 1310,
      "Ġ123": 1311,
      "ax": 1312,
      "290": 1313,
      "708": 1314,
      "407": 1315,
      "sy": 1316,
      "ele": 1317,
      "ide": 1318,
      "441": 1319,
      "Ġ138": 1320,
      "381": 1321,
      "clr": 1322,
      "451": 1323,
      "am": 1324,
      "428": 1325,
      "323232": 1326,
      "ShapeGroup": 1327,
      "MSShapeGroup": 1328,
      "ione": 1329,
      "emojione": 1330,
      "Ġ133": 1331,
      "On": 1332,
      "serif": 1333,
      "Ġicon": 1334,
      "442": 1335,
      "404": 1336,
      "Ġ134": 1337,
      "Ġ135": 1338,
      "bo": 1339,
      "409": 1340,
      "ft": 1341,
      "Ġfor": 1342,
      "473": 1343,
      "418": 1344,
      "330": 1345,
      "row": 1346,
      "456": 1347,
      "503": 1348,
      "Ġ#": 1349,
      "417": 1350,
      "gr": 1351,
      "401": 1352,
      "403": 1353,
      "496": 1354,
      "425": 1355,
      "476": 1356,
      "433": 1357,
      "ments": 1358,
      "474": 1359,
      "662": 1360,
      "012": 1361,
      "Ġ142": 1362,
      "009": 1363,
      "Ġ147": 1364,
      "Ġ137": 1365,
      "411": 1366,
      "487": 1367,
      "au": 1368,
      "Ġ400": 1369,
      "457": 1370,
      "Ġ141": 1371,
      "Ġ200": 1372,
      "Ġ149": 1373,
      "310": 1374,
      "437": 1375,
      "ntax": 1376,
      "syntax": 1377,
      "elements": 1378,
      "505": 1379,
      "402": 1380,
      "458": 1381,
      "Units": 1382,
      "453": 1383,
      "Ġ139": 1384,
      "Ġ146": 1385,
      "479": 1386,
      "ver": 1387,
      "495": 1388,
      "image": 1389,
      "468": 1390,
      "380": 1391,
      "Space": 1392,
      "ĠĠĠĠĠĠĠĠ": 1393,
      "Use": 1394,
      "Ġ170": 1395,
      "userSpace": 1396,
      "OnUse": 1397,
      "userSpaceOnUse": 1398,
      "421": 1399,
      "lue": 1400,
      "Ġ143": 1401,
      "415": 1402,
      "419": 1403,
      "FFF": 1404,
      "EA": 1405,
      "485": 1406,
      "452": 1407,
      "015": 1408,
      "439": 1409,
      "576": 1410,
      "BD": 1411,
      "484": 1412,
      "Ġ153": 1413,
      "Ġ(": 1414,
      "ir": 1415,
      "020": 1416,
      "431": 1417,
      "cur": 1418,
      "nder": 1419,
      "up": 1420,
      "462": 1421,
      "459": 1422,
      "427": 1423,
      "ure": 1424,
      "Ġ152": 1425,
      "897": 1426,
      "ocu": 1427,
      "Stroke": 1428,
      "Ġ145": 1429,
      "Ġ213": 1430,
      "477": 1431,
      "466": 1432,
      "older": 1433,
      "016": 1434,
      "492": 1435,
      "Ġ148": 1436,
      "ard": 1437,
      "6666": 1438,
      "Ġ150": 1439,
      "846": 1440,
      "page": 1441,
      "paint": 1442,
      "440": 1443,
      "Ġ448": 1444,
      "Ġ224": 1445,
      "Ġ176": 1446,
      "370": 1447,
      "%\"": 1448,
      "467": 1449,
      "011": 1450,
      "av": 1451,
      "471": 1452,
      "488": 1453,
      "486": 1454,
      "ator": 1455,
      "499": 1456,
      "AB": 1457,
      "020202": 1458,
      "grid": 1459,
      "ale": 1460,
      "478": 1461,
      "ien": 1462,
      "483": 1463,
      "ab": 1464,
      "Pre": 1465,
      "Ġ154": 1466,
      "502": 1467,
      "461": 1468,
      "ĠLine": 1469,
      "ctor": 1470,
      "sketch": 1471,
      "_\"/>": 1472,
      "ign": 1473,
      "cf": 1474,
      "/><": 1475,
      "506": 1476,
      "render": 1477,
      "rendering": 1478,
      "left": 1479,
      "938": 1480,
      "EE": 1481,
      "invisible": 1482,
      "lice": 1483,
      "350": 1484,
      "Ġ151": 1485,
      "auto": 1486,
      "BC": 1487,
      "Ġ155": 1488,
      "533": 1489,
      "ĠĠĠĠĠĠ": 1490,
      "493": 1491,
      "Ġ164": 1492,
      "014": 1493,
      "Ġbase": 1494,
      "Profile": 1495,
      "ĠbaseProfile": 1496,
      "Ġ1000": 1497,
      "768": 1498,
      "CA": 1499,
      "mask": 1500,
      "Ġ248": 1501,
      "013": 1502,
      "664": 1503,
      "Ġ\"": 1504,
      "DE": 1505,
      "ĠgradientUnits": 1506,
      "482": 1507,
      "Ġ226": 1508,
      "463": 1509,
      "508": 1510,
      "757": 1511,
      "504": 1512,
      "iso": 1513,
      "450": 1514,
      "Ġ166": 1515,
      "Ġ{": 1516,
      "decor": 1517,
      "decoration": 1518,
      "481": 1519,
      "896": 1520,
      "498": 1521,
      "twee": 1522,
      "Ġ240": 1523,
      "Ġ168": 1524,
      "BF": 1525,
      "he": 1526,
      "390": 1527,
      "491": 1528,
      "552": 1529,
      "018": 1530,
      "flue": 1531,
      "497": 1532,
      "ðŁ": 1533,
      "=\"ðŁ": 1534,
      "fluent": 1535,
      "DC": 1536,
      "672": 1537,
      "420": 1538,
      "501": 1539,
      "489": 1540,
      "Ġ320": 1541,
      "554": 1542,
      "758": 1543,
      "fla": 1544,
      "Ġ208": 1545,
      "Ġ158": 1546,
      "di": 1547,
      "rgb": 1548,
      "555": 1549,
      "Ġ156": 1550,
      "otone": 1551,
      "Ġ157": 1552,
      "ha": 1553,
      "tion": 1554,
      "ature": 1555,
      "Ġ173": 1556,
      "808": 1557,
      "553": 1558,
      "Ġ172": 1559,
      "022": 1560,
      "430": 1561,
      "du": 1562,
      "dd": 1563,
      "Ġ384": 1564,
      "Ġ174": 1565,
      "Ġ180": 1566,
      "021": 1567,
      "guide": 1568,
      "Ġ190": 1569,
      "ill": 1570,
      "Ġ179": 1571,
      "017": 1572,
      "Ġ163": 1573,
      "600": 1574,
      "ict": 1575,
      "Ġ159": 1576,
      "656": 1577,
      "creator": 1578,
      "=\"\"/><": 1579,
      "410": 1580,
      "Light": 1581,
      "lt": 1582,
      "023": 1583,
      "717": 1584,
      "Ġ182": 1585,
      "ector": 1586,
      "mage": 1587,
      "604": 1588,
      "515": 1589,
      "&#": 1590,
      "date": 1591,
      "558": 1592,
      "radi": 1593,
      "792": 1594,
      "arrow": 1595,
      "Ġ161": 1596,
      "Image": 1597,
      "pla": 1598,
      "Ġ288": 1599,
      "um": 1600,
      "586": 1601,
      "Ġ165": 1602,
      "ocado": 1603,
      "avocado": 1604,
      "bad": 1605,
      "ndom": 1606,
      "688": 1607,
      "Ġ184": 1608,
      "licens": 1609,
      "og": 1610,
      "025": 1611,
      "badge": 1612,
      "bc": 1613,
      "032": 1614,
      "556": 1615,
      "Ġ175": 1616,
      "460": 1617,
      "fandom": 1618,
      "Ġ181": 1619,
      "ric": 1620,
      "507": 1621,
      "625": 1622,
      "gular": 1623,
      "027": 1624,
      "aler": 1625,
      "847": 1626,
      "Ġ162": 1627,
      "572": 1628,
      "ea": 1629,
      "Ġ167": 1630,
      "Ġ255": 1631,
      "ies": 1632,
      "Ġ211": 1633,
      "034": 1634,
      "953": 1635,
      "832": 1636,
      "ĠĠĠĠĠĠĠĠĠĠĠĠĠĠĠĠĠĠĠĠĠĠĠ": 1637,
      "528": 1638,
      "box": 1639,
      "BE": 1640,
      "Ġ210": 1641,
      "828": 1642,
      "Ġ171": 1643,
      "xml": 1644,
      "Ġ220": 1645,
      "1694": 1646,
      "hadow": 1647,
      "mity": 1648,
      "dcmity": 1649,
      "Still": 1650,
      "dcmitype": 1651,
      "StillImage": 1652,
      "BA": 1653,
      "028": 1654,
      "Ġ204": 1655,
      "metric": 1656,
      "]\">": 1657,
      "2929": 1658,
      "500": 1659,
      "ker": 1660,
      "EF": 1661,
      "019": 1662,
      "875": 1663,
      "by": 1664,
      "Ġ214": 1665,
      "ribb": 1666,
      "larity": 1667,
      "Ġ178": 1668,
      "Ġ177": 1669,
      "509": 1670,
      "513": 1671,
      "Ġ212": 1672,
      "Folder": 1673,
      "ribbble": 1674,
      "order": 1675,
      "999": 1676,
      "Min": 1677,
      "545": 1678,
      "Ġ216": 1679,
      "Ġ217": 1680,
      "Dribbble": 1681,
      "024": 1682,
      "dview": 1683,
      "namedview": 1684,
      "33363": 1685,
      "525": 1686,
      "]</": 1687,
      "jam": 1688,
      "var": 1689,
      "Ġ183": 1690,
      "about": 1691,
      "Ġ[#": 1692,
      "Preview": 1693,
      "-[#": 1694,
      "shadow": 1695,
      "us": 1696,
      "529": 1697,
      "1719": 1698,
      "035": 1699,
      "059": 1700,
      "859": 1701,
      "flats": 1702,
      "686": 1703,
      "hadows": 1704,
      "flatshadows": 1705,
      "ac": 1706,
      "Ġ219": 1707,
      "hair": 1708,
      "766": 1709,
      "954": 1710,
      "bel": 1711,
      "lation": 1712,
      "radial": 1713,
      "mar": 1714,
      "Ġq": 1715,
      "rip": 1716,
      "662113": 1717,
      "cub": 1718,
      "646": 1719,
      "781": 1720,
      "613": 1721,
      "cubies": 1722,
      "(--": 1723,
      "026": 1724,
      "FC": 1725,
      "mode": 1726,
      "535": 1727,
      "ull": 1728,
      "filled": 1729,
      "ak": 1730,
      "574": 1731,
      "Color": 1732,
      "Ġ206": 1733,
      "597": 1734,
      "037": 1735,
      "Ġ260": 1736,
      "608": 1737,
      "434343": 1738,
      "Ġ215": 1739,
      "Ġ1920": 1740,
      "677": 1741,
      "=\"\">": 1742,
      "033": 1743,
      "788": 1744,
      "Ġis": 1745,
      "Ġ185": 1746,
      "sable": 1747,
      "badged": 1748,
      "Ġfocu": 1749,
      "Ġfocusable": 1750,
      "Ġ191": 1751,
      "4477": 1752,
      "045": 1753,
      "049": 1754,
      "057": 1755,
      "546": 1756,
      "the": 1757,
      "ag": 1758,
      "563": 1759,
      "rotate": 1760,
      "gt": 1761,
      "SV": 1762,
      "Ġ186": 1763,
      "Ġ218": 1764,
      "562": 1765,
      "044": 1766,
      "SVG": 1767,
      "play": 1768,
      "ition": 1769,
      "=\"&": 1770,
      "592": 1771,
      "Ġ209": 1772,
      "029": 1773,
      "657": 1774,
      "height": 1775,
      "ram": 1776,
      "8954": 1777,
      "596": 1778,
      "1119": 1779,
      "094": 1780,
      "Ġ}": 1781,
      "544": 1782,
      "490": 1783,
      "678": 1784,
      "789": 1785,
      "522": 1786,
      "Ġ-.": 1787,
      "043": 1788,
      "963": 1789,
      "ther": 1790,
      "Ġ225": 1791,
      "Ġ202": 1792,
      "Ġ253": 1793,
      "031": 1794,
      "El": 1795,
      "skin": 1796,
      "584": 1797,
      "Ġsi": 1798,
      "566": 1799,
      "Files": 1800,
      "845": 1801,
      "label": 1802,
      "734": 1803,
      "676": 1804,
      "Ġ223": 1805,
      "Ġ205": 1806,
      "low": 1807,
      "sition": 1808,
      "551": 1809,
      "ut": 1810,
      "down": 1811,
      "ĠQ": 1812,
      "Ġ198": 1813,
      "Ġ234": 1814,
      "Ġ207": 1815,
      "598": 1816,
      "812": 1817,
      "816": 1818,
      "pen": 1819,
      "ription": 1820,
      "Th": 1821,
      "848": 1822,
      "518": 1823,
      "description": 1824,
      "895": 1825,
      "no": 1826,
      "038": 1827,
      "042": 1828,
      "mi": 1829,
      "regular": 1830,
      "547": 1831,
      "ĠRectangle": 1832,
      "666": 1833,
      "536": 1834,
      "578": 1835,
      "706": 1836,
      "713": 1837,
      "624": 1838,
      "514": 1839,
      "ank": 1840,
      "564": 1841,
      "685": 1842,
      "036": 1843,
      "579": 1844,
      "078": 1845,
      "Ġ196": 1846,
      "Ellipse": 1847,
      "Ġ201": 1848,
      "ner": 1849,
      "Ġthe": 1850,
      "Ġ246": 1851,
      "063": 1852,
      "rights": 1853,
      "SVGID": 1854,
      "047": 1855,
      "838": 1856,
      "667": 1857,
      "This": 1858,
      "516": 1859,
      "Ġ197": 1860,
      "ĉĉĉĉ": 1861,
      "tk": 1862,
      "ĠClarity": 1863,
      "Ġtheme": 1864,
      "594": 1865,
      "ĠJ": 1866,
      "Ġvector": 1867,
      "Ġgtk": 1868,
      "pict": 1869,
      "Ġ195": 1870,
      "ĠĠĠĠĠĠĠĠĠ": 1871,
      "Ġshape": 1872,
      "eb": 1873,
      "vector": 1874,
      "Jak": 1875,
      "Ġ189": 1876,
      "iewic": 1877,
      "ankiewic": 1878,
      "ĠJankiewic": 1879,
      "Jakub": 1880,
      "ĠJankiewicz": 1881,
      "064": 1882,
      "682": 1883,
      "Ġ230": 1884,
      "ute": 1885,
      "Ġ252": 1886,
      "542": 1887,
      "Ġ254": 1888,
      "669": 1889,
      "Ġ352": 1890,
      "704": 1891,
      "531": 1892,
      "Ġ241": 1893,
      "fff": 1894,
      "Ġ250": 1895,
      "Ġ232": 1896,
      "Ġ300": 1897,
      "Ġ199": 1898,
      "668": 1899,
      "Ġ249": 1900,
      "568": 1901,
      "517": 1902,
      "Ġ222": 1903,
      "055": 1904,
      "Ġ194": 1905,
      "684": 1906,
      "058": 1907,
      "062": 1908,
      "052": 1909,
      "ogram": 1910,
      "618": 1911,
      "654": 1912,
      "705": 1913,
      "543": 1914,
      "636": 1915,
      "Ġ221": 1916,
      "Ġ187": 1917,
      "894": 1918,
      "shape": 1919,
      "524": 1920,
      "bi": 1921,
      "Ġ272": 1922,
      "727": 1923,
      "flow": 1924,
      "led": 1925,
      "orient": 1926,
      "111918": 1927,
      "602": 1928,
      "Ġ251": 1929,
      "orientation": 1930,
      "571": 1931,
      "pictogram": 1932,
      "046": 1933,
      "ted": 1934,
      "671": 1935,
      "658": 1936,
      "784": 1937,
      "Ġ229": 1938,
      "direct": 1939,
      "725": 1940,
      ")\"/><": 1941,
      "BB": 1942,
      "EC": 1943,
      "623": 1944,
      "che": 1945,
      "Ġ247": 1946,
      "627": 1947,
      "652": 1948,
      "FA": 1949,
      "822": 1950,
      "Ġ193": 1951,
      "538": 1952,
      "673": 1953,
      "ian": 1954,
      "575": 1955,
      "521": 1956,
      "Ġ203": 1957,
      "over": 1958,
      "Ġ245": 1959,
      "470": 1960,
      "Ġ298": 1961,
      "595": 1962,
      "635": 1963,
      "Ġ231": 1964,
      "radialGradient": 1965,
      "915": 1966,
      "998": 1967,
      "733": 1968,
      "523": 1969,
      "alerted": 1970,
      "Ġ244": 1971,
      "pacing": 1972,
      "674": 1973,
      "full": 1974,
      "Ġ228": 1975,
      "Ġ258": 1976,
      "748": 1977,
      "Fill": 1978,
      "744": 1979,
      "527": 1980,
      "éĿ": 1981,
      "567": 1982,
      "084": 1983,
      "994": 1984,
      "mix": 1985,
      "588": 1986,
      "Ġbi": 1987,
      "984": 1988,
      "Ġ336": 1989,
      "702": 1990,
      "048": 1991,
      ";\">": 1992,
      "é¡": 1993,
      "Ġ235": 1994,
      "éĿ¢": 1995,
      "µéĿ¢": 1996,
      "é¡µéĿ¢": 1997,
      "039": 1998,
      "Ġ257": 1999,
      "628": 2000,
      "637": 2001,
      "Ġ236": 2002,
      "Ġ239": 2003,
      "585": 2004,
      "monotone": 2005,
      "09244": 2006,
      "isplay": 2007,
      "Ġ264": 2008,
      "737": 2009,
      "607": 2010,
      "961": 2011,
      "Ġ304": 2012,
      "Cute": 2013,
      "Ming": 2014,
      "791": 2015,
      "MingCute": 2016,
      "557": 2017,
      "853": 2018,
      "569": 2019,
      "041": 2020,
      "548": 2021,
      "833": 2022,
      "534": 2023,
      "743": 2024,
      "583": 2025,
      "ĠIcon": 2026,
      "Ġ000": 2027,
      "573": 2028,
      "906": 2029,
      "532": 2030,
      "937": 2031,
      "eff": 2032,
      "½¢": 2033,
      "905": 2034,
      "å½¢": 2035,
      "736": 2036,
      "648": 2037,
      "617": 2038,
      "overflow": 2039,
      "Title": 2040,
      "IconTitle": 2041,
      "Ġ262": 2042,
      "088": 2043,
      "top": 2044,
      "819": 2045,
      "Ġ341": 2046,
      "Ġcolor": 2047
    },
    "merges": [
      [
        "Ġ",
        "1"
      ],
      [
        "=",
        "\""
      ],
      [
        "Ġ",
        "L"
      ],
      [
        "r",
        "o"
      ],
      [
        "s",
        "t"
      ],
      [
        "k",
        "e"
      ],
      [
        "ro",
        "ke"
      ],
      [
        "st",
        "roke"
      ],
      [
        "Ġ",
        "stroke"
      ],
      [
        "t",
        "h"
      ],
      [
        "0",
        "0"
      ],
      [
        "Ġ",
        "2"
      ],
      [
        "Ġ",
        "C"
      ],
      [
        "p",
        "a"
      ],
      [
        "i",
        "l"
      ],
      [
        "f",
        "il"
      ],
      [
        "fil",
        "l"
      ],
      [
        "Ġ",
        "fill"
      ],
      [
        "Ġ",
        "0"
      ],
      [
        "Ġ",
        "Ġ"
      ],
      [
        "i",
        "d"
      ],
      [
        "/",
        ">"
      ],
      [
        "\"",
        "/>"
      ],
      [
        "Ġ1",
        "2"
      ],
      [
        "i",
        "n"
      ],
      [
        "Ġ1",
        "0"
      ],
      [
        "Ġ",
        "9"
      ],
      [
        "Ġ1",
        "1"
      ],
      [
        "Ġ",
        "8"
      ],
      [
        "pa",
        "th"
      ],
      [
        "Ġ",
        "d"
      ],
      [
        "Ġ1",
        "3"
      ],
      [
        "1",
        "2"
      ],
      [
        "Ġ1",
        "4"
      ],
      [
        "Ġ",
        "7"
      ],
      [
        "Ġ1",
        "5"
      ],
      [
        "id",
        "th"
      ],
      [
        "w",
        "idth"
      ],
      [
        "Ġ",
        "6"
      ],
      [
        "-",
        "."
      ],
      [
        "Ġ1",
        "6"
      ],
      [
        "Ġ",
        "3"
      ],
      [
        "1",
        "0"
      ],
      [
        "o",
        "n"
      ],
      [
        "Ġ",
        "5"
      ],
      [
        "Ġ",
        "4"
      ],
      [
        "1",
        "1"
      ],
      [
        "1",
        "3"
      ],
      [
        "l",
        "a"
      ],
      [
        "Ġ1",
        "7"
      ],
      [
        "v",
        "g"
      ],
      [
        "s",
        "vg"
      ],
      [
        "i",
        "t"
      ],
      [
        "1",
        "4"
      ],
      [
        "n",
        "on"
      ],
      [
        "1",
        "6"
      ],
      [
        "non",
        "e"
      ],
      [
        "1",
        "5"
      ],
      [
        "pa",
        "c"
      ],
      [
        "h",
        "t"
      ],
      [
        "Ġ1",
        "8"
      ],
      [
        "w",
        "w"
      ],
      [
        "it",
        "y"
      ],
      [
        "pac",
        "ity"
      ],
      [
        "o",
        "pacity"
      ],
      [
        "c",
        "k"
      ],
      [
        "in",
        "g"
      ],
      [
        "1",
        "7"
      ],
      [
        "=\"",
        "."
      ],
      [
        "la",
        "ck"
      ],
      [
        "b",
        "lack"
      ],
      [
        "Ġfill",
        "ing"
      ],
      [
        "<",
        "/"
      ],
      [
        "p",
        "x"
      ],
      [
        "1",
        "8"
      ],
      [
        "Ġ",
        "c"
      ],
      [
        "1",
        "9"
      ],
      [
        "Ġ",
        "x"
      ],
      [
        "Ġ1",
        "9"
      ],
      [
        "o",
        "r"
      ],
      [
        "2",
        "00"
      ],
      [
        "\"",
        ">"
      ],
      [
        "n",
        "s"
      ],
      [
        "l",
        "in"
      ],
      [
        "2",
        "0"
      ],
      [
        "ĠĠ",
        "ĠĠ"
      ],
      [
        "m",
        "l"
      ],
      [
        "00",
        "00"
      ],
      [
        "Ġx",
        "ml"
      ],
      [
        "l",
        "e"
      ],
      [
        "8",
        "00"
      ],
      [
        "Ġ2",
        "4"
      ],
      [
        "=\"",
        "#"
      ],
      [
        "Ġ2",
        "0"
      ],
      [
        "ht",
        "t"
      ],
      [
        "htt",
        "p"
      ],
      [
        "/",
        "/"
      ],
      [
        ":",
        "//"
      ],
      [
        "or",
        "g"
      ],
      [
        "Ġxml",
        "ns"
      ],
      [
        "Ġ",
        "v"
      ],
      [
        "ww",
        "w"
      ],
      [
        "i",
        "g"
      ],
      [
        "Ġ",
        "h"
      ],
      [
        "ig",
        "ht"
      ],
      [
        "e",
        "ight"
      ],
      [
        "Ġh",
        "eight"
      ],
      [
        "Ġ",
        "width"
      ],
      [
        "2",
        "3"
      ],
      [
        "lin",
        "e"
      ],
      [
        "2",
        "2"
      ],
      [
        "i",
        "e"
      ],
      [
        "2",
        "4"
      ],
      [
        "ie",
        "w"
      ],
      [
        "200",
        "0"
      ],
      [
        "o",
        "x"
      ],
      [
        "B",
        "ox"
      ],
      [
        "Ġv",
        "iew"
      ],
      [
        "Ġview",
        "Box"
      ],
      [
        "ro",
        "u"
      ],
      [
        "2",
        "1"
      ],
      [
        "n",
        "d"
      ],
      [
        "Ġ",
        "id"
      ],
      [
        "rou",
        "nd"
      ],
      [
        "Ġ2",
        "1"
      ],
      [
        "ĠĠ",
        "Ġ"
      ],
      [
        "2",
        "5"
      ],
      [
        "Ġ",
        "-"
      ],
      [
        "e",
        "r"
      ],
      [
        "Ġ",
        "<"
      ],
      [
        "2",
        "7"
      ],
      [
        "s",
        "s"
      ],
      [
        "3",
        "2"
      ],
      [
        "0000",
        "00"
      ],
      [
        "2",
        "8"
      ],
      [
        "2",
        "6"
      ],
      [
        "2",
        "9"
      ],
      [
        "Ġ2",
        "2"
      ],
      [
        "3",
        "3"
      ],
      [
        "la",
        "ss"
      ],
      [
        "Ġc",
        "lass"
      ],
      [
        ",",
        "-"
      ],
      [
        "a",
        "p"
      ],
      [
        "3",
        "0"
      ],
      [
        "Ġ",
        "M"
      ],
      [
        "\"/>",
        "<"
      ],
      [
        "st",
        "y"
      ],
      [
        "sty",
        "le"
      ],
      [
        "3",
        "6"
      ],
      [
        "o",
        "in"
      ],
      [
        "r",
        "e"
      ],
      [
        "4",
        "4"
      ],
      [
        "c",
        "ap"
      ],
      [
        "\"/>",
        "</"
      ],
      [
        "\">",
        "<"
      ],
      [
        "3",
        "4"
      ],
      [
        "3",
        "5"
      ],
      [
        "3",
        "8"
      ],
      [
        "3",
        "7"
      ],
      [
        ":",
        "#"
      ],
      [
        "line",
        "cap"
      ],
      [
        "3",
        "9"
      ],
      [
        "v",
        "e"
      ],
      [
        "Ġ",
        "y"
      ],
      [
        "4",
        "8"
      ],
      [
        "j",
        "oin"
      ],
      [
        "line",
        "join"
      ],
      [
        "lin",
        "k"
      ],
      [
        "3",
        "1"
      ],
      [
        "x",
        "link"
      ],
      [
        "4",
        "0"
      ],
      [
        "a",
        "t"
      ],
      [
        "9",
        "9"
      ],
      [
        "Ġ3",
        "2"
      ],
      [
        "4",
        "5"
      ],
      [
        "Z",
        "M"
      ],
      [
        "4",
        "6"
      ],
      [
        "5",
        "6"
      ],
      [
        "4",
        "7"
      ],
      [
        "r",
        "a"
      ],
      [
        "Ġ",
        "style"
      ],
      [
        "c",
        "l"
      ],
      [
        "Ġ",
        "r"
      ],
      [
        "ĠĠĠĠ",
        "ĠĠĠ"
      ],
      [
        "r",
        "u"
      ],
      [
        "c",
        "t"
      ],
      [
        "d",
        "e"
      ],
      [
        "4",
        "9"
      ],
      [
        "4",
        "2"
      ],
      [
        ",",
        "."
      ],
      [
        "z",
        "m"
      ],
      [
        "o",
        "d"
      ],
      [
        "i",
        "on"
      ],
      [
        "a",
        "r"
      ],
      [
        "m",
        "e"
      ],
      [
        "5",
        "0"
      ],
      [
        "5",
        "5"
      ],
      [
        "4",
        "1"
      ],
      [
        "Ġ",
        "."
      ],
      [
        "cl",
        "s"
      ],
      [
        "i",
        "m"
      ],
      [
        "ra",
        "ns"
      ],
      [
        "ru",
        "le"
      ],
      [
        "o",
        "l"
      ],
      [
        "5",
        "7"
      ],
      [
        "4",
        "3"
      ],
      [
        "Ġ2",
        "3"
      ],
      [
        "Ġ",
        "Z"
      ],
      [
        "t",
        "rans"
      ],
      [
        "n",
        "a"
      ],
      [
        "c",
        "on"
      ],
      [
        "5",
        "8"
      ],
      [
        "e",
        "ve"
      ],
      [
        ";",
        "}"
      ],
      [
        "eve",
        "n"
      ],
      [
        "Ġ2",
        "6"
      ],
      [
        "od",
        "d"
      ],
      [
        "even",
        "odd"
      ],
      [
        "Ġ2",
        "8"
      ],
      [
        "Ġ2",
        "5"
      ],
      [
        "er",
        "s"
      ],
      [
        "ers",
        "ion"
      ],
      [
        "6",
        "6"
      ],
      [
        "19",
        "99"
      ],
      [
        "5",
        "9"
      ],
      [
        "Ġv",
        "ersion"
      ],
      [
        "t",
        "e"
      ],
      [
        "F",
        "F"
      ],
      [
        "Ġ",
        "</"
      ],
      [
        "Ġ2",
        "7"
      ],
      [
        "6",
        "4"
      ],
      [
        "it",
        "le"
      ],
      [
        "f",
        "f"
      ],
      [
        "5",
        "2"
      ],
      [
        "t",
        "itle"
      ],
      [
        "z",
        "M"
      ],
      [
        "6",
        "0"
      ],
      [
        "Ġ4",
        "8"
      ],
      [
        "Ġ3",
        "0"
      ],
      [
        "re",
        "ct"
      ],
      [
        "5",
        "4"
      ],
      [
        "Ġ2",
        "9"
      ],
      [
        "at",
        "a"
      ],
      [
        "5",
        "1"
      ],
      [
        "s",
        "er"
      ],
      [
        "5",
        "3"
      ],
      [
        "6",
        "8"
      ],
      [
        "na",
        "me"
      ],
      [
        "i",
        "p"
      ],
      [
        "r",
        "c"
      ],
      [
        "or",
        "m"
      ],
      [
        "6",
        "7"
      ],
      [
        "Ġ3",
        "6"
      ],
      [
        "Ġd",
        "ata"
      ],
      [
        "8",
        "8"
      ],
      [
        "Ġ5",
        "12"
      ],
      [
        "ĠĠĠĠ",
        "ĠĠĠĠĠĠĠ"
      ],
      [
        "c",
        "i"
      ],
      [
        "de",
        "f"
      ],
      [
        "def",
        "s"
      ],
      [
        "p",
        "re"
      ],
      [
        "ser",
        "ve"
      ],
      [
        "pre",
        "serve"
      ],
      [
        "y",
        "er"
      ],
      [
        "Ġc",
        "y"
      ],
      [
        "Ġc",
        "x"
      ],
      [
        "7",
        "7"
      ],
      [
        "rc",
        "le"
      ],
      [
        "ci",
        "rcle"
      ],
      [
        "i",
        "con"
      ],
      [
        "f",
        "orm"
      ],
      [
        "7",
        "0"
      ],
      [
        "s",
        "e"
      ],
      [
        "7",
        "8"
      ],
      [
        "9",
        "6"
      ],
      [
        "7",
        "5"
      ],
      [
        "L",
        "a"
      ],
      [
        "Ġ3",
        "1"
      ],
      [
        "Z",
        "m"
      ],
      [
        "Ġ6",
        "4"
      ],
      [
        "La",
        "yer"
      ],
      [
        "pac",
        "e"
      ],
      [
        "6",
        "1"
      ],
      [
        "p",
        "e"
      ],
      [
        "8",
        "0"
      ],
      [
        "7",
        "9"
      ],
      [
        "Ġ3",
        "8"
      ],
      [
        "6",
        "9"
      ],
      [
        "6",
        "2"
      ],
      [
        "Ġ",
        "l"
      ],
      [
        "s",
        "pace"
      ],
      [
        "trans",
        "form"
      ],
      [
        "Ġ4",
        "0"
      ],
      [
        "n",
        "t"
      ],
      [
        "Ġ",
        "transform"
      ],
      [
        "Ġ3",
        "4"
      ],
      [
        "6",
        "3"
      ],
      [
        "8",
        "9"
      ],
      [
        "Ġ3",
        "3"
      ],
      [
        "ar",
        "y"
      ],
      [
        "Ġ3",
        "5"
      ],
      [
        "m",
        "it"
      ],
      [
        "7",
        "2"
      ],
      [
        "7",
        "6"
      ],
      [
        "mit",
        "er"
      ],
      [
        "25",
        "6"
      ],
      [
        "Ġ3",
        "9"
      ],
      [
        "t",
        "s"
      ],
      [
        "im",
        "it"
      ],
      [
        "l",
        "imit"
      ],
      [
        "miter",
        "limit"
      ],
      [
        "p",
        "ol"
      ],
      [
        "pol",
        "y"
      ],
      [
        "Ġ3",
        "7"
      ],
      [
        "Ġ4",
        "2"
      ],
      [
        "Ġ",
        "p"
      ],
      [
        "6",
        "5"
      ],
      [
        "la",
        "te"
      ],
      [
        "ol",
        "or"
      ],
      [
        "trans",
        "late"
      ],
      [
        "d",
        "c"
      ],
      [
        "l",
        "ip"
      ],
      [
        "oin",
        "ts"
      ],
      [
        "Ġp",
        "oints"
      ],
      [
        "P",
        "a"
      ],
      [
        "7",
        "1"
      ],
      [
        "7",
        "3"
      ],
      [
        "Ġ",
        "round"
      ],
      [
        "Ġ4",
        "4"
      ],
      [
        "8",
        "5"
      ],
      [
        "9",
        "0"
      ],
      [
        "7",
        "4"
      ],
      [
        "ĉ",
        "ĉ"
      ],
      [
        "Ġ4",
        "1"
      ],
      [
        "12",
        "8"
      ],
      [
        ")",
        ";"
      ],
      [
        "Ġ",
        "z"
      ],
      [
        ">",
        "<"
      ],
      [
        "8",
        "4"
      ],
      [
        "27",
        "4"
      ],
      [
        "ĠĠĠĠ",
        "ĠĠĠĠĠĠĠĠĠĠĠ"
      ],
      [
        "g",
        "b"
      ],
      [
        "8",
        "7"
      ],
      [
        "9",
        "4"
      ],
      [
        "t",
        "y"
      ],
      [
        "ĠĠĠĠ",
        "Ġ"
      ],
      [
        "ty",
        "pe"
      ],
      [
        "Pa",
        "th"
      ],
      [
        "Ġ4",
        "3"
      ],
      [
        "Ġ5",
        "0"
      ],
      [
        "p",
        "r"
      ],
      [
        "9",
        "2"
      ],
      [
        "8",
        "3"
      ],
      [
        "b",
        "le"
      ],
      [
        "8",
        "6"
      ],
      [
        "pr",
        "im"
      ],
      [
        "prim",
        "ary"
      ],
      [
        "Ġ",
        "s"
      ],
      [
        "c",
        "h"
      ],
      [
        "8",
        "2"
      ],
      [
        "Ġr",
        "gb"
      ],
      [
        "b",
        "a"
      ],
      [
        "8",
        "1"
      ],
      [
        "9",
        "3"
      ],
      [
        "Ġc",
        "lip"
      ],
      [
        "x",
        "t"
      ],
      [
        "=\"",
        "_"
      ],
      [
        "Ġ4",
        "5"
      ],
      [
        "te",
        "xt"
      ],
      [
        ";",
        "\""
      ],
      [
        ")",
        "\""
      ],
      [
        "c",
        "olor"
      ],
      [
        "a",
        "l"
      ],
      [
        "9",
        "5"
      ],
      [
        "9",
        "1"
      ],
      [
        "g",
        "on"
      ],
      [
        "poly",
        "gon"
      ],
      [
        "Ġ4",
        "6"
      ],
      [
        "Ġ",
        "m"
      ],
      [
        "g",
        "e"
      ],
      [
        "Ġ4",
        "7"
      ],
      [
        "in",
        "k"
      ],
      [
        "i",
        "f"
      ],
      [
        "M",
        "id"
      ],
      [
        "Ġ4",
        "9"
      ],
      [
        "o",
        "p"
      ],
      [
        "cap",
        "e"
      ],
      [
        "s",
        "cape"
      ],
      [
        "ink",
        "scape"
      ],
      [
        "29",
        "2"
      ],
      [
        "9",
        "7"
      ],
      [
        "9",
        "8"
      ],
      [
        "n",
        "e"
      ],
      [
        "Ġ2",
        "56"
      ],
      [
        "o",
        "m"
      ],
      [
        "5",
        "12"
      ],
      [
        "o",
        "u"
      ],
      [
        "1",
        "00"
      ],
      [
        "Ġ5",
        "1"
      ],
      [
        "Ġ5",
        "2"
      ],
      [
        "la",
        "t"
      ],
      [
        "a",
        "d"
      ],
      [
        "c",
        "c"
      ],
      [
        "Ġ5",
        "6"
      ],
      [
        "Ġ",
        "ro"
      ],
      [
        "Ġ",
        "type"
      ],
      [
        "s",
        "c"
      ],
      [
        "i",
        "a"
      ],
      [
        "d",
        "f"
      ],
      [
        "Ġ1",
        "00"
      ],
      [
        "at",
        "i"
      ],
      [
        "if",
        "y"
      ],
      [
        "st",
        "op"
      ],
      [
        "Ġ",
        "none"
      ],
      [
        ")",
        "\">"
      ],
      [
        "c",
        "ss"
      ],
      [
        "icon",
        "ify"
      ],
      [
        "1",
        "12"
      ],
      [
        "u",
        "r"
      ],
      [
        "(",
        "-"
      ],
      [
        "ff",
        "ff"
      ],
      [
        "i",
        "c"
      ],
      [
        "_",
        "\""
      ],
      [
        "Ġ5",
        "3"
      ],
      [
        "ba",
        "ck"
      ],
      [
        "g",
        "round"
      ],
      [
        "FF",
        "FF"
      ],
      [
        "back",
        "ground"
      ],
      [
        "e",
        "na"
      ],
      [
        "ena",
        "ble"
      ],
      [
        "Ġ",
        "inkscape"
      ],
      [
        "de",
        "sc"
      ],
      [
        "ne",
        "w"
      ],
      [
        "ke",
        "t"
      ],
      [
        "Ġr",
        "x"
      ],
      [
        "ar",
        "ia"
      ],
      [
        "o",
        "w"
      ],
      [
        "Ġ",
        "\"/>"
      ],
      [
        "10",
        "4"
      ],
      [
        ";}",
        "</"
      ],
      [
        ">",
        "."
      ],
      [
        "at",
        "e"
      ],
      [
        "19",
        "2"
      ],
      [
        "Ġ5",
        "4"
      ],
      [
        "Ġ6",
        "0"
      ],
      [
        "Ġ5",
        "5"
      ],
      [
        "11",
        "4"
      ],
      [
        "11",
        "3"
      ],
      [
        "10",
        "6"
      ],
      [
        "e",
        "e"
      ],
      [
        "i",
        "s"
      ],
      [
        "12",
        "1"
      ],
      [
        "ra",
        "d"
      ],
      [
        "rou",
        "p"
      ],
      [
        "Ġ10",
        "24"
      ],
      [
        "ket",
        "ch"
      ],
      [
        "im",
        "g"
      ],
      [
        "Ġro",
        "le"
      ],
      [
        "c",
        "om"
      ],
      [
        "ap",
        "e"
      ],
      [
        "h",
        "ape"
      ],
      [
        "con",
        "d"
      ],
      [
        "Ġ",
        "enable"
      ],
      [
        "Ġ16",
        "9"
      ],
      [
        "se",
        "cond"
      ],
      [
        "G",
        "roup"
      ],
      [
        "Ġ5",
        "7"
      ],
      [
        "ie",
        "nt"
      ],
      [
        "second",
        "ary"
      ],
      [
        "t",
        "ru"
      ],
      [
        "10",
        "2"
      ],
      [
        "Ġ",
        "f"
      ],
      [
        "z",
        "e"
      ],
      [
        "tru",
        "e"
      ],
      [
        "-",
        "-"
      ],
      [
        "m",
        "o"
      ],
      [
        "poly",
        "line"
      ],
      [
        "a",
        "n"
      ],
      [
        "Ġ7",
        "6"
      ],
      [
        "00",
        "1"
      ],
      [
        "10",
        "8"
      ],
      [
        "Ġ",
        "S"
      ],
      [
        ";",
        "\"/>"
      ],
      [
        "Ġ5",
        "8"
      ],
      [
        "14",
        "4"
      ],
      [
        "33",
        "33"
      ],
      [
        "Ġ18",
        "8"
      ],
      [
        "10",
        "5"
      ],
      [
        "10",
        "3"
      ],
      [
        "12",
        "0"
      ],
      [
        ";",
        "\"/><"
      ],
      [
        "cl",
        "ip"
      ],
      [
        "s",
        "pe"
      ],
      [
        "2",
        "12"
      ],
      [
        "ur",
        "l"
      ],
      [
        "s",
        "h"
      ],
      [
        "20",
        "8"
      ],
      [
        "Ġ",
        "opacity"
      ],
      [
        "10",
        "7"
      ],
      [
        "e",
        "t"
      ],
      [
        "e",
        "ct"
      ],
      [
        "0",
        "9"
      ],
      [
        "rad",
        "ient"
      ],
      [
        "Ġ7",
        "2"
      ],
      [
        "ati",
        "o"
      ],
      [
        "spe",
        "ct"
      ],
      [
        "R",
        "atio"
      ],
      [
        "A",
        "spect"
      ],
      [
        "Ġ",
        "preserve"
      ],
      [
        "Aspect",
        "Ratio"
      ],
      [
        "Ġpreserve",
        "AspectRatio"
      ],
      [
        "=\"",
        "-"
      ],
      [
        "Ġ6",
        "2"
      ],
      [
        "11",
        "6"
      ],
      [
        "10",
        "1"
      ],
      [
        "Ġ12",
        "8"
      ],
      [
        "e",
        "l"
      ],
      [
        "10",
        "9"
      ],
      [
        "0",
        "2"
      ],
      [
        "13",
        "6"
      ],
      [
        "Ġ",
        "aria"
      ],
      [
        "2",
        "16"
      ],
      [
        "23",
        "1"
      ],
      [
        "16",
        "0"
      ],
      [
        "it",
        "e"
      ],
      [
        ">",
        "</"
      ],
      [
        "Ġ5",
        "9"
      ],
      [
        "12",
        "4"
      ],
      [
        "17",
        "6"
      ],
      [
        "11",
        "1"
      ],
      [
        "24",
        "1"
      ],
      [
        "11",
        "8"
      ],
      [
        "11",
        "5"
      ],
      [
        "p",
        "h"
      ],
      [
        ";}",
        "."
      ],
      [
        "11",
        "9"
      ],
      [
        "Y",
        "Mid"
      ],
      [
        "x",
        "Mid"
      ],
      [
        "xMid",
        "YMid"
      ],
      [
        "Ġ6",
        "1"
      ],
      [
        "12",
        "5"
      ],
      [
        "de",
        "n"
      ],
      [
        "in",
        "e"
      ],
      [
        "23",
        "2"
      ],
      [
        "w",
        "h"
      ],
      [
        "id",
        "den"
      ],
      [
        "18",
        "4"
      ],
      [
        "11",
        "7"
      ],
      [
        "h",
        "idden"
      ],
      [
        "15",
        "2"
      ],
      [
        "wh",
        "ite"
      ],
      [
        "16",
        "8"
      ],
      [
        "r",
        "df"
      ],
      [
        "12",
        "6"
      ],
      [
        "0",
        "5"
      ],
      [
        "I",
        "con"
      ],
      [
        "0",
        "6"
      ],
      [
        "S",
        "hape"
      ],
      [
        "12",
        "7"
      ],
      [
        "Ġ9",
        "6"
      ],
      [
        "F",
        "lat"
      ],
      [
        "12",
        "3"
      ],
      [
        "0",
        "8"
      ],
      [
        "e",
        "mo"
      ],
      [
        "1",
        "10"
      ],
      [
        "ze",
        "ro"
      ],
      [
        "non",
        "zero"
      ],
      [
        "emo",
        "j"
      ],
      [
        "12",
        "2"
      ],
      [
        "22",
        "4"
      ],
      [
        "r",
        "i"
      ],
      [
        "Ġ",
        "me"
      ],
      [
        "0",
        "7"
      ],
      [
        "o",
        "ff"
      ],
      [
        "Ġme",
        "et"
      ],
      [
        "Ġ",
        "00"
      ],
      [
        "l",
        "y"
      ],
      [
        "13",
        "2"
      ],
      [
        "l",
        "o"
      ],
      [
        "Ġ8",
        "0"
      ],
      [
        "15",
        "3"
      ],
      [
        "2",
        "13"
      ],
      [
        "Ġ7",
        "0"
      ],
      [
        "se",
        "t"
      ],
      [
        "Ġ6",
        "3"
      ],
      [
        "13",
        "5"
      ],
      [
        "12",
        "9"
      ],
      [
        "Ġ6",
        "5"
      ],
      [
        "13",
        "4"
      ],
      [
        "0",
        "1"
      ],
      [
        "14",
        "1"
      ],
      [
        "13",
        "7"
      ],
      [
        "20",
        "2"
      ],
      [
        "14",
        "9"
      ],
      [
        "17",
        "0"
      ],
      [
        "16",
        "6"
      ],
      [
        "14",
        "6"
      ],
      [
        "14",
        "3"
      ],
      [
        "16",
        "4"
      ],
      [
        "13",
        "3"
      ],
      [
        "13",
        "0"
      ],
      [
        "ee",
        "n"
      ],
      [
        "13",
        "8"
      ],
      [
        "38",
        "4"
      ],
      [
        "15",
        "6"
      ],
      [
        "13",
        "1"
      ],
      [
        "lip",
        "se"
      ],
      [
        "17",
        "2"
      ],
      [
        "13",
        "9"
      ],
      [
        "14",
        "0"
      ],
      [
        "14",
        "2"
      ],
      [
        "14",
        "8"
      ],
      [
        "ly",
        "ph"
      ],
      [
        "g",
        "le"
      ],
      [
        "Ġ8",
        "5"
      ],
      [
        "14",
        "5"
      ],
      [
        "g",
        "lyph"
      ],
      [
        "Ġ",
        "iconify"
      ],
      [
        "3",
        "23"
      ],
      [
        "15",
        "7"
      ],
      [
        "orm",
        "al"
      ],
      [
        "n",
        "ormal"
      ],
      [
        "15",
        "8"
      ],
      [
        "17",
        "4"
      ],
      [
        "line",
        "ar"
      ],
      [
        "ffff",
        "ff"
      ],
      [
        "00",
        "2"
      ],
      [
        "18",
        "8"
      ],
      [
        "17",
        "3"
      ],
      [
        "on",
        "t"
      ],
      [
        "rc",
        "e"
      ],
      [
        "ou",
        "rce"
      ],
      [
        "C",
        "C"
      ],
      [
        "an",
        "gle"
      ],
      [
        "15",
        "4"
      ],
      [
        "c",
        "re"
      ],
      [
        "22",
        "22"
      ],
      [
        "18",
        "0"
      ],
      [
        "me",
        "t"
      ],
      [
        "Ġr",
        "y"
      ],
      [
        "16",
        "2"
      ],
      [
        "off",
        "set"
      ],
      [
        "14",
        "7"
      ],
      [
        "od",
        "i"
      ],
      [
        "od",
        "ip"
      ],
      [
        "odip",
        "odi"
      ],
      [
        "20",
        "4"
      ],
      [
        "15",
        "9"
      ],
      [
        "16",
        "7"
      ],
      [
        "Ġ7",
        "1"
      ],
      [
        "Ġ6",
        "6"
      ],
      [
        "17",
        "8"
      ],
      [
        "t",
        "o"
      ],
      [
        "0",
        "3"
      ],
      [
        "Ġ7",
        "3"
      ],
      [
        "44",
        "8"
      ],
      [
        "ou",
        "t"
      ],
      [
        "16",
        "9"
      ],
      [
        "Ġ6",
        "8"
      ],
      [
        "22",
        "8"
      ],
      [
        "0",
        "4"
      ],
      [
        "18",
        "2"
      ],
      [
        "FFFF",
        "FF"
      ],
      [
        "15",
        "1"
      ],
      [
        "15",
        "5"
      ],
      [
        "17",
        "9"
      ],
      [
        "25",
        "5"
      ],
      [
        "24",
        "4"
      ],
      [
        "17",
        "5"
      ],
      [
        "23",
        "4"
      ],
      [
        "Ġ7",
        "4"
      ],
      [
        "18",
        "6"
      ],
      [
        "Ġ6",
        "7"
      ],
      [
        "s",
        "ource"
      ],
      [
        "G",
        "radient"
      ],
      [
        "17",
        "7"
      ],
      [
        "16",
        "5"
      ],
      [
        "s",
        "i"
      ],
      [
        "19",
        "6"
      ],
      [
        "20",
        "7"
      ],
      [
        "24",
        "8"
      ],
      [
        "17",
        "1"
      ],
      [
        "t",
        "w"
      ],
      [
        "16",
        "1"
      ],
      [
        "22",
        "5"
      ],
      [
        "28",
        "8"
      ],
      [
        "R",
        "ect"
      ],
      [
        "Rect",
        "angle"
      ],
      [
        ";",
        "\"/></"
      ],
      [
        "m",
        "a"
      ],
      [
        "Ġ6",
        "9"
      ],
      [
        "m",
        "on"
      ],
      [
        "Ġ7",
        "5"
      ],
      [
        "ĠC",
        "olor"
      ],
      [
        "el",
        "lipse"
      ],
      [
        "44",
        "4"
      ],
      [
        "18",
        "1"
      ],
      [
        "19",
        "7"
      ],
      [
        "2",
        "23"
      ],
      [
        "16",
        "3"
      ],
      [
        "ĠĠĠĠ",
        "ĠĠĠĠĠĠĠĠĠĠĠĠĠĠĠ"
      ],
      [
        "18",
        "5"
      ],
      [
        "19",
        "3"
      ],
      [
        "19",
        "8"
      ],
      [
        "24",
        "0"
      ],
      [
        "18",
        "3"
      ],
      [
        "f",
        "ont"
      ],
      [
        "Ġ9",
        "2"
      ],
      [
        "15",
        "0"
      ],
      [
        "24",
        "6"
      ],
      [
        "(",
        "#"
      ],
      [
        "35",
        "2"
      ],
      [
        "3",
        "20"
      ],
      [
        "19",
        "5"
      ],
      [
        "Ġ8",
        "1"
      ],
      [
        "2",
        "14"
      ],
      [
        "ri",
        "x"
      ],
      [
        "d",
        "a"
      ],
      [
        "at",
        "rix"
      ],
      [
        "ĠĠĠĠ",
        "Ċ"
      ],
      [
        "Ġ",
        "offset"
      ],
      [
        "20",
        "6"
      ],
      [
        "ar",
        "t"
      ],
      [
        "s",
        "k"
      ],
      [
        "19",
        "1"
      ],
      [
        "18",
        "7"
      ],
      [
        "2",
        "19"
      ],
      [
        "25",
        "4"
      ],
      [
        "2",
        "17"
      ],
      [
        "3",
        "44"
      ],
      [
        "2",
        "15"
      ],
      [
        "emoj",
        "i"
      ],
      [
        "2",
        "20"
      ],
      [
        "Ġ0",
        "1"
      ],
      [
        "Ġ7",
        "9"
      ],
      [
        "s",
        "odipodi"
      ],
      [
        "22",
        "2"
      ],
      [
        "20",
        "5"
      ],
      [
        "19",
        "4"
      ],
      [
        "Ġ8",
        "4"
      ],
      [
        "20",
        "3"
      ],
      [
        "m",
        "atrix"
      ],
      [
        "Ġ7",
        "8"
      ],
      [
        "2",
        "11"
      ],
      [
        "20",
        "9"
      ],
      [
        "4",
        "34"
      ],
      [
        "33",
        "3"
      ],
      [
        "I",
        "D"
      ],
      [
        "22",
        "6"
      ],
      [
        "18",
        "9"
      ],
      [
        "33",
        "6"
      ],
      [
        "27",
        "7"
      ],
      [
        "L",
        "ine"
      ],
      [
        "w",
        "i"
      ],
      [
        "2",
        "18"
      ],
      [
        "Ġ9",
        "0"
      ],
      [
        "25",
        "2"
      ],
      [
        "29",
        "3"
      ],
      [
        "#",
        "\""
      ],
      [
        "Ġ8",
        "3"
      ],
      [
        "o",
        "c"
      ],
      [
        "Ġ",
        "A"
      ],
      [
        "Icon",
        "s"
      ],
      [
        "Ġ7",
        "7"
      ],
      [
        "19",
        "9"
      ],
      [
        "36",
        "3"
      ],
      [
        "d",
        "ow"
      ],
      [
        "wi",
        "th"
      ],
      [
        ")",
        "\"/>"
      ],
      [
        "D",
        "F"
      ],
      [
        "22",
        "9"
      ],
      [
        "Ġf",
        "lat"
      ],
      [
        "icon",
        "s"
      ],
      [
        "at",
        "ion"
      ],
      [
        "Ġ8",
        "6"
      ],
      [
        "29",
        "8"
      ],
      [
        "34",
        "1"
      ],
      [
        "ĉĉ",
        "ĉ"
      ],
      [
        "Ġ19",
        "2"
      ],
      [
        "32",
        "8"
      ],
      [
        "Ġ8",
        "9"
      ],
      [
        "Ġ8",
        "8"
      ],
      [
        "Ġ8",
        "2"
      ],
      [
        "34",
        "3"
      ],
      [
        "Ġ9",
        "1"
      ],
      [
        "20",
        "1"
      ],
      [
        "Ġ16",
        "0"
      ],
      [
        "C",
        "re"
      ],
      [
        "Ġ8",
        "7"
      ],
      [
        "24",
        "3"
      ],
      [
        "22",
        "7"
      ],
      [
        "Ġ",
        "with"
      ],
      [
        "ate",
        "d"
      ],
      [
        "3333",
        "33"
      ],
      [
        ".",
        "</"
      ],
      [
        "in",
        "t"
      ],
      [
        "Cre",
        "ated"
      ],
      [
        "Ġr",
        "df"
      ],
      [
        "24",
        "7"
      ],
      [
        "Ġ9",
        "5"
      ],
      [
        "Ġ",
        "g"
      ],
      [
        "23",
        "3"
      ],
      [
        "23",
        "6"
      ],
      [
        "c",
        "e"
      ],
      [
        "22",
        "1"
      ],
      [
        "25",
        "3"
      ],
      [
        "24",
        "9"
      ],
      [
        "Ġ11",
        "2"
      ],
      [
        "00",
        "6"
      ],
      [
        "24",
        "2"
      ],
      [
        "28",
        "2"
      ],
      [
        "p",
        "o"
      ],
      [
        "Ġ9",
        "4"
      ],
      [
        "27",
        "2"
      ],
      [
        "24",
        "5"
      ],
      [
        "26",
        "4"
      ],
      [
        "linear",
        "Gradient"
      ],
      [
        "e",
        "d"
      ],
      [
        "M",
        "S"
      ],
      [
        "23",
        "9"
      ],
      [
        "Ġs",
        "ketch"
      ],
      [
        "ĠS",
        "ketch"
      ],
      [
        "25",
        "7"
      ],
      [
        "ad",
        "ata"
      ],
      [
        "met",
        "adata"
      ],
      [
        "Ġ9",
        "3"
      ],
      [
        "2",
        "10"
      ],
      [
        "26",
        "2"
      ],
      [
        "Ġ10",
        "6"
      ],
      [
        "23",
        "7"
      ],
      [
        "25",
        "8"
      ],
      [
        "S",
        "t"
      ],
      [
        "23",
        "8"
      ],
      [
        "t",
        "ate"
      ],
      [
        "da",
        "sh"
      ],
      [
        "36",
        "8"
      ],
      [
        "d",
        "er"
      ],
      [
        "3",
        "12"
      ],
      [
        "23",
        "5"
      ],
      [
        "37",
        "5"
      ],
      [
        "28",
        "6"
      ],
      [
        "ati",
        "ve"
      ],
      [
        "30",
        "4"
      ],
      [
        "Ġ10",
        "2"
      ],
      [
        "T",
        "rans"
      ],
      [
        "00",
        "3"
      ],
      [
        "25",
        "1"
      ],
      [
        "4",
        "16"
      ],
      [
        "26",
        "6"
      ],
      [
        "Ġ9",
        "8"
      ],
      [
        "b",
        "e"
      ],
      [
        "Ġ",
        "stop"
      ],
      [
        "28",
        "9"
      ],
      [
        "29",
        "6"
      ],
      [
        "/",
        "\""
      ],
      [
        "com",
        "mon"
      ],
      [
        "29",
        "7"
      ],
      [
        "cre",
        "ative"
      ],
      [
        "common",
        "s"
      ],
      [
        "Ġ9",
        "7"
      ],
      [
        "creative",
        "commons"
      ],
      [
        "33",
        "7"
      ],
      [
        "70",
        "7"
      ],
      [
        "ol",
        "id"
      ],
      [
        "g",
        "u"
      ],
      [
        "s",
        "olid"
      ],
      [
        "26",
        "8"
      ],
      [
        "re",
        "nt"
      ],
      [
        "28",
        "7"
      ],
      [
        "19",
        "0"
      ],
      [
        "25",
        "0"
      ],
      [
        "27",
        "1"
      ],
      [
        "p",
        "url"
      ],
      [
        "v",
        "is"
      ],
      [
        "Ġ10",
        "4"
      ],
      [
        "Ġ",
        "V"
      ],
      [
        "f",
        "a"
      ],
      [
        "e",
        "s"
      ],
      [
        "33",
        "8"
      ],
      [
        "37",
        "2"
      ],
      [
        "28",
        "5"
      ],
      [
        "30",
        "5"
      ],
      [
        "me",
        "nt"
      ],
      [
        "on",
        "e"
      ],
      [
        "Ġ",
        "b"
      ],
      [
        "33",
        "4"
      ],
      [
        "Ġ12",
        "0"
      ],
      [
        "28",
        "4"
      ],
      [
        "26",
        "3"
      ],
      [
        "Ġ9",
        "9"
      ],
      [
        "37",
        "3"
      ],
      [
        "vis",
        "i"
      ],
      [
        "out",
        "line"
      ],
      [
        "3",
        "00"
      ],
      [
        "Pa",
        "ge"
      ],
      [
        "26",
        "5"
      ],
      [
        "4",
        "24"
      ],
      [
        "25",
        "9"
      ],
      [
        "27",
        "5"
      ],
      [
        "32",
        "6"
      ],
      [
        "Ġ10",
        "1"
      ],
      [
        "3",
        "16"
      ],
      [
        "4",
        "26"
      ],
      [
        "27",
        "3"
      ],
      [
        "30",
        "7"
      ],
      [
        "Ġ10",
        "3"
      ],
      [
        "28",
        "1"
      ],
      [
        "at",
        "ch"
      ],
      [
        "26",
        "1"
      ],
      [
        "00",
        "4"
      ],
      [
        "39",
        "6"
      ],
      [
        "s",
        "a"
      ],
      [
        "fil",
        "e"
      ],
      [
        "00",
        "5"
      ],
      [
        "26",
        "9"
      ],
      [
        "36",
        "2"
      ],
      [
        "29",
        "5"
      ],
      [
        "36",
        "5"
      ],
      [
        "3",
        "13"
      ],
      [
        "F",
        "il"
      ],
      [
        "q",
        "u"
      ],
      [
        "or",
        "k"
      ],
      [
        "Ġ11",
        "0"
      ],
      [
        "_",
        "\">"
      ],
      [
        "4",
        "32"
      ],
      [
        "27",
        "9"
      ],
      [
        "35",
        "4"
      ],
      [
        "36",
        "4"
      ],
      [
        "Ġ10",
        "5"
      ],
      [
        "30",
        "3"
      ],
      [
        "3",
        "14"
      ],
      [
        "w",
        "in"
      ],
      [
        "3",
        "17"
      ],
      [
        "36",
        "6"
      ],
      [
        "M",
        "L"
      ],
      [
        "27",
        "6"
      ],
      [
        "u",
        "b"
      ],
      [
        "X",
        "ML"
      ],
      [
        "Ġ",
        "H"
      ],
      [
        "XML",
        "ID"
      ],
      [
        "t",
        "er"
      ],
      [
        "32",
        "9"
      ],
      [
        "30",
        "2"
      ],
      [
        "28",
        "3"
      ],
      [
        "Ġ11",
        "6"
      ],
      [
        "26",
        "7"
      ],
      [
        "C",
        "E"
      ],
      [
        "clip",
        "Path"
      ],
      [
        "a",
        "re"
      ],
      [
        "3",
        "32"
      ],
      [
        "la",
        "r"
      ],
      [
        "3",
        "24"
      ],
      [
        "37",
        "6"
      ],
      [
        "l",
        "u"
      ],
      [
        "ra",
        "y"
      ],
      [
        "Ġ11",
        "1"
      ],
      [
        "visi",
        "ble"
      ],
      [
        "23",
        "0"
      ],
      [
        "29",
        "4"
      ],
      [
        "30",
        "8"
      ],
      [
        "win",
        "dow"
      ],
      [
        "Ġ11",
        "3"
      ],
      [
        "36",
        "7"
      ],
      [
        "35",
        "8"
      ],
      [
        "27",
        "8"
      ],
      [
        "ba",
        "se"
      ],
      [
        "4",
        "00"
      ],
      [
        "37",
        "1"
      ],
      [
        "Ġ10",
        "8"
      ],
      [
        "3",
        "11"
      ],
      [
        "40",
        "5"
      ],
      [
        "37",
        "8"
      ],
      [
        "37",
        "9"
      ],
      [
        "29",
        "9"
      ],
      [
        "26",
        "0"
      ],
      [
        "Ġ10",
        "9"
      ],
      [
        "29",
        "1"
      ],
      [
        "37",
        "7"
      ],
      [
        "p",
        "lo"
      ],
      [
        "36",
        "9"
      ],
      [
        "Ġ11",
        "4"
      ],
      [
        "35",
        "9"
      ],
      [
        "3",
        "27"
      ],
      [
        "n",
        "it"
      ],
      [
        "Ġ12",
        "7"
      ],
      [
        "3",
        "18"
      ],
      [
        "W",
        "ork"
      ],
      [
        "39",
        "1"
      ],
      [
        "Ġ12",
        "2"
      ],
      [
        "pa",
        "rent"
      ],
      [
        "33",
        "5"
      ],
      [
        "Trans",
        "parent"
      ],
      [
        "00",
        "7"
      ],
      [
        "47",
        "2"
      ],
      [
        "34",
        "6"
      ],
      [
        "nit",
        "s"
      ],
      [
        "47",
        "5"
      ],
      [
        "44",
        "7"
      ],
      [
        "35",
        "3"
      ],
      [
        "l",
        "r"
      ],
      [
        "49",
        "4"
      ],
      [
        "46",
        "4"
      ],
      [
        "ge",
        "nt"
      ],
      [
        "3",
        "15"
      ],
      [
        "30",
        "1"
      ],
      [
        "30",
        "6"
      ],
      [
        "44",
        "9"
      ],
      [
        "34",
        "2"
      ],
      [
        "a",
        "de"
      ],
      [
        "212",
        "121"
      ],
      [
        "A",
        "A"
      ],
      [
        "Ġ10",
        "7"
      ],
      [
        "3",
        "25"
      ],
      [
        "v",
        "iew"
      ],
      [
        "ad",
        "o"
      ],
      [
        "33",
        "1"
      ],
      [
        "Ġ",
        "line"
      ],
      [
        "c",
        "a"
      ],
      [
        "D",
        "D"
      ],
      [
        "form",
        "at"
      ],
      [
        "38",
        "5"
      ],
      [
        "R",
        "DF"
      ],
      [
        "Ġ14",
        "4"
      ],
      [
        "Ġ",
        "a"
      ],
      [
        "38",
        "3"
      ],
      [
        "40",
        "6"
      ],
      [
        "00",
        "8"
      ],
      [
        "39",
        "4"
      ],
      [
        "3",
        "19"
      ],
      [
        "33",
        "9"
      ],
      [
        "30",
        "9"
      ],
      [
        "36",
        "0"
      ],
      [
        "35",
        "6"
      ],
      [
        "37",
        "4"
      ],
      [
        "re",
        "source"
      ],
      [
        "39",
        "7"
      ],
      [
        "44",
        "6"
      ],
      [
        "U",
        "plo"
      ],
      [
        "2222",
        "22"
      ],
      [
        "4",
        "22"
      ],
      [
        "4",
        "23"
      ],
      [
        "Ġ12",
        "6"
      ],
      [
        "Ġ11",
        "5"
      ],
      [
        "ad",
        "ow"
      ],
      [
        "o",
        "t"
      ],
      [
        "la",
        "yer"
      ],
      [
        "r",
        "ight"
      ],
      [
        "Ġ13",
        "0"
      ],
      [
        "34",
        "5"
      ],
      [
        "Ġ11",
        "7"
      ],
      [
        "Ġ11",
        "9"
      ],
      [
        "3",
        "22"
      ],
      [
        "[",
        "#"
      ],
      [
        "Ġ11",
        "8"
      ],
      [
        "38",
        "2"
      ],
      [
        "Ġ",
        "to"
      ],
      [
        "ar",
        "ray"
      ],
      [
        "dash",
        "array"
      ],
      [
        "a",
        "ge"
      ],
      [
        "re",
        "po"
      ],
      [
        "4",
        "38"
      ],
      [
        "ade",
        "d"
      ],
      [
        "35",
        "5"
      ],
      [
        "ic",
        "e"
      ],
      [
        "Uplo",
        "aded"
      ],
      [
        "Ġ",
        "svg"
      ],
      [
        "Ġsvg",
        "repo"
      ],
      [
        "35",
        "7"
      ],
      [
        "u",
        "ser"
      ],
      [
        "Ġc",
        "lr"
      ],
      [
        "28",
        "0"
      ],
      [
        "39",
        "2"
      ],
      [
        "m",
        "art"
      ],
      [
        "38",
        "7"
      ],
      [
        "46",
        "9"
      ],
      [
        "38",
        "6"
      ],
      [
        "4",
        "14"
      ],
      [
        "40",
        "8"
      ],
      [
        "Ġ13",
        "2"
      ],
      [
        "A",
        "gent"
      ],
      [
        "3",
        "21"
      ],
      [
        ");",
        "\"/><"
      ],
      [
        "45",
        "5"
      ],
      [
        "Ġ13",
        "1"
      ],
      [
        "35",
        "1"
      ],
      [
        "Ġro",
        "tate"
      ],
      [
        "Ġ12",
        "1"
      ],
      [
        "39",
        "5"
      ],
      [
        "qu",
        "are"
      ],
      [
        "Ġg",
        "radient"
      ],
      [
        "39",
        "3"
      ],
      [
        "4",
        "35"
      ],
      [
        "34",
        "8"
      ],
      [
        "P",
        "ro"
      ],
      [
        "b",
        "b"
      ],
      [
        "tw",
        "emoji"
      ],
      [
        "39",
        "9"
      ],
      [
        "5",
        "11"
      ],
      [
        "36",
        "1"
      ],
      [
        "f",
        "e"
      ],
      [
        "Ġ12",
        "5"
      ],
      [
        "48",
        "0"
      ],
      [
        "4",
        "13"
      ],
      [
        "Ġ12",
        "4"
      ],
      [
        "v",
        "aria"
      ],
      [
        "varia",
        "nt"
      ],
      [
        "s",
        "quare"
      ],
      [
        "c",
        "or"
      ],
      [
        "46",
        "5"
      ],
      [
        "u",
        "l"
      ],
      [
        "4",
        "29"
      ],
      [
        "f",
        "al"
      ],
      [
        "E",
        "D"
      ],
      [
        "38",
        "8"
      ],
      [
        "Ġ12",
        "9"
      ],
      [
        "A",
        "F"
      ],
      [
        "27",
        "0"
      ],
      [
        "38",
        "9"
      ],
      [
        "34",
        "0"
      ],
      [
        "44",
        "5"
      ],
      [
        "Ġ14",
        "0"
      ],
      [
        "4",
        "12"
      ],
      [
        "45",
        "4"
      ],
      [
        "34",
        "7"
      ],
      [
        "44",
        "3"
      ],
      [
        ");",
        "\"/></"
      ],
      [
        "Ġ13",
        "6"
      ],
      [
        "39",
        "8"
      ],
      [
        "4",
        "36"
      ],
      [
        "fal",
        "se"
      ],
      [
        "S",
        "mart"
      ],
      [
        "W",
        "atch"
      ],
      [
        "34",
        "9"
      ],
      [
        "_",
        "_"
      ],
      [
        "Ġ12",
        "3"
      ],
      [
        "a",
        "x"
      ],
      [
        "29",
        "0"
      ],
      [
        "70",
        "8"
      ],
      [
        "40",
        "7"
      ],
      [
        "s",
        "y"
      ],
      [
        "e",
        "le"
      ],
      [
        "id",
        "e"
      ],
      [
        "44",
        "1"
      ],
      [
        "Ġ13",
        "8"
      ],
      [
        "38",
        "1"
      ],
      [
        "cl",
        "r"
      ],
      [
        "45",
        "1"
      ],
      [
        "a",
        "m"
      ],
      [
        "4",
        "28"
      ],
      [
        "323",
        "232"
      ],
      [
        "Shape",
        "Group"
      ],
      [
        "MS",
        "ShapeGroup"
      ],
      [
        "ion",
        "e"
      ],
      [
        "emoj",
        "ione"
      ],
      [
        "Ġ13",
        "3"
      ],
      [
        "O",
        "n"
      ],
      [
        "ser",
        "if"
      ],
      [
        "Ġ",
        "icon"
      ],
      [
        "44",
        "2"
      ],
      [
        "40",
        "4"
      ],
      [
        "Ġ13",
        "4"
      ],
      [
        "Ġ13",
        "5"
      ],
      [
        "b",
        "o"
      ],
      [
        "40",
        "9"
      ],
      [
        "f",
        "t"
      ],
      [
        "Ġf",
        "or"
      ],
      [
        "47",
        "3"
      ],
      [
        "4",
        "18"
      ],
      [
        "33",
        "0"
      ],
      [
        "ro",
        "w"
      ],
      [
        "45",
        "6"
      ],
      [
        "50",
        "3"
      ],
      [
        "Ġ",
        "#"
      ],
      [
        "4",
        "17"
      ],
      [
        "g",
        "r"
      ],
      [
        "40",
        "1"
      ],
      [
        "40",
        "3"
      ],
      [
        "49",
        "6"
      ],
      [
        "4",
        "25"
      ],
      [
        "47",
        "6"
      ],
      [
        "4",
        "33"
      ],
      [
        "ment",
        "s"
      ],
      [
        "47",
        "4"
      ],
      [
        "66",
        "2"
      ],
      [
        "0",
        "12"
      ],
      [
        "Ġ14",
        "2"
      ],
      [
        "00",
        "9"
      ],
      [
        "Ġ14",
        "7"
      ],
      [
        "Ġ13",
        "7"
      ],
      [
        "4",
        "11"
      ],
      [
        "48",
        "7"
      ],
      [
        "a",
        "u"
      ],
      [
        "Ġ4",
        "00"
      ],
      [
        "45",
        "7"
      ],
      [
        "Ġ14",
        "1"
      ],
      [
        "Ġ2",
        "00"
      ],
      [
        "Ġ14",
        "9"
      ],
      [
        "3",
        "10"
      ],
      [
        "4",
        "37"
      ],
      [
        "nt",
        "ax"
      ],
      [
        "sy",
        "ntax"
      ],
      [
        "ele",
        "ments"
      ],
      [
        "50",
        "5"
      ],
      [
        "40",
        "2"
      ],
      [
        "45",
        "8"
      ],
      [
        "U",
        "nits"
      ],
      [
        "45",
        "3"
      ],
      [
        "Ġ13",
        "9"
      ],
      [
        "Ġ14",
        "6"
      ],
      [
        "47",
        "9"
      ],
      [
        "v",
        "er"
      ],
      [
        "49",
        "5"
      ],
      [
        "im",
        "age"
      ],
      [
        "46",
        "8"
      ],
      [
        "38",
        "0"
      ],
      [
        "S",
        "pace"
      ],
      [
        "ĠĠĠĠ",
        "ĠĠĠĠ"
      ],
      [
        "U",
        "se"
      ],
      [
        "Ġ17",
        "0"
      ],
      [
        "user",
        "Space"
      ],
      [
        "On",
        "Use"
      ],
      [
        "userSpace",
        "OnUse"
      ],
      [
        "4",
        "21"
      ],
      [
        "lu",
        "e"
      ],
      [
        "Ġ14",
        "3"
      ],
      [
        "4",
        "15"
      ],
      [
        "4",
        "19"
      ],
      [
        "FF",
        "F"
      ],
      [
        "E",
        "A"
      ],
      [
        "48",
        "5"
      ],
      [
        "45",
        "2"
      ],
      [
        "0",
        "15"
      ],
      [
        "4",
        "39"
      ],
      [
        "57",
        "6"
      ],
      [
        "B",
        "D"
      ],
      [
        "48",
        "4"
      ],
      [
        "Ġ15",
        "3"
      ],
      [
        "Ġ",
        "("
      ],
      [
        "i",
        "r"
      ],
      [
        "0",
        "20"
      ],
      [
        "4",
        "31"
      ],
      [
        "c",
        "ur"
      ],
      [
        "nd",
        "er"
      ],
      [
        "u",
        "p"
      ],
      [
        "46",
        "2"
      ],
      [
        "45",
        "9"
      ],
      [
        "4",
        "27"
      ],
      [
        "u",
        "re"
      ],
      [
        "Ġ15",
        "2"
      ],
      [
        "89",
        "7"
      ],
      [
        "oc",
        "u"
      ],
      [
        "St",
        "roke"
      ],
      [
        "Ġ14",
        "5"
      ],
      [
        "Ġ2",
        "13"
      ],
      [
        "47",
        "7"
      ],
      [
        "46",
        "6"
      ],
      [
        "ol",
        "der"
      ],
      [
        "0",
        "16"
      ],
      [
        "49",
        "2"
      ],
      [
        "Ġ14",
        "8"
      ],
      [
        "ar",
        "d"
      ],
      [
        "66",
        "66"
      ],
      [
        "Ġ15",
        "0"
      ],
      [
        "8",
        "46"
      ],
      [
        "pa",
        "ge"
      ],
      [
        "pa",
        "int"
      ],
      [
        "44",
        "0"
      ],
      [
        "Ġ4",
        "48"
      ],
      [
        "Ġ2",
        "24"
      ],
      [
        "Ġ17",
        "6"
      ],
      [
        "37",
        "0"
      ],
      [
        "%",
        "\""
      ],
      [
        "46",
        "7"
      ],
      [
        "0",
        "11"
      ],
      [
        "a",
        "v"
      ],
      [
        "47",
        "1"
      ],
      [
        "48",
        "8"
      ],
      [
        "48",
        "6"
      ],
      [
        "at",
        "or"
      ],
      [
        "4",
        "99"
      ],
      [
        "A",
        "B"
      ],
      [
        "020",
        "202"
      ],
      [
        "gr",
        "id"
      ],
      [
        "a",
        "le"
      ],
      [
        "47",
        "8"
      ],
      [
        "ie",
        "n"
      ],
      [
        "48",
        "3"
      ],
      [
        "a",
        "b"
      ],
      [
        "P",
        "re"
      ],
      [
        "Ġ15",
        "4"
      ],
      [
        "50",
        "2"
      ],
      [
        "46",
        "1"
      ],
      [
        "ĠL",
        "ine"
      ],
      [
        "ct",
        "or"
      ],
      [
        "s",
        "ketch"
      ],
      [
        "_",
        "\"/>"
      ],
      [
        "ig",
        "n"
      ],
      [
        "c",
        "f"
      ],
      [
        "/>",
        "<"
      ],
      [
        "50",
        "6"
      ],
      [
        "re",
        "nder"
      ],
      [
        "render",
        "ing"
      ],
      [
        "le",
        "ft"
      ],
      [
        "9",
        "38"
      ],
      [
        "E",
        "E"
      ],
      [
        "in",
        "visible"
      ],
      [
        "l",
        "ice"
      ],
      [
        "35",
        "0"
      ],
      [
        "Ġ15",
        "1"
      ],
      [
        "au",
        "to"
      ],
      [
        "B",
        "C"
      ],
      [
        "Ġ15",
        "5"
      ],
      [
        "5",
        "33"
      ],
      [
        "ĠĠĠĠ",
        "ĠĠ"
      ],
      [
        "49",
        "3"
      ],
      [
        "Ġ16",
        "4"
      ],
      [
        "0",
        "14"
      ],
      [
        "Ġ",
        "base"
      ],
      [
        "Pro",
        "file"
      ],
      [
        "Ġbase",
        "Profile"
      ],
      [
        "Ġ100",
        "0"
      ],
      [
        "7",
        "68"
      ],
      [
        "C",
        "A"
      ],
      [
        "ma",
        "sk"
      ],
      [
        "Ġ24",
        "8"
      ],
      [
        "0",
        "13"
      ],
      [
        "66",
        "4"
      ],
      [
        "Ġ",
        "\""
      ],
      [
        "D",
        "E"
      ],
      [
        "Ġgradient",
        "Units"
      ],
      [
        "48",
        "2"
      ],
      [
        "Ġ2",
        "26"
      ],
      [
        "46",
        "3"
      ],
      [
        "50",
        "8"
      ],
      [
        "7",
        "57"
      ],
      [
        "50",
        "4"
      ],
      [
        "is",
        "o"
      ],
      [
        "45",
        "0"
      ],
      [
        "Ġ16",
        "6"
      ],
      [
        "Ġ",
        "{"
      ],
      [
        "de",
        "cor"
      ],
      [
        "decor",
        "ation"
      ],
      [
        "48",
        "1"
      ],
      [
        "8",
        "96"
      ],
      [
        "49",
        "8"
      ],
      [
        "tw",
        "ee"
      ],
      [
        "Ġ24",
        "0"
      ],
      [
        "Ġ16",
        "8"
      ],
      [
        "B",
        "F"
      ],
      [
        "h",
        "e"
      ],
      [
        "39",
        "0"
      ],
      [
        "49",
        "1"
      ],
      [
        "55",
        "2"
      ],
      [
        "0",
        "18"
      ],
      [
        "f",
        "lue"
      ],
      [
        "49",
        "7"
      ],
      [
        "ð",
        "Ł"
      ],
      [
        "=\"",
        "ðŁ"
      ],
      [
        "flue",
        "nt"
      ],
      [
        "D",
        "C"
      ],
      [
        "67",
        "2"
      ],
      [
        "4",
        "20"
      ],
      [
        "50",
        "1"
      ],
      [
        "48",
        "9"
      ],
      [
        "Ġ3",
        "20"
      ],
      [
        "55",
        "4"
      ],
      [
        "7",
        "58"
      ],
      [
        "f",
        "la"
      ],
      [
        "Ġ20",
        "8"
      ],
      [
        "Ġ15",
        "8"
      ],
      [
        "d",
        "i"
      ],
      [
        "r",
        "gb"
      ],
      [
        "55",
        "5"
      ],
      [
        "Ġ15",
        "6"
      ],
      [
        "ot",
        "one"
      ],
      [
        "Ġ15",
        "7"
      ],
      [
        "h",
        "a"
      ],
      [
        "t",
        "ion"
      ],
      [
        "at",
        "ure"
      ],
      [
        "Ġ17",
        "3"
      ],
      [
        "80",
        "8"
      ],
      [
        "55",
        "3"
      ],
      [
        "Ġ17",
        "2"
      ],
      [
        "0",
        "22"
      ],
      [
        "4",
        "30"
      ],
      [
        "d",
        "u"
      ],
      [
        "d",
        "d"
      ],
      [
        "Ġ38",
        "4"
      ],
      [
        "Ġ17",
        "4"
      ],
      [
        "Ġ18",
        "0"
      ],
      [
        "0",
        "21"
      ],
      [
        "gu",
        "ide"
      ],
      [
        "Ġ19",
        "0"
      ],
      [
        "il",
        "l"
      ],
      [
        "Ġ17",
        "9"
      ],
      [
        "0",
        "17"
      ],
      [
        "Ġ16",
        "3"
      ],
      [
        "6",
        "00"
      ],
      [
        "i",
        "ct"
      ],
      [
        "Ġ15",
        "9"
      ],
      [
        "6",
        "56"
      ],
      [
        "cre",
        "ator"
      ],
      [
        "=\"",
        "\"/><"
      ],
      [
        "4",
        "10"
      ],
      [
        "L",
        "ight"
      ],
      [
        "l",
        "t"
      ],
      [
        "0",
        "23"
      ],
      [
        "7",
        "17"
      ],
      [
        "Ġ18",
        "2"
      ],
      [
        "ect",
        "or"
      ],
      [
        "ma",
        "ge"
      ],
      [
        "60",
        "4"
      ],
      [
        "5",
        "15"
      ],
      [
        "&",
        "#"
      ],
      [
        "d",
        "ate"
      ],
      [
        "55",
        "8"
      ],
      [
        "rad",
        "i"
      ],
      [
        "79",
        "2"
      ],
      [
        "ar",
        "row"
      ],
      [
        "Ġ16",
        "1"
      ],
      [
        "I",
        "mage"
      ],
      [
        "p",
        "la"
      ],
      [
        "Ġ28",
        "8"
      ],
      [
        "u",
        "m"
      ],
      [
        "58",
        "6"
      ],
      [
        "Ġ16",
        "5"
      ],
      [
        "oc",
        "ado"
      ],
      [
        "av",
        "ocado"
      ],
      [
        "ba",
        "d"
      ],
      [
        "nd",
        "om"
      ],
      [
        "68",
        "8"
      ],
      [
        "Ġ18",
        "4"
      ],
      [
        "lice",
        "ns"
      ],
      [
        "o",
        "g"
      ],
      [
        "0",
        "25"
      ],
      [
        "bad",
        "ge"
      ],
      [
        "b",
        "c"
      ],
      [
        "0",
        "32"
      ],
      [
        "5",
        "56"
      ],
      [
        "Ġ17",
        "5"
      ],
      [
        "46",
        "0"
      ],
      [
        "fa",
        "ndom"
      ],
      [
        "Ġ18",
        "1"
      ],
      [
        "r",
        "ic"
      ],
      [
        "50",
        "7"
      ],
      [
        "6",
        "25"
      ],
      [
        "gu",
        "lar"
      ],
      [
        "0",
        "27"
      ],
      [
        "ale",
        "r"
      ],
      [
        "8",
        "47"
      ],
      [
        "Ġ16",
        "2"
      ],
      [
        "57",
        "2"
      ],
      [
        "e",
        "a"
      ],
      [
        "Ġ16",
        "7"
      ],
      [
        "Ġ2",
        "55"
      ],
      [
        "ie",
        "s"
      ],
      [
        "Ġ2",
        "11"
      ],
      [
        "0",
        "34"
      ],
      [
        "9",
        "53"
      ],
      [
        "8",
        "32"
      ],
      [
        "ĠĠĠĠ",
        "ĠĠĠĠĠĠĠĠĠĠĠĠĠĠĠĠĠĠĠ"
      ],
      [
        "5",
        "28"
      ],
      [
        "b",
        "ox"
      ],
      [
        "B",
        "E"
      ],
      [
        "Ġ2",
        "10"
      ],
      [
        "8",
        "28"
      ],
      [
        "Ġ17",
        "1"
      ],
      [
        "x",
        "ml"
      ],
      [
        "Ġ2",
        "20"
      ],
      [
        "16",
        "94"
      ],
      [
        "h",
        "adow"
      ],
      [
        "m",
        "ity"
      ],
      [
        "dc",
        "mity"
      ],
      [
        "St",
        "ill"
      ],
      [
        "dcmity",
        "pe"
      ],
      [
        "Still",
        "Image"
      ],
      [
        "B",
        "A"
      ],
      [
        "0",
        "28"
      ],
      [
        "Ġ20",
        "4"
      ],
      [
        "met",
        "ric"
      ],
      [
        "]",
        "\">"
      ],
      [
        "29",
        "29"
      ],
      [
        "5",
        "00"
      ],
      [
        "ke",
        "r"
      ],
      [
        "E",
        "F"
      ],
      [
        "0",
        "19"
      ],
      [
        "8",
        "75"
      ],
      [
        "b",
        "y"
      ],
      [
        "Ġ2",
        "14"
      ],
      [
        "ri",
        "bb"
      ],
      [
        "lar",
        "ity"
      ],
      [
        "Ġ17",
        "8"
      ],
      [
        "Ġ17",
        "7"
      ],
      [
        "50",
        "9"
      ],
      [
        "5",
        "13"
      ],
      [
        "Ġ2",
        "12"
      ],
      [
        "F",
        "older"
      ],
      [
        "ribb",
        "ble"
      ],
      [
        "or",
        "der"
      ],
      [
        "99",
        "9"
      ],
      [
        "M",
        "in"
      ],
      [
        "5",
        "45"
      ],
      [
        "Ġ2",
        "16"
      ],
      [
        "Ġ2",
        "17"
      ],
      [
        "D",
        "ribbble"
      ],
      [
        "0",
        "24"
      ],
      [
        "d",
        "view"
      ],
      [
        "name",
        "dview"
      ],
      [
        "33",
        "363"
      ],
      [
        "5",
        "25"
      ],
      [
        "]",
        "</"
      ],
      [
        "j",
        "am"
      ],
      [
        "v",
        "ar"
      ],
      [
        "Ġ18",
        "3"
      ],
      [
        "ab",
        "out"
      ],
      [
        "Ġ",
        "[#"
      ],
      [
        "Pre",
        "view"
      ],
      [
        "-",
        "[#"
      ],
      [
        "sh",
        "adow"
      ],
      [
        "u",
        "s"
      ],
      [
        "5",
        "29"
      ],
      [
        "17",
        "19"
      ],
      [
        "0",
        "35"
      ],
      [
        "0",
        "59"
      ],
      [
        "8",
        "59"
      ],
      [
        "fla",
        "ts"
      ],
      [
        "68",
        "6"
      ],
      [
        "hadow",
        "s"
      ],
      [
        "flats",
        "hadows"
      ],
      [
        "a",
        "c"
      ],
      [
        "Ġ2",
        "19"
      ],
      [
        "ha",
        "ir"
      ],
      [
        "7",
        "66"
      ],
      [
        "9",
        "54"
      ],
      [
        "b",
        "el"
      ],
      [
        "lat",
        "ion"
      ],
      [
        "radi",
        "al"
      ],
      [
        "m",
        "ar"
      ],
      [
        "Ġ",
        "q"
      ],
      [
        "r",
        "ip"
      ],
      [
        "662",
        "113"
      ],
      [
        "c",
        "ub"
      ],
      [
        "6",
        "46"
      ],
      [
        "78",
        "1"
      ],
      [
        "6",
        "13"
      ],
      [
        "cub",
        "ies"
      ],
      [
        "(-",
        "-"
      ],
      [
        "0",
        "26"
      ],
      [
        "F",
        "C"
      ],
      [
        "mo",
        "de"
      ],
      [
        "5",
        "35"
      ],
      [
        "ul",
        "l"
      ],
      [
        "fill",
        "ed"
      ],
      [
        "a",
        "k"
      ],
      [
        "57",
        "4"
      ],
      [
        "C",
        "olor"
      ],
      [
        "Ġ20",
        "6"
      ],
      [
        "59",
        "7"
      ],
      [
        "0",
        "37"
      ],
      [
        "Ġ26",
        "0"
      ],
      [
        "60",
        "8"
      ],
      [
        "434",
        "343"
      ],
      [
        "Ġ2",
        "15"
      ],
      [
        "Ġ19",
        "20"
      ],
      [
        "67",
        "7"
      ],
      [
        "=\"",
        "\">"
      ],
      [
        "0",
        "33"
      ],
      [
        "7",
        "88"
      ],
      [
        "Ġ",
        "is"
      ],
      [
        "Ġ18",
        "5"
      ],
      [
        "sa",
        "ble"
      ],
      [
        "badge",
        "d"
      ],
      [
        "Ġf",
        "ocu"
      ],
      [
        "Ġfocu",
        "sable"
      ],
      [
        "Ġ19",
        "1"
      ],
      [
        "44",
        "77"
      ],
      [
        "0",
        "45"
      ],
      [
        "0",
        "49"
      ],
      [
        "0",
        "57"
      ],
      [
        "5",
        "46"
      ],
      [
        "th",
        "e"
      ],
      [
        "a",
        "g"
      ],
      [
        "56",
        "3"
      ],
      [
        "ro",
        "tate"
      ],
      [
        "g",
        "t"
      ],
      [
        "S",
        "V"
      ],
      [
        "Ġ18",
        "6"
      ],
      [
        "Ġ2",
        "18"
      ],
      [
        "56",
        "2"
      ],
      [
        "0",
        "44"
      ],
      [
        "SV",
        "G"
      ],
      [
        "pla",
        "y"
      ],
      [
        "it",
        "ion"
      ],
      [
        "=\"",
        "&"
      ],
      [
        "59",
        "2"
      ],
      [
        "Ġ20",
        "9"
      ],
      [
        "0",
        "29"
      ],
      [
        "6",
        "57"
      ],
      [
        "h",
        "eight"
      ],
      [
        "ra",
        "m"
      ],
      [
        "89",
        "54"
      ],
      [
        "59",
        "6"
      ],
      [
        "11",
        "19"
      ],
      [
        "0",
        "94"
      ],
      [
        "Ġ",
        "}"
      ],
      [
        "5",
        "44"
      ],
      [
        "49",
        "0"
      ],
      [
        "67",
        "8"
      ],
      [
        "78",
        "9"
      ],
      [
        "5",
        "22"
      ],
      [
        "Ġ",
        "-."
      ],
      [
        "0",
        "43"
      ],
      [
        "96",
        "3"
      ],
      [
        "th",
        "er"
      ],
      [
        "Ġ2",
        "25"
      ],
      [
        "Ġ20",
        "2"
      ],
      [
        "Ġ25",
        "3"
      ],
      [
        "0",
        "31"
      ],
      [
        "E",
        "l"
      ],
      [
        "sk",
        "in"
      ],
      [
        "58",
        "4"
      ],
      [
        "Ġs",
        "i"
      ],
      [
        "56",
        "6"
      ],
      [
        "Fil",
        "es"
      ],
      [
        "8",
        "45"
      ],
      [
        "la",
        "bel"
      ],
      [
        "7",
        "34"
      ],
      [
        "67",
        "6"
      ],
      [
        "Ġ2",
        "23"
      ],
      [
        "Ġ20",
        "5"
      ],
      [
        "l",
        "ow"
      ],
      [
        "s",
        "ition"
      ],
      [
        "55",
        "1"
      ],
      [
        "u",
        "t"
      ],
      [
        "dow",
        "n"
      ],
      [
        "Ġ",
        "Q"
      ],
      [
        "Ġ19",
        "8"
      ],
      [
        "Ġ2",
        "34"
      ],
      [
        "Ġ20",
        "7"
      ],
      [
        "59",
        "8"
      ],
      [
        "8",
        "12"
      ],
      [
        "8",
        "16"
      ],
      [
        "pe",
        "n"
      ],
      [
        "rip",
        "tion"
      ],
      [
        "T",
        "h"
      ],
      [
        "8",
        "48"
      ],
      [
        "5",
        "18"
      ],
      [
        "desc",
        "ription"
      ],
      [
        "89",
        "5"
      ],
      [
        "n",
        "o"
      ],
      [
        "0",
        "38"
      ],
      [
        "0",
        "42"
      ],
      [
        "m",
        "i"
      ],
      [
        "re",
        "gular"
      ],
      [
        "5",
        "47"
      ],
      [
        "Ġ",
        "Rectangle"
      ],
      [
        "66",
        "6"
      ],
      [
        "5",
        "36"
      ],
      [
        "57",
        "8"
      ],
      [
        "70",
        "6"
      ],
      [
        "7",
        "13"
      ],
      [
        "6",
        "24"
      ],
      [
        "5",
        "14"
      ],
      [
        "an",
        "k"
      ],
      [
        "56",
        "4"
      ],
      [
        "68",
        "5"
      ],
      [
        "0",
        "36"
      ],
      [
        "57",
        "9"
      ],
      [
        "0",
        "78"
      ],
      [
        "Ġ19",
        "6"
      ],
      [
        "El",
        "lipse"
      ],
      [
        "Ġ20",
        "1"
      ],
      [
        "n",
        "er"
      ],
      [
        "Ġ",
        "the"
      ],
      [
        "Ġ24",
        "6"
      ],
      [
        "0",
        "63"
      ],
      [
        "right",
        "s"
      ],
      [
        "SVG",
        "ID"
      ],
      [
        "0",
        "47"
      ],
      [
        "8",
        "38"
      ],
      [
        "66",
        "7"
      ],
      [
        "Th",
        "is"
      ],
      [
        "5",
        "16"
      ],
      [
        "Ġ19",
        "7"
      ],
      [
        "ĉĉ",
        "ĉĉ"
      ],
      [
        "t",
        "k"
      ],
      [
        "ĠC",
        "larity"
      ],
      [
        "Ġthe",
        "me"
      ],
      [
        "59",
        "4"
      ],
      [
        "Ġ",
        "J"
      ],
      [
        "Ġv",
        "ector"
      ],
      [
        "Ġg",
        "tk"
      ],
      [
        "p",
        "ict"
      ],
      [
        "Ġ19",
        "5"
      ],
      [
        "ĠĠĠĠ",
        "ĠĠĠĠĠ"
      ],
      [
        "Ġs",
        "hape"
      ],
      [
        "e",
        "b"
      ],
      [
        "ve",
        "ctor"
      ],
      [
        "J",
        "ak"
      ],
      [
        "Ġ18",
        "9"
      ],
      [
        "iew",
        "ic"
      ],
      [
        "ank",
        "iewic"
      ],
      [
        "ĠJ",
        "ankiewic"
      ],
      [
        "Jak",
        "ub"
      ],
      [
        "ĠJankiewic",
        "z"
      ],
      [
        "0",
        "64"
      ],
      [
        "68",
        "2"
      ],
      [
        "Ġ2",
        "30"
      ],
      [
        "u",
        "te"
      ],
      [
        "Ġ25",
        "2"
      ],
      [
        "5",
        "42"
      ],
      [
        "Ġ25",
        "4"
      ],
      [
        "66",
        "9"
      ],
      [
        "Ġ3",
        "52"
      ],
      [
        "70",
        "4"
      ],
      [
        "5",
        "31"
      ],
      [
        "Ġ24",
        "1"
      ],
      [
        "ff",
        "f"
      ],
      [
        "Ġ2",
        "50"
      ],
      [
        "Ġ2",
        "32"
      ],
      [
        "Ġ3",
        "00"
      ],
      [
        "Ġ19",
        "9"
      ],
      [
        "66",
        "8"
      ],
      [
        "Ġ24",
        "9"
      ],
      [
        "56",
        "8"
      ],
      [
        "5",
        "17"
      ],
      [
        "Ġ2",
        "22"
      ],
      [
        "0",
        "55"
      ],
      [
        "Ġ19",
        "4"
      ],
      [
        "68",
        "4"
      ],
      [
        "0",
        "58"
      ],
      [
        "0",
        "62"
      ],
      [
        "0",
        "52"
      ],
      [
        "og",
        "ram"
      ],
      [
        "6",
        "18"
      ],
      [
        "6",
        "54"
      ],
      [
        "70",
        "5"
      ],
      [
        "5",
        "43"
      ],
      [
        "6",
        "36"
      ],
      [
        "Ġ2",
        "21"
      ],
      [
        "Ġ18",
        "7"
      ],
      [
        "89",
        "4"
      ],
      [
        "s",
        "hape"
      ],
      [
        "5",
        "24"
      ],
      [
        "b",
        "i"
      ],
      [
        "Ġ27",
        "2"
      ],
      [
        "7",
        "27"
      ],
      [
        "f",
        "low"
      ],
      [
        "le",
        "d"
      ],
      [
        "or",
        "ient"
      ],
      [
        "1119",
        "18"
      ],
      [
        "60",
        "2"
      ],
      [
        "Ġ25",
        "1"
      ],
      [
        "orient",
        "ation"
      ],
      [
        "57",
        "1"
      ],
      [
        "pict",
        "ogram"
      ],
      [
        "0",
        "46"
      ],
      [
        "te",
        "d"
      ],
      [
        "67",
        "1"
      ],
      [
        "6",
        "58"
      ],
      [
        "78",
        "4"
      ],
      [
        "Ġ2",
        "29"
      ],
      [
        "di",
        "rect"
      ],
      [
        "7",
        "25"
      ],
      [
        ")",
        "\"/><"
      ],
      [
        "B",
        "B"
      ],
      [
        "E",
        "C"
      ],
      [
        "6",
        "23"
      ],
      [
        "ch",
        "e"
      ],
      [
        "Ġ24",
        "7"
      ],
      [
        "6",
        "27"
      ],
      [
        "6",
        "52"
      ],
      [
        "F",
        "A"
      ],
      [
        "8",
        "22"
      ],
      [
        "Ġ19",
        "3"
      ],
      [
        "5",
        "38"
      ],
      [
        "67",
        "3"
      ],
      [
        "ia",
        "n"
      ],
      [
        "57",
        "5"
      ],
      [
        "5",
        "21"
      ],
      [
        "Ġ20",
        "3"
      ],
      [
        "o",
        "ver"
      ],
      [
        "Ġ24",
        "5"
      ],
      [
        "47",
        "0"
      ],
      [
        "Ġ29",
        "8"
      ],
      [
        "59",
        "5"
      ],
      [
        "6",
        "35"
      ],
      [
        "Ġ2",
        "31"
      ],
      [
        "radial",
        "Gradient"
      ],
      [
        "9",
        "15"
      ],
      [
        "99",
        "8"
      ],
      [
        "7",
        "33"
      ],
      [
        "5",
        "23"
      ],
      [
        "aler",
        "ted"
      ],
      [
        "Ġ24",
        "4"
      ],
      [
        "pac",
        "ing"
      ],
      [
        "67",
        "4"
      ],
      [
        "f",
        "ull"
      ],
      [
        "Ġ2",
        "28"
      ],
      [
        "Ġ2",
        "58"
      ],
      [
        "7",
        "48"
      ],
      [
        "Fil",
        "l"
      ],
      [
        "7",
        "44"
      ],
      [
        "5",
        "27"
      ],
      [
        "é",
        "Ŀ"
      ],
      [
        "56",
        "7"
      ],
      [
        "0",
        "84"
      ],
      [
        "99",
        "4"
      ],
      [
        "mi",
        "x"
      ],
      [
        "58",
        "8"
      ],
      [
        "Ġb",
        "i"
      ],
      [
        "9",
        "84"
      ],
      [
        "Ġ3",
        "36"
      ],
      [
        "70",
        "2"
      ],
      [
        "0",
        "48"
      ],
      [
        ";",
        "\">"
      ],
      [
        "é",
        "¡"
      ],
      [
        "Ġ2",
        "35"
      ],
      [
        "éĿ",
        "¢"
      ],
      [
        "µ",
        "éĿ¢"
      ],
      [
        "é¡",
        "µéĿ¢"
      ],
      [
        "0",
        "39"
      ],
      [
        "Ġ2",
        "57"
      ],
      [
        "6",
        "28"
      ],
      [
        "6",
        "37"
      ],
      [
        "Ġ2",
        "36"
      ],
      [
        "Ġ2",
        "39"
      ],
      [
        "58",
        "5"
      ],
      [
        "mon",
        "otone"
      ],
      [
        "09",
        "244"
      ],
      [
        "is",
        "play"
      ],
      [
        "Ġ26",
        "4"
      ],
      [
        "7",
        "37"
      ],
      [
        "60",
        "7"
      ],
      [
        "96",
        "1"
      ],
      [
        "Ġ30",
        "4"
      ],
      [
        "C",
        "ute"
      ],
      [
        "M",
        "ing"
      ],
      [
        "79",
        "1"
      ],
      [
        "Ming",
        "Cute"
      ],
      [
        "55",
        "7"
      ],
      [
        "8",
        "53"
      ],
      [
        "56",
        "9"
      ],
      [
        "0",
        "41"
      ],
      [
        "5",
        "48"
      ],
      [
        "8",
        "33"
      ],
      [
        "5",
        "34"
      ],
      [
        "7",
        "43"
      ],
      [
        "58",
        "3"
      ],
      [
        "Ġ",
        "Icon"
      ],
      [
        "Ġ00",
        "0"
      ],
      [
        "57",
        "3"
      ],
      [
        "90",
        "6"
      ],
      [
        "5",
        "32"
      ],
      [
        "9",
        "37"
      ],
      [
        "e",
        "ff"
      ],
      [
        "½",
        "¢"
      ],
      [
        "90",
        "5"
      ],
      [
        "å",
        "½¢"
      ],
      [
        "7",
        "36"
      ],
      [
        "6",
        "48"
      ],
      [
        "6",
        "17"
      ],
      [
        "over",
        "flow"
      ],
      [
        "T",
        "itle"
      ],
      [
        "Icon",
        "Title"
      ],
      [
        "Ġ26",
        "2"
      ],
      [
        "0",
        "88"
      ],
      [
        "t",
        "op"
      ],
      [
        "8",
        "19"
      ],
      [
        "Ġ3",
        "41"
      ],
      [
        "Ġc",
        "olor"
      ]
    ]
  }
}