{
  "version": "1.0",
  "truncation": null,
  "padding": null,
  "added_tokens": [
    {
      "id": 0,
      "content": "<|endoftext|>",
      "single_word": false,
      "lstrip": false,
      "rstrip": false,
      "normalized": false,
      "special": true
    },
    {
      "id": 1,
      "content": "<unk>",
      "single_word": false,
      "lstrip": false,
      "rstrip": false,
      "normalized": false,
      "special": true
    }
  ],
  "normalizer": null,
  "pre_tokenizer": {
    "type": "ByteLevel",
    "add_prefix_space": false,
    "trim_offsets": true,
    "use_regex": true
  },
  "post_processor": null,
  "decoder": {
    "type": "ByteLevel",
    "add_prefix_space": true,
    "trim_offsets": true,
    "use_regex": true
  },
  "model": {
    "type": "BPE",
    "dropout": null,
    "unk_token": "<unk>",
    "continuing_subword_prefix": null,
    "end_of_word_suffix": null,
    "fuse_unk": false,
    "byte_fallback": false,
    "ignore_merges": false,
    "vocab": {
      "<|endoftext|>": 0,
      "<unk>": 1,
      "!": 2,
      "\"": 3,
      "#": 4,
      "$": 5,
      "%": 6,
      "&": 7,
      "'": 8,
      "(": 9,
      ")": 10,
      "*": 11,
      "+": 12,
      ",": 13,
      "-": 14,
      ".": 15,
      "/": 16,
      "0": 17,
      "1": 18,
      "2": 19,
      "3": 20,
      "4": 21,
      "5": 22,
      "6": 23,
      "7": 24,
      "8": 25,
      "9": 26,
      ":": 27,
      ";": 28,
      "<": 29,
      "=": 30,
      ">": 31,
      "?": 32,
      "@": 33,
      "A": 34,
      "B": 35,
      "C": 36,
      "D": 37,
      "E": 38,
      "F": 39,
      "G": 40,
      "H": 41,
      "I": 42,
      "J": 43,
      "K": 44,
      "L": 45,
      "M": 46,
      "N": 47,
      "O": 48,
      "P": 49,
      "Q": 50,
      "R": 51,
      "S": 52,
      "T": 53,
      "U": 54,
      "V": 55,
      "W": 56,
      "X": 57,
      "Y": 58,
      "Z": 59,
      "[": 60,
      "\\": 61,
      "]": 62,
      "_": 63,
      "`": 64,
      "a": 65,
      "b": 66,
      "c": 67,
      "d": 68,
      "e": 69,
      "f": 70,
      "g": 71,
      "h": 72,
      "i": 73,
      "j": 74,
      "k": 75,
      "l": 76,
      "m": 77,
      "n": 78,
      "o": 79,
      "p": 80,
      "q": 81,
      "r": 82,
      "s": 83,
      "t": 84,
      "u": 85,
      "v": 86,
      "w": 87,
      "x": 88,
      "y": 89,
      "z": 90,
      "{": 91,
      "}": 92,
      "¡": 93,
      "¢": 94,
      "£": 95,
      "¤": 96,
      "¥": 97,
      "¦": 98,
      "§": 99,
      "¨": 100,
      "©": 101,
      "ª": 102,
      "«": 103,
      "¬": 104,
      "®": 105,
      "¯": 106,
      "°": 107,
      "±": 108,
      "²": 109,
      "³": 110,
      "´": 111,
      "µ": 112,
      "¶": 113,
      "·": 114,
      "¸": 115,
      "¹": 116,
      "º": 117,
      "»": 118,
      "¼": 119,
      "½": 120,
      "¾": 121,
      "¿": 122,
      "Â": 123,
      "Ã": 124,
      "Å": 125,
      "Î": 126,
      "Ð": 127,
      "Ñ": 128,
      "Ù": 129,
      "â": 130,
      "ã": 131,
      "ä": 132,
      "å": 133,
      "æ": 134,
      "ç": 135,
      "è": 136,
      "é": 137,
      "ï": 138,
      "ð": 139,
      "ĉ": 140,
      "Ċ": 141,
      "Ġ": 142,
      "Ģ": 143,
      "ģ": 144,
      "Ĥ": 145,
      "ĥ": 146,
      "Ħ": 147,
      "ħ": 148,
      "Ĩ": 149,
      "ĩ": 150,
      "Ī": 151,
      "ī": 152,
      "Ĭ": 153,
      "ĭ": 154,
      "Į": 155,
      "į": 156,
      "İ": 157,
      "ı": 158,
      "Ĳ": 159,
      "ĳ": 160,
      "Ĵ": 161,
      "ĵ": 162,
      "Ķ": 163,
      "ķ": 164,
      "ĸ": 165,
      "Ĺ": 166,
      "ĺ": 167,
      "Ļ": 168,
      "ļ": 169,
      "Ľ": 170,
      "ľ": 171,
      "Ŀ": 172,
      "ŀ": 173,
      "Ł": 174,
      "ł": 175,
      "Ń": 176,
      "Ġ1": 177,
      "=\"": 178,
      "ĠL": 179,
      "ro": 180,
      "st": 181,
      "ke": 182,
      "roke": 183,
      "stroke": 184,
      "Ġstroke": 185,
      "th": 186,
      "00": 187,
      "Ġ2": 188,
      "ĠC": 189,
      "pa": 190,
      "il": 191,
      "fil": 192,
      "fill": 193,
      "Ġfill": 194,
      "Ġ0": 195,
      "ĠĠ": 196,
      "id": 197,
      "/>": 198,
      "\"/>": 199,
      "Ġ12": 200,
      "in": 201,
      "Ġ10": 202,
      "Ġ9": 203,
      "Ġ11": 204,
      "Ġ8": 205,
      "path": 206,
      "Ġd": 207,
      "Ġ13": 208,
      "12": 209,
      "Ġ14": 210,
      "Ġ7": 211,
      "Ġ15": 212,
      "idth": 213,
      "width": 214,
      "Ġ6": 215,
      "-.": 216,
      "Ġ16": 217,
      "Ġ3": 218,
      "10": 219,
      "on": 220,
      "Ġ5": 221,
      "Ġ4": 222,
      "11": 223,
      "13": 224,
      "la": 225,
      "Ġ17": 226,
      "vg": 227,
      "svg": 228,
      "it": 229,
      "14": 230,
      "non": 231,
      "16": 232,
      "none": 233,
      "15": 234,
      "pac": 235,
      "ht": 236,
      "Ġ18": 237,
      "ww": 238,
      "ity": 239,
      "pacity": 240,
      "opacity": 241,
      "ck": 242,
      "ing": 243,
      "17": 244,
      "=\".": 245,
      "lack": 246,
      "black": 247,
      "Ġfilling": 248,
      "</": 249,
      "px": 250,
      "18": 251,
      "Ġc": 252,
      "19": 253,
      "Ġx": 254,
      "Ġ19": 255,
      "or": 256,
      "200": 257,
      "\">": 258,
      "ns": 259,
      "lin": 260,
      "20": 261,
      "ĠĠĠĠ": 262,
      "ml": 263,
      "0000": 264,
      "Ġxml": 265,
      "le": 266,
      "800": 267,
      "Ġ24": 268,
      "=\"#": 269,
      "Ġ20": 270,
      "htt": 271,
      "http": 272,
      "//": 273,
      "://": 274,
      "org": 275,
      "Ġxmlns": 276,
      "Ġv": 277,
      "www": 278,
      "ig": 279,
      "Ġh": 280,
      "ight": 281,
      "eight": 282,
      "Ġheight": 283,
      "Ġwidth": 284,
      "23": 285,
      "line": 286,
      "22": 287,
      "ie": 288,
      "24": 289,
      "iew": 290,
      "2000": 291,
      "ox": 292,
      "Box": 293,
      "Ġview": 294,
      "ĠviewBox": 295,
      "rou": 296,
      "21": 297,
      "nd": 298,
      "Ġid": 299,
      "round": 300,
      "Ġ21": 301,
      "ĠĠĠ": 302,
      "25": 303,
      "Ġ-": 304,
      "er": 305,
      "Ġ<": 306,
      "27": 307,
      "ss": 308,
      "32": 309,
      "000000": 310,
      "28": 311,
      "26": 312,
      "29": 313,
      "Ġ22": 314,
      "33": 315,
      "lass": 316,
      "Ġclass": 317,
      ",-": 318,
      "ap": 319,
      "30": 320,
      "ĠM": 321,
      "\"/><": 322,
      "sty": 323,
      "style": 324,
      "36": 325,
      "oin": 326,
      "re": 327,
      "44": 328,
      "cap": 329,
      "\"/></": 330,
      "\"><": 331,
      "34": 332,
      "35": 333,
      "38": 334,
      "37": 335,
      ":#": 336,
      "linecap": 337,
      "39": 338,
      "ve": 339,
      "Ġy": 340,
      "48": 341,
      "join": 342,
      "linejoin": 343,
      "link": 344,
      "31": 345,
      "xlink": 346,
      "40": 347,
      "at": 348,
      "99": 349,
      "Ġ32": 350,
      "45": 351,
      "ZM": 352,
      "46": 353,
      "56": 354,
      "47": 355,
      "ra": 356,
      "Ġstyle": 357,
      "cl": 358,
      "Ġr": 359,
      "ĠĠĠĠĠĠĠ": 360,
      "ru": 361,
      "ct": 362,
      "de": 363,
      "49": 364,
      "42": 365,
      ",.": 366,
      "zm": 367,
      "od": 368,
      "ion": 369,
      "ar": 370,
      "me": 371,
      "50": 372,
      "55": 373,
      "41": 374,
      "Ġ.": 375,
      "cls": 376,
      "im": 377,
      "rans": 378,
      "rule": 379,
      "ol": 380,
      "57": 381,
      "43": 382,
      "Ġ23": 383,
      "ĠZ": 384,
      "trans": 385,
      "na": 386,
      "con": 387,
      "58": 388,
      "eve": 389,
      ";}": 390,
      "even": 391,
      "Ġ26": 392,
      "odd": 393,
      "evenodd": 394,
      "Ġ28": 395,
      "Ġ25": 396,
      "ers": 397,
      "ersion": 398,
      "66": 399,
      "1999": 400,
      "59": 401,
      "Ġversion": 402,
      "te": 403,
      "FF": 404,
      "Ġ</": 405,
      "Ġ27": 406,
      "64": 407,
      "itle": 408,
      "ff": 409,
      "52": 410,
      "title": 411,
      "zM": 412,
      "60": 413,
      "Ġ48": 414,
      "Ġ30": 415,
      "rect": 416,
      "54": 417,
      "Ġ29": 418,
      "ata": 419,
      "51": 420,
      "ser": 421,
      "53": 422,
      "68": 423,
      "name": 424,
      "ip": 425,
      "rc": 426,
      "orm": 427,
      "67": 428,
      "Ġ36": 429,
      "Ġdata": 430,
      "88": 431,
      "Ġ512": 432,
      "ĠĠĠĠĠĠĠĠĠĠĠ": 433,
      "ci": 434,
      "def": 435,
      "defs": 436,
      "pre": 437,
      "serve": 438,
      "preserve": 439,
      "yer": 440,
      "Ġcy": 441,
      "Ġcx": 442,
      "77": 443,
      "rcle": 444,
      "circle": 445,
      "icon": 446,
      "form": 447,
      "70": 448,
      "se": 449,
      "78": 450,
      "96": 451,
      "75": 452,
      "La": 453,
      "Ġ31": 454,
      "Zm": 455,
      "Ġ64": 456,
      "Layer": 457,
      "pace": 458,
      "61": 459,
      "pe": 460,
      "80": 461,
      "79": 462,
      "Ġ38": 463,
      "69": 464,
      "62": 465,
      "Ġl": 466,
      "space": 467,
      "transform": 468,
      "Ġ40": 469,
      "nt": 470,
      "Ġtransform": 471,
      "Ġ34": 472,
      "63": 473,
      "89": 474,
      "Ġ33": 475,
      "ary": 476,
      "Ġ35": 477,
      "mit": 478,
      "72": 479,
      "76": 480,
      "miter": 481,
      "256": 482,
      "Ġ39": 483,
      "ts": 484,
      "imit": 485,
      "limit": 486,
      "miterlimit": 487,
      "pol": 488,
      "poly": 489,
      "Ġ37": 490,
      "Ġ42": 491,
      "Ġp": 492,
      "65": 493,
      "late": 494,
      "olor": 495,
      "translate": 496,
      "dc": 497,
      "lip": 498,
      "oints": 499,
      "Ġpoints": 500,
      "Pa": 501,
      "71": 502,
      "73": 503,
      "Ġround": 504,
      "Ġ44": 505,
      "85": 506,
      "90": 507,
      "74": 508,
      "ĉĉ": 509,
      "Ġ41": 510,
      "128": 511,
      ");": 512,
      "Ġz": 513,
      "><": 514,
      "84": 515,
      "274": 516,
      "ĠĠĠĠĠĠĠĠĠĠĠĠĠĠĠ": 517,
      "gb": 518,
      "87": 519,
      "94": 520,
      "ty": 521,
      "ĠĠĠĠĠ": 522,
      "type": 523,
      "Path": 524,
      "Ġ43": 525,
      "Ġ50": 526,
      "pr": 527,
      "92": 528,
      "83": 529,
      "ble": 530,
      "86": 531,
      "prim": 532,
      "primary": 533,
      "Ġs": 534,
      "ch": 535,
      "82": 536,
      "Ġrgb": 537,
      "ba": 538,
      "81": 539,
      "93": 540,
      "Ġclip": 541,
      "xt": 542,
      "=\"_": 543,
      "Ġ45": 544,
      "text": 545,
      ";\"": 546,
      ")\"": 547,
      "color": 548,
      "al": 549,
      "95": 550,
      "91": 551,
      "gon": 552,
      "polygon": 553,
      "Ġ46": 554,
      "Ġm": 555,
      "ge": 556,
      "Ġ47": 557,
      "ink": 558,
      "if": 559,
      "Mid": 560,
      "Ġ49": 561,
      "op": 562,
      "cape": 563,
      "scape": 564,
      "inkscape": 565,
      "292": 566,
      "97": 567,
      "98": 568,
      "ne": 569,
      "Ġ256": 570,
      "om": 571,
      "512": 572,
      "ou": 573,
      "100": 574,
      "Ġ51": 575,
      "Ġ52": 576,
      "lat": 577,
      "ad": 578,
      "cc": 579,
      "Ġ56": 580,
      "Ġro": 581,
      "Ġtype": 582,
      "sc": 583,
      "ia": 584,
      "df": 585,
      "Ġ100": 586,
      "ati": 587,
      "ify": 588,
      "stop": 589,
      "Ġnone": 590,
      ")\">": 591,
      "css": 592,
      "iconify": 593,
      "112": 594,
      "ur": 595,
      "(-": 596,
      "ffff": 597,
      "ic": 598,
      "_\"": 599,
      "Ġ53": 600,
      "back": 601,
      "ground": 602,
      "FFFF": 603,
      "background": 604,
      "ena": 605,
      "enable": 606,
      "Ġinkscape": 607,
      "desc": 608,
      "new": 609,
      "ket": 610,
      "Ġrx": 611,
      "aria": 612,
      "ow": 613,
      "Ġ\"/>": 614,
      "104": 615,
      ";}</": 616,
      ">.": 617,
      "ate": 618,
      "192": 619,
      "Ġ54": 620,
      "Ġ60": 621,
      "Ġ55": 622,
      "114": 623,
      "113": 624,
      "106": 625,
      "ee": 626,
      "is": 627,
      "121": 628,
      "rad": 629,
      "roup": 630,
      "Ġ1024": 631,
      "ketch": 632,
      "img": 633,
      "Ġrole": 634,
      "com": 635,
      "ape": 636,
      "hape": 637,
      "cond": 638,
      "Ġenable": 639,
      "Ġ169": 640,
      "second": 641,
      "Group": 642,
      "Ġ57": 643,
      "ient": 644,
      "secondary": 645,
      "tru": 646,
      "102": 647,
      "Ġf": 648,
      "ze": 649,
      "true": 650,
      "--": 651,
      "mo": 652,
      "polyline": 653,
      "an": 654,
      "Ġ76": 655,
      "001": 656,
      "108": 657,
      "ĠS": 658,
      ";\"/>": 659,
      "Ġ58": 660,
      "144": 661,
      "3333": 662,
      "Ġ188": 663,
      "105": 664,
      "103": 665,
      "120": 666,
      ";\"/><": 667,
      "clip": 668,
      "spe": 669,
      "212": 670,
      "url": 671,
      "sh": 672,
      "208": 673,
      "Ġopacity": 674,
      "107": 675,
      "et": 676,
      "ect": 677,
      "09": 678,
      "radient": 679,
      "Ġ72": 680,
      "atio": 681,
      "spect": 682,
      "Ratio": 683,
      "Aspect": 684,
      "Ġpreserve": 685,
      "AspectRatio": 686,
      "ĠpreserveAspectRatio": 687,
      "=\"-": 688,
      "Ġ62": 689,
      "116": 690,
      "101": 691,
      "Ġ128": 692,
      "el": 693,
      "109": 694,
      "02": 695,
      "136": 696,
      "Ġaria": 697,
      "216": 698,
      "231": 699,
      "160": 700,
      "ite": 701,
      "></": 702,
      "Ġ59": 703,
      "124": 704,
      "176": 705,
      "111": 706,
      "241": 707,
      "118": 708,
      "115": 709,
      "ph": 710,
      ";}.": 711,
      "119": 712,
      "YMid": 713,
      "xMid": 714,
      "xMidYMid": 715,
      "Ġ61": 716,
      "125": 717,
      "den": 718,
      "ine": 719,
      "232": 720,
      "wh": 721,
      "idden": 722,
      "184": 723,
      "117": 724,
      "hidden": 725,
      "152": 726,
      "white": 727,
      "168": 728,
      "rdf": 729,
      "126": 730,
      "05": 731,
      "Icon": 732,
      "06": 733,
      "Shape": 734,
      "127": 735,
      "Ġ96": 736,
      "Flat": 737,
      "123": 738,
      "08": 739,
      "emo": 740,
      "110": 741,
      "zero": 742,
      "nonzero": 743,
      "emoj": 744,
      "122": 745,
      "224": 746,
      "ri": 747,
      "Ġme": 748,
      "07": 749,
      "off": 750,
      "Ġmeet": 751,
      "Ġ00": 752,
      "ly": 753,
      "132": 754,
      "lo": 755,
      "Ġ80": 756,
      "153": 757,
      "213": 758,
      "Ġ70": 759,
      "set": 760,
      "Ġ63": 761,
      "135": 762,
      "129": 763,
      "Ġ65": 764,
      "134": 765,
      "01": 766,
      "141": 767,
      "137": 768,
      "202": 769,
      "149": 770,
      "170": 771,
      "166": 772,
      "146": 773,
      "143": 774,
      "164": 775,
      "133": 776,
      "130": 777,
      "een": 778,
      "138": 779,
      "384": 780,
      "156": 781,
      "131": 782,
      "lipse": 783,
      "172": 784,
      "139": 785,
      "140": 786,
      "142": 787,
      "148": 788,
      "lyph": 789,
      "gle": 790,
      "Ġ85": 791,
      "145": 792,
      "glyph": 793,
      "Ġiconify": 794,
      "323": 795,
      "157": 796,
      "ormal": 797,
      "normal": 798,
      "158": 799,
      "174": 800,
      "linear": 801,
      "ffffff": 802,
      "002": 803,
      "188": 804,
      "173": 805,
      "ont": 806,
      "rce": 807,
      "ource": 808,
      "CC": 809,
      "angle": 810,
      "154": 811,
      "cre": 812,
      "2222": 813,
      "180": 814,
      "met": 815,
      "Ġry": 816,
      "162": 817,
      "offset": 818,
      "147": 819,
      "odi": 820,
      "odip": 821,
      "odipodi": 822,
      "204": 823,
      "159": 824,
      "167": 825,
      "Ġ71": 826,
      "Ġ66": 827,
      "178": 828,
      "to": 829,
      "03": 830,
      "Ġ73": 831,
      "448": 832,
      "out": 833,
      "169": 834,
      "Ġ68": 835,
      "228": 836,
      "04": 837,
      "182": 838,
      "FFFFFF": 839,
      "151": 840,
      "155": 841,
      "179": 842,
      "255": 843,
      "244": 844,
      "175": 845,
      "234": 846,
      "Ġ74": 847,
      "186": 848,
      "Ġ67": 849,
      "source": 850,
      "Gradient": 851,
      "177": 852,
      "165": 853,
      "si": 854,
      "196": 855,
      "207": 856,
      "248": 857,
      "171": 858,
      "tw": 859,
      "161": 860,
      "225": 861,
      "288": 862,
      "Rect": 863,
      "Rectangle": 864,
      ";\"/></": 865,
      "ma": 866,
      "Ġ69": 867,
      "mon": 868,
      "Ġ75": 869,
      "ĠColor": 870,
      "ellipse": 871,
      "444": 872,
      "181": 873,
      "197": 874,
      "223": 875,
      "163": 876,
      "ĠĠĠĠĠĠĠĠĠĠĠĠĠĠĠĠĠĠĠ": 877,
      "185": 878,
      "193": 879,
      "198": 880,
      "240": 881,
      "183": 882,
      "font": 883,
      "Ġ92": 884,
      "150": 885,
      "246": 886,
      "(#": 887,
      "352": 888,
      "320": 889,
      "195": 890,
      "Ġ81": 891,
      "214": 892,
      "rix": 893,
      "da": 894,
      "atrix": 895,
      "ĠĠĠĠĊ": 896,
      "Ġoffset": 897,
      "206": 898,
      "art": 899,
      "sk": 900,
      "191": 901,
      "187": 902,
      "219": 903,
      "254": 904,
      "217": 905,
      "344": 906,
      "215": 907,
      "emoji": 908,
      "220": 909,
      "Ġ01": 910,
      "Ġ79": 911,
      "sodipodi": 912,
      "222": 913,
      "205": 914,
      "194": 915,
      "Ġ84": 916,
      "203": 917,
      "matrix": 918,
      "Ġ78": 919,
      "211": 920,
      "209": 921,
      "434": 922,
      "333": 923,
      "ID": 924,
      "226": 925,
      "189": 926,
      "336": 927,
      "277": 928,
      "Line": 929,
      "wi": 930,
      "218": 931,
      "Ġ90": 932,
      "252": 933,
      "293": 934,
      "#\"": 935,
      "Ġ83": 936,
      "oc": 937,
      "ĠA": 938,
      "Icons": 939,
      "Ġ77": 940,
      "199": 941,
      "363": 942,
      "dow": 943,
      "with": 944,
      ")\"/>": 945,
      "DF": 946,
      "229": 947,
      "Ġflat": 948,
      "icons": 949,
      "ation": 950,
      "Ġ86": 951,
      "298": 952,
      "341": 953,
      "ĉĉĉ": 954,
      "Ġ192": 955,
      "328": 956,
      "Ġ89": 957,
      "Ġ88": 958,
      "Ġ82": 959,
      "343": 960,
      "Ġ91": 961,
      "201": 962,
      "Ġ160": 963,
      "Cre": 964,
      "Ġ87": 965,
      "243": 966,
      "227": 967,
      "Ġwith": 968,
      "ated": 969,
      "333333": 970,
      ".</": 971,
      "int": 972,
      "Created": 973,
      "Ġrdf": 974,
      "247": 975,
      "Ġ95": 976,
      "Ġg": 977,
      "233": 978,
      "236": 979,
      "ce": 980,
      "221": 981,
      "253": 982,
      "249": 983,
      "Ġ112": 984,
      "006": 985,
      "242": 986,
      "282": 987,
      "po": 988,
      "Ġ94": 989,
      "272": 990,
      "245": 991,
      "264": 992,
      "linearGradient": 993,
      "ed": 994,
      "MS": 995,
      "239": 996,
      "Ġsketch": 997,
      "ĠSketch": 998,
      "257": 999,
      "adata": 1000,
      "metadata": 1001,
      "Ġ93": 1002,
      "210": 1003,
      "262": 1004,
      "Ġ106": 1005,
      "237": 1006,
      "258": 1007,
      "St": 1008,
      "238": 1009,
      "tate": 1010,
      "dash": 1011,
      "368": 1012,
      "der": 1013,
      "312": 1014,
      "235": 1015,
      "375": 1016,
      "286": 1017,
      "ative": 1018,
      "304": 1019,
      "Ġ102": 1020,
      "Trans": 1021,
      "003": 1022,
      "251": 1023,
      "416": 1024,
      "266": 1025,
      "Ġ98": 1026,
      "be": 1027,
      "Ġstop": 1028,
      "289": 1029,
      "296": 1030,
      "/\"": 1031,
      "common": 1032,
      "297": 1033,
      "creative": 1034,
      "commons": 1035,
      "Ġ97": 1036,
      "creativecommons": 1037,
      "337": 1038,
      "707": 1039,
      "olid": 1040,
      "gu": 1041,
      "solid": 1042,
      "268": 1043,
      "rent": 1044,
      "287": 1045,
      "190": 1046,
      "250": 1047,
      "271": 1048,
      "purl": 1049,
      "vis": 1050,
      "Ġ104": 1051,
      "ĠV": 1052,
      "fa": 1053,
      "es": 1054,
      "338": 1055,
      "372": 1056,
      "285": 1057,
      "305": 1058,
      "ment": 1059,
      "one": 1060,
      "Ġb": 1061,
      "334": 1062,
      "Ġ120": 1063,
      "284": 1064,
      "263": 1065,
      "Ġ99": 1066,
      "373": 1067,
      "visi": 1068,
      "outline": 1069,
      "300": 1070,
      "Page": 1071,
      "265": 1072,
      "424": 1073,
      "259": 1074,
      "275": 1075,
      "326": 1076,
      "Ġ101": 1077,
      "316": 1078,
      "426": 1079,
      "273": 1080,
      "307": 1081,
      "Ġ103": 1082,
      "281": 1083,
      "atch": 1084,
      "261": 1085,
      "004": 1086,
      "396": 1087,
      "sa": 1088,
      "file": 1089,
      "005": 1090,
      "269": 1091,
      "362": 1092,
      "295": 1093,
      "365": 1094,
      "313": 1095,
      "Fil": 1096,
      "qu": 1097,
      "ork": 1098,
      "Ġ110": 1099,
      "_\">": 1100,
      "432": 1101,
      "279": 1102,
      "354": 1103,
      "364": 1104,
      "Ġ105": 1105,
      "303": 1106,
      "314": 1107,
      "win": 1108,
      "317": 1109,
      "366": 1110,
      "ML": 1111,
      "276": 1112,
      "ub": 1113,
      "XML": 1114,
      "ĠH": 1115,
      "XMLID": 1116,
      "ter": 1117,
      "329": 1118,
      "302": 1119,
      "283": 1120,
      "Ġ116": 1121,
      "267": 1122,
      "CE": 1123,
      "clipPath": 1124,
      "are": 1125,
      "332": 1126,
      "lar": 1127,
      "324": 1128,
      "376": 1129,
      "lu": 1130,
      "ray": 1131,
      "Ġ111": 1132,
      "visible": 1133,
      "230": 1134,
      "294": 1135,
      "308": 1136,
      "window": 1137,
      "Ġ113": 1138,
      "367": 1139,
      "358": 1140,
      "278": 1141,
      "base": 1142,
      "400": 1143,
      "371": 1144,
      "Ġ108": 1145,
      "311": 1146,
      "405": 1147,
      "378": 1148,
      "379": 1149,
      "299": 1150,
      "260": 1151,
      "Ġ109": 1152,
      "291": 1153,
      "377": 1154,
      "plo": 1155,
      "369": 1156,
      "Ġ114": 1157,
      "359": 1158,
      "327": 1159,
      "nit": 1160,
      "Ġ127": 1161,
      "318": 1162,
      "Work": 1163,
      "391": 1164,
      "Ġ122": 1165,
      "parent": 1166,
      "335": 1167,
      "Transparent": 1168,
      "007": 1169,
      "472": 1170,
      "346": 1171,
      "nits": 1172,
      "475": 1173,
      "447": 1174,
      "353": 1175,
      "lr": 1176,
      "494": 1177,
      "464": 1178,
      "gent": 1179,
      "315": 1180,
      "301": 1181,
      "306": 1182,
      "449": 1183,
      "342": 1184,
      "ade": 1185,
      "212121": 1186,
      "AA": 1187,
      "Ġ107": 1188,
      "325": 1189,
      "view": 1190,
      "ado": 1191,
      "331": 1192,
      "Ġline": 1193,
      "ca": 1194,
      "DD": 1195,
      "format": 1196,
      "385": 1197,
      "RDF": 1198,
      "Ġ144": 1199,
      "Ġa": 1200,
      "383": 1201,
      "406": 1202,
      "008": 1203,
      "394": 1204,
      "319": 1205,
      "339": 1206,
      "309": 1207,
      "360": 1208,
      "356": 1209,
      "374": 1210,
      "resource": 1211,
      "397": 1212,
      "446": 1213,
      "Uplo": 1214,
      "222222": 1215,
      "422": 1216,
      "423": 1217,
      "Ġ126": 1218,
      "Ġ115": 1219,
      "adow": 1220,
      "ot": 1221,
      "layer": 1222,
      "right": 1223,
      "Ġ130": 1224,
      "345": 1225,
      "Ġ117": 1226,
      "Ġ119": 1227,
      "322": 1228,
      "[#": 1229,
      "Ġ118": 1230,
      "382": 1231,
      "Ġto": 1232,
      "array": 1233,
      "dasharray": 1234,
      "age": 1235,
      "repo": 1236,
      "438": 1237,
      "aded": 1238,
      "355": 1239,
      "ice": 1240,
      "Uploaded": 1241,
      "Ġsvg": 1242,
      "Ġsvgrepo": 1243,
      "357": 1244,
      "user": 1245,
      "Ġclr": 1246,
      "280": 1247,
      "392": 1248,
      "mart": 1249,
      "387": 1250,
      "469": 1251,
      "386": 1252,
      "414": 1253,
      "408": 1254,
      "Ġ132": 1255,
      "Agent": 1256,
      "321": 1257,
      ");\"/><": 1258,
      "455": 1259,
      "Ġ131": 1260,
      "351": 1261,
      "Ġrotate": 1262,
      "Ġ121": 1263,
      "395": 1264,
      "quare": 1265,
      "Ġgradient": 1266,
      "393": 1267,
      "435": 1268,
      "348": 1269,
      "Pro": 1270,
      "bb": 1271,
      "twemoji": 1272,
      "399": 1273,
      "511": 1274,
      "361": 1275,
      "fe": 1276,
      "Ġ125": 1277,
      "480": 1278,
      "413": 1279,
      "Ġ124": 1280,
      "varia": 1281,
      "variant": 1282,
      "square": 1283,
      "cor": 1284,
      "465": 1285,
      "ul": 1286,
      "429": 1287,
      "fal": 1288,
      "ED": 1289,
      "388": 1290,
      "Ġ129": 1291,
      "AF": 1292,
      "270": 1293,
      "389": 1294,
      "340": 1295,
      "445": 1296,
      "Ġ140": 1297,
      "412": 1298,
      "454": 1299,
      "347": 1300,
      "443": 1301,
      ");\"/></": 1302,
      "Ġ136": 1303,
      "398": 1304,
      "436": 1305,
      "false": 1306,
      "Smart": 1307,
      "Watch": 1308,
      "349": 1309,
      "__": 1310,
      "Ġ123": 1311,
      "ax": 1312,
      "290": 1313,
      "708": 1314,
      "407": 1315,
      "sy": 1316,
      "ele": 1317,
      "ide": 1318,
      "441": 1319,
      "Ġ138": 1320,
      "381": 1321,
      "clr": 1322,
      "451": 1323,
      "am": 1324,
      "428": 1325,
      "323232": 1326,
      "ShapeGroup": 1327,
      "MSShapeGroup": 1328,
      "ione": 1329,
      "emojione": 1330,
      "Ġ133": 1331,
      "On": 1332,
      "serif": 1333,
      "Ġicon": 1334,
      "442": 1335,
      "404": 1336,
      "Ġ134": 1337,
      "Ġ135": 1338,
      "bo": 1339,
      "409": 1340,
      "ft": 1341,
      "Ġfor": 1342,
      "473": 1343,
      "418": 1344,
      "330": 1345,
      "row": 1346,
      "456": 1347,
      "503": 1348,
      "Ġ#": 1349,
      "417": 1350,
      "gr": 1351,
      "401": 1352,
      "403": 1353,
      "496": 1354,
      "425": 1355,
      "476": 1356,
      "433": 1357,
      "ments": 1358,
      "474": 1359,
      "662": 1360,
      "012": 1361,
      "Ġ142": 1362,
      "009": 1363,
      "Ġ147": 1364,
      "Ġ137": 1365,
      "411": 1366,
      "487": 1367,
      "au": 1368,
      "Ġ400": 1369,
      "457": 1370,
      "Ġ141": 1371,
      "Ġ200": 1372,
      "Ġ149": 1373,
      "310": 1374,
      "437": 1375,
      "ntax": 1376,
      "syntax": 1377,
      "elements": 1378,
      "505": 1379,
      "402": 1380,
      "458": 1381,
      "Units": 1382,
      "453": 1383,
      "Ġ139": 1384,
      "Ġ146": 1385,
      "479": 1386,
      "ver": 1387,
      "495": 1388,
      "image": 1389,
      "468": 1390,
      "380": 1391,
      "Space": 1392,
      "ĠĠĠĠĠĠĠĠ": 1393,
      "Use": 1394,
      "Ġ170": 1395,
      "userSpace": 1396,
      "OnUse": 1397,
      "userSpaceOnUse": 1398,
      "421": 1399,
      "lue": 1400,
      "Ġ143": 1401,
      "415": 1402,
      "419": 1403,
      "FFF": 1404,
      "EA": 1405,
      "485": 1406,
      "452": 1407,
      "015": 1408,
      "439": 1409,
      "576": 1410,
      "BD": 1411,
      "484": 1412,
      "Ġ153": 1413,
      "Ġ(": 1414,
      "ir": 1415,
      "020": 1416,
      "431": 1417,
      "cur": 1418,
      "nder": 1419,
      "up": 1420,
      "462": 1421,
      "459": 1422,
      "427": 1423,
      "ure": 1424,
      "Ġ152": 1425,
      "897": 1426,
      "ocu": 1427,
      "Stroke": 1428,
      "Ġ145": 1429,
      "Ġ213": 1430,
      "477": 1431,
      "466": 1432,
      "older": 1433,
      "016": 1434,
      "492": 1435,
      "Ġ148": 1436,
      "ard": 1437,
      "6666": 1438,
      "Ġ150": 1439,
      "846": 1440,
      "page": 1441,
      "paint": 1442,
      "440": 1443,
      "Ġ448": 1444,
      "Ġ224": 1445,
      "Ġ176": 1446,
      "370": 1447,
      "%\"": 1448,
      "467": 1449,
      "011": 1450,
      "av": 1451,
      "471": 1452,
      "488": 1453,
      "486": 1454,
      "ator": 1455,
      "499": 1456,
      "AB": 1457,
      "020202": 1458,
      "grid": 1459,
      "ale": 1460,
      "478": 1461,
      "ien": 1462,
      "483": 1463,
      "ab": 1464,
      "Pre": 1465,
      "Ġ154": 1466,
      "502": 1467,
      "461": 1468,
      "ĠLine": 1469,
      "ctor": 1470,
      "sketch": 1471,
      "_\"/>": 1472,
      "ign": 1473,
      "cf": 1474,
      "/><": 1475,
      "506": 1476,
      "render": 1477,
      "rendering": 1478,
      "left": 1479,
      "938": 1480,
      "EE": 1481,
      "invisible": 1482,
      "lice": 1483,
      "350": 1484,
      "Ġ151": 1485,
      "auto": 1486,
      "BC": 1487,
      "Ġ155": 1488,
      "533": 1489,
      "ĠĠĠĠĠĠ": 1490,
      "493": 1491,
      "Ġ164": 1492,
      "014": 1493,
      "Ġbase": 1494,
      "Profile": 1495,
      "ĠbaseProfile": 1496,
      "Ġ1000": 1497,
      "768": 1498,
      "CA": 1499,
      "mask": 1500,
      "Ġ248": 1501,
      "013": 1502,
      "664": 1503,
      "Ġ\"": 1504,
      "DE": 1505,
      "ĠgradientUnits": 1506,
      "482": 1507,
      "Ġ226": 1508,
      "463": 1509,
      "508": 1510,
      "757": 1511,
      "504": 1512,
      "iso": 1513,
      "450": 1514,
      "Ġ166": 1515,
      "Ġ{": 1516,
      "decor": 1517,
      "decoration": 1518,
      "481": 1519,
      "896": 1520,
      "498": 1521,
      "twee": 1522,
      "Ġ240": 1523,
      "Ġ168": 1524,
      "BF": 1525,
      "he": 1526,
      "390": 1527,
      "491": 1528,
      "552": 1529,
      "018": 1530,
      "flue": 1531,
      "497": 1532,
      "ðŁ": 1533,
      "=\"ðŁ": 1534,
      "fluent": 1535,
      "DC": 1536,
      "672": 1537,
      "420": 1538,
      "501": 1539,
      "489": 1540,
      "Ġ320": 1541,
      "554": 1542,
      "758": 1543,
      "fla": 1544,
      "Ġ208": 1545,
      "Ġ158": 1546,
      "di": 1547,
      "rgb": 1548,
      "555": 1549,
      "Ġ156": 1550,
      "otone": 1551,
      "Ġ157": 1552,
      "ha": 1553,
      "tion": 1554,
      "ature": 1555,
      "Ġ173": 1556,
      "808": 1557,
      "553": 1558,
      "Ġ172": 1559,
      "022": 1560,
      "430": 1561,
      "du": 1562,
      "dd": 1563,
      "Ġ384": 1564,
      "Ġ174": 1565,
      "Ġ180": 1566,
      "021": 1567,
      "guide": 1568,
      "Ġ190": 1569,
      "ill": 1570,
      "Ġ179": 1571,
      "017": 1572,
      "Ġ163": 1573,
      "600": 1574,
      "ict": 1575,
      "Ġ159": 1576,
      "656": 1577,
      "creator": 1578,
      "=\"\"/><": 1579,
      "410": 1580,
      "Light": 1581,
      "lt": 1582,
      "023": 1583,
      "717": 1584,
      "Ġ182": 1585,
      "ector": 1586,
      "mage": 1587,
      "604": 1588,
      "515": 1589,
      "&#": 1590,
      "date": 1591,
      "558": 1592,
      "radi": 1593,
      "792": 1594,
      "arrow": 1595,
      "Ġ161": 1596,
      "Image": 1597,
      "pla": 1598,
      "Ġ288": 1599,
      "um": 1600,
      "586": 1601,
      "Ġ165": 1602,
      "ocado": 1603,
      "avocado": 1604,
      "bad": 1605,
      "ndom": 1606,
      "688": 1607,
      "Ġ184": 1608,
      "licens": 1609,
      "og": 1610,
      "025": 1611,
      "badge": 1612,
      "bc": 1613,
      "032": 1614,
      "556": 1615,
      "Ġ175": 1616,
      "460": 1617,
      "fandom": 1618,
      "Ġ181": 1619,
      "ric": 1620,
      "507": 1621,
      "625": 1622,
      "gular": 1623,
      "027": 1624,
      "aler": 1625,
      "847": 1626,
      "Ġ162": 1627,
      "572": 1628,
      "ea": 1629,
      "Ġ167": 1630,
      "Ġ255": 1631,
      "ies": 1632,
      "Ġ211": 1633,
      "034": 1634,
      "953": 1635,
      "832": 1636,
      "ĠĠĠĠĠĠĠĠĠĠĠĠĠĠĠĠĠĠĠĠĠĠĠ": 1637,
      "528": 1638,
      "box": 1639,
      "BE": 1640,
      "Ġ210": 1641,
      "828": 1642,
      "Ġ171": 1643,
      "xml": 1644,
      "Ġ220": 1645,
      "1694": 1646,
      "hadow": 1647,
      "mity": 1648,
      "dcmity": 1649,
      "Still": 1650,
      "dcmitype": 1651,
      "StillImage": 1652,
      "BA": 1653,
      "028": 1654,
      "Ġ204": 1655,
      "metric": 1656,
      "]\">": 1657,
      "2929": 1658,
      "500": 1659,
      "ker": 1660,
      "EF": 1661,
      "019": 1662,
      "875": 1663,
      "by": 1664,
      "Ġ214": 1665,
      "ribb": 1666,
      "larity": 1667,
      "Ġ178": 1668,
      "Ġ177": 1669,
      "509": 1670,
      "513": 1671,
      "Ġ212": 1672,
      "Folder": 1673,
      "ribbble": 1674,
      "order": 1675,
      "999": 1676,
      "Min": 1677,
      "545": 1678,
      "Ġ216": 1679,
      "Ġ217": 1680,
      "Dribbble": 1681,
      "024": 1682,
      "dview": 1683,
      "namedview": 1684,
      "33363": 1685,
      "525": 1686,
      "]</": 1687,
      "jam": 1688,
      "var": 1689,
      "Ġ183": 1690,
      "about": 1691,
      "Ġ[#": 1692,
      "Preview": 1693,
      "-[#": 1694,
      "shadow": 1695,
      "us": 1696,
      "529": 1697,
      "1719": 1698,
      "035": 1699,
      "059": 1700,
      "859": 1701,
      "flats": 1702,
      "686": 1703,
      "hadows": 1704,
      "flatshadows": 1705,
      "ac": 1706,
      "Ġ219": 1707,
      "hair": 1708,
      "766": 1709,
      "954": 1710,
      "bel": 1711,
      "lation": 1712,
      "radial": 1713,
      "mar": 1714,
      "Ġq": 1715,
      "rip": 1716,
      "662113": 1717,
      "cub": 1718,
      "646": 1719,
      "781": 1720,
      "613": 1721,
      "cubies": 1722,
      "(--": 1723,
      "026": 1724,
      "FC": 1725,
      "mode": 1726,
      "535": 1727,
      "ull": 1728,
      "filled": 1729,
      "ak": 1730,
      "574": 1731,
      "Color": 1732,
      "Ġ206": 1733,
      "597": 1734,
      "037": 1735,
      "Ġ260": 1736,
      "608": 1737,
      "434343": 1738,
      "Ġ215": 1739,
      "Ġ1920": 1740,
      "677": 1741,
      "=\"\">": 1742,
      "033": 1743,
      "788": 1744,
      "Ġis": 1745,
      "Ġ185": 1746,
      "sable": 1747,
      "badged": 1748,
      "Ġfocu": 1749,
      "Ġfocusable": 1750,
      "Ġ191": 1751,
      "4477": 1752,
      "045": 1753,
      "049": 1754,
      "057": 1755,
      "546": 1756,
      "the": 1757,
      "ag": 1758,
      "563": 1759,
      "rotate": 1760,
      "gt": 1761,
      "SV": 1762,
      "Ġ186": 1763,
      "Ġ218": 1764,
      "562": 1765,
      "044": 1766,
      "SVG": 1767,
      "play": 1768,
      "ition": 1769,
      "=\"&": 1770,
      "592": 1771,
      "Ġ209": 1772,
      "029": 1773,
      "657": 1774,
      "height": 1775,
      "ram": 1776,
      "8954": 1777,
      "596": 1778,
      "1119": 1779,
      "094": 1780,
      "Ġ}": 1781,
      "544": 1782,
      "490": 1783,
      "678": 1784,
      "789": 1785,
      "522": 1786,
      "Ġ-.": 1787,
      "043": 1788,
      "963": 1789,
      "ther": 1790,
      "Ġ225": 1791,
      "Ġ202": 1792,
      "Ġ253": 1793,
      "031": 1794,
      "El": 1795,
      "skin": 1796,
      "584": 1797,
      "Ġsi": 1798,
      "566": 1799,
      "Files": 1800,
      "845": 1801,
      "label": 1802,
      "734": 1803,
      "676": 1804,
      "Ġ223": 1805,
      "Ġ205": 1806,
      "low": 1807,
      "sition": 1808,
      "551": 1809,
      "ut": 1810,
      "down": 1811,
      "ĠQ": 1812,
      "Ġ198": 1813,
      "Ġ234": 1814,
      "Ġ207": 1815,
      "598": 1816,
      "812": 1817,
      "816": 1818,
      "pen": 1819,
      "ription": 1820,
      "Th": 1821,
      "848": 1822,
      "518": 1823,
      "description": 1824,
      "895": 1825,
      "no": 1826,
      "038": 1827,
      "042": 1828,
      "mi": 1829,
      "regular": 1830,
      "547": 1831,
      "ĠRectangle": 1832,
      "666": 1833,
      "536": 1834,
      "578": 1835,
      "706": 1836,
      "713": 1837,
      "624": 1838,
      "514": 1839,
      "ank": 1840,
      "564": 1841,
      "685": 1842,
      "036": 1843,
      "579": 1844,
      "078": 1845,
      "Ġ196": 1846,
      "Ellipse": 1847,
      "Ġ201": 1848,
      "ner": 1849,
      "Ġthe": 1850,
      "Ġ246": 1851,
      "063": 1852,
      "rights": 1853,
      "SVGID": 1854,
      "047": 1855,
      "838": 1856,
      "667": 1857,
      "This": 1858,
      "516": 1859,
      "Ġ197": 1860,
      "ĉĉĉĉ": 1861,
      "tk": 1862,
      "ĠClarity": 1863,
      "Ġtheme": 1864,
      "594": 1865,
      "ĠJ": 1866,
      "Ġvector": 1867,
      "Ġgtk": 1868,
      "pict": 1869,
      "Ġ195": 1870,
      "ĠĠĠĠĠĠĠĠĠ": 1871,
      "Ġshape": 1872,
      "eb": 1873,
      "vector": 1874,
      "Jak": 1875,
      "Ġ189": 1876,
      "iewic": 1877,
      "ankiewic": 1878,
      "ĠJankiewic": 1879,
      "Jakub": 1880,
      "ĠJankiewicz": 1881,
      "064": 1882,
      "682": 1883,
      "Ġ230": 1884,
      "ute": 1885,
      "Ġ252": 1886,
      "542": 1887,
      "Ġ254": 1888,
      "669": 1889,
      "Ġ352": 1890,
      "704": 1891,
      "531": 1892,
      "Ġ241": 1893,
      "fff": 1894,
      "Ġ250": 1895,
      "Ġ232": 1896,
      "Ġ300": 1897,
      "Ġ199": 1898,
      "668": 1899,
      "Ġ249": 1900,
      "568": 1901,
      "517": 1902,
      "Ġ222": 1903,
      "055": 1904,
      "Ġ194": 1905,
      "684": 1906,
      "058": 1907,
      "062": 1908,
      "052": 1909,
      "ogram": 1910,
      "618": 1911,
      "654": 1912,
      "705": 1913,
      "543": 1914,
      "636": 1915,
      "Ġ221": 1916,
      "Ġ187": 1917,
      "894": 1918,
      "shape": 1919,
      "524": 1920,
      "bi": 1921,
      "Ġ272": 1922,
      "727": 1923,
      "flow": 1924,
      "led": 1925,
      "orient": 1926,
      "111918": 1927,
      "602": 1928,
      "Ġ251": 1929,
      "orientation": 1930,
      "571": 1931,
      "pictogram": 1932,
      "046": 1933,
      "ted": 1934,
      "671": 1935,
      "658": 1936,
      "784": 1937,
      "Ġ229": 1938,
      "direct": 1939,
      "725": 1940,
      ")\"/><": 1941,
      "BB": 1942,
      "EC": 1943,
      "623": 1944,
      "che": 1945,
      "Ġ247": 1946,
      "627": 1947,
      "652": 1948,
      "FA": 1949,
      "822": 1950,
      "Ġ193": 1951,
      "538": 1952,
      "673": 1953,
      "ian": 1954,
      "575": 1955,
      "521": 1956,
      "Ġ203": 1957,
      "over": 1958,
      "Ġ245": 1959,
      "470": 1960,
      "Ġ298": 1961,
      "595": 1962,
      "635": 1963,
      "Ġ231": 1964,
      "radialGradient": 1965,
      "915": 1966,
      "998": 1967,
      "733": 1968,
      "523": 1969,
      "alerted": 1970,
      "Ġ244": 1971,
      "pacing": 1972,
      "674": 1973,
      "full": 1974,
      "Ġ228": 1975,
      "Ġ258": 1976,
      "748": 1977,
      "Fill": 1978,
      "744": 1979,
      "527": 1980,
      "éĿ": 1981,
      "567": 1982,
      "084": 1983,
      "994": 1984,
      "mix": 1985,
      "588": 1986,
      "Ġbi": 1987,
      "984": 1988,
      "Ġ336": 1989,
      "702": 1990,
      "048": 1991,
      ";\">": 1992,
      "é¡": 1993,
      "Ġ235": 1994,
      "éĿ¢": 1995,
      "µéĿ¢": 1996,
      "é¡µéĿ¢": 1997,
      "039": 1998,
      "Ġ257": 1999,
      "628": 2000,
      "637": 2001,
      "Ġ236": 2002,
      "Ġ239": 2003,
      "585": 2004,
      "monotone": 2005,
      "09244": 2006,
      "isplay": 2007,
      "Ġ264": 2008,
      "737": 2009,
      "607": 2010,
      "961": 2011,
      "Ġ304": 2012,
      "Cute": 2013,
      "Ming": 2014,
      "791": 2015,
      "MingCute": 2016,
      "557": 2017,
      "853": 2018,
      "569": 2019,
      "041": 2020,
      "548": 2021,
      "833": 2022,
      "534": 2023,
      "743": 2024,
      "583": 2025,
      "ĠIcon": 2026,
      "Ġ000": 2027,
      "573": 2028,
      "906": 2029,
      "532": 2030,
      "937": 2031,
      "eff": 2032,
      "½¢": 2033,
      "905": 2034,
      "å½¢": 2035,
      "736": 2036,
      "648": 2037,
      "617": 2038,
      "overflow": 2039,
      "Title": 2040,
      "IconTitle": 2041,
      "Ġ262": 2042,
      "088": 2043,
      "top": 2044,
      "819": 2045,
      "Ġ341": 2046,
      "Ġcolor": 2047,
      "510": 2048,
      "796": 2049,
      "net": 2050,
      "067": 2051,
      "056": 2052,
      "Ġ243": 2053,
      "077": 2054,
      "iny": 2055,
      "992": 2056,
      "Ġsodipodi": 2057,
      "Ġ242": 2058,
      "vi": 2059,
      "754": 2060,
      "806": 2061,
      "direction": 2062,
      "614": 2063,
      "582": 2064,
      "519": 2065,
      "adobe": 2066,
      "537": 2067,
      "687": 2068,
      "Ġ237": 2069,
      "726": 2070,
      "885": 2071,
      "729": 2072,
      "imi": 2073,
      "638": 2074,
      "655": 2075,
      "606": 2076,
      "CF": 2077,
      "675": 2078,
      "082": 2079,
      "644": 2080,
      "ier": 2081,
      "694": 2082,
      "Ġ238": 2083,
      "Ġ372": 2084,
      "797": 2085,
      "074": 2086,
      "765": 2087,
      "Ġ227": 2088,
      "777": 2089,
      "693": 2090,
      "793": 2091,
      "913": 2092,
      "587": 2093,
      "782": 2094,
      "640": 2095,
      "cale": 2096,
      "Ġ233": 2097,
      "Ġ259": 2098,
      "854": 2099,
      "ti": 2100,
      "864": 2101,
      "en": 2102,
      "718": 2103,
      "board": 2104,
      "526": 2105,
      "719": 2106,
      "Ġ292": 2107,
      "076": 2108,
      "995": 2109,
      "098": 2110,
      "857": 2111,
      ");\"/>": 2112,
      "Ġ296": 2113,
      "787": 2114,
      "imize": 2115,
      "577": 2116,
      "609": 2117,
      "786": 2118,
      "Ġbox": 2119,
      "066": 2120,
      "633": 2121,
      "996": 2122,
      "55228": 2123,
      "837": 2124,
      "603": 2125,
      "807": 2126,
      "683": 2127,
      "051": 2128,
      "inter": 2129,
      "085": 2130,
      "weight": 2131,
      "Ġ368": 2132,
      "703": 2133,
      "665": 2134,
      "626": 2135,
      "987": 2136,
      "bf": 2137,
      "632": 2138,
      "988": 2139,
      "orge": 2140,
      "DT": 2141,
      "forge": 2142,
      "td": 2143,
      "Ġ960": 2144,
      "FFC": 2145,
      "namespace": 2146,
      "sourceforge": 2147,
      "dtd": 2148,
      "689": 2149,
      "DTD": 2150,
      "namespaces": 2151,
      "767": 2152,
      "612": 2153,
      "open": 2154,
      "ionicons": 2155,
      "isometric": 2156,
      "959": 2157,
      "061": 2158,
      "539": 2159,
      "776": 2160,
      "per": 2161,
      "Ġ1200": 2162,
      "089": 2163,
      "794": 2164,
      "615": 2165,
      "lock": 2166,
      "629": 2167,
      "561": 2168,
      "align": 2169,
      "Ġ266": 2170,
      "dashoffset": 2171,
      "054": 2172,
      "698": 2173,
      "605": 2174,
      "805": 2175,
      "093": 2176,
      "716": 2177,
      "565": 2178,
      "559": 2179,
      "çĬ": 2180,
      "å½¢çĬ": 2181,
      "å½¢çĬ¶": 2182,
      "FFA": 2183,
      "053": 2184,
      "849": 2185,
      "666666": 2186,
      "642": 2187,
      "979": 2188,
      "bil": 2189,
      "075": 2190,
      "732": 2191,
      "Ġ416": 2192,
      "Ġsh": 2193,
      "start": 2194,
      "958": 2195,
      "duct": 2196,
      "Ġ281": 2197,
      "634": 2198,
      "663": 2199,
      "778": 2200,
      "086": 2201,
      "917": 2202,
      "072": 2203,
      "813": 2204,
      "696": 2205,
      "591": 2206,
      "Ġ289": 2207,
      "695": 2208,
      "Ġ263": 2209,
      "Ġ265": 2210,
      "Ġ284": 2211,
      "Ġ329": 2212,
      "ound": 2213,
      "Com": 2214,
      "779": 2215,
      "639": 2216,
      "Ġ293": 2217,
      "771": 2218,
      "Ġ277": 2219,
      "3853": 2220,
      "983": 2221,
      "Ġshow": 2222,
      "549": 2223,
      "825": 2224,
      "Ġ280": 2225,
      "649": 2226,
      "728": 2227,
      "738": 2228,
      "969": 2229,
      "ey": 2230,
      "į-": 2231,
      "Ķį-": 2232,
      "692": 2233,
      "=\"ðŁĶį-": 2234,
      "AD": 2235,
      "975": 2236,
      "FFE": 2237,
      "691": 2238,
      "945": 2239,
      "977": 2240,
      "621": 2241,
      "087": 2242,
      "İ¨": 2243,
      "593": 2244,
      "phone": 2245,
      "=\"ðŁİ¨": 2246,
      "tiny": 2247,
      "902": 2248,
      "764": 2249,
      "752": 2250,
      "947": 2251,
      "746": 2252,
      "957": 2253,
      "641": 2254,
      "714": 2255,
      "ask": 2256,
      "effect": 2257,
      "Ġ286": 2258,
      "916": 2259,
      "li": 2260,
      "Ġ282": 2261,
      "spacing": 2262,
      "844": 2263,
      "721": 2264,
      "Ġ010": 2265,
      "Ġ290": 2266,
      "Ġ294": 2267,
      "616": 2268,
      "Ġ297": 2269,
      "993": 2270,
      "Ġ261": 2271,
      "747": 2272,
      "889": 2273,
      "cea": 2274,
      "873": 2275,
      "858": 2276,
      "968": 2277,
      "065": 2278,
      "647": 2279,
      "876": 2280,
      "068": 2281,
      "735": 2282,
      "541": 2283,
      "645": 2284,
      "4477153": 2285,
      "827": 2286,
      "622": 2287,
      "653": 2288,
      "935": 2289,
      "783": 2290,
      "709": 2291,
      "643": 2292,
      "loc": 2293,
      "Ġ328": 2294,
      "cod": 2295,
      "Ġ291": 2296,
      "ting": 2297,
      "tien": 2298,
      "756": 2299,
      "749": 2300,
      "802": 2301,
      "966": 2302,
      "883": 2303,
      "LayerGroup": 2304,
      "MSLayerGroup": 2305,
      "Transform": 2306,
      "coding": 2307,
      "069": 2308,
      "092": 2309,
      "ĠgradientTransform": 2310,
      "hem": 2311,
      "912": 2312,
      "619": 2313,
      "bohem": 2314,
      "iancoding": 2315,
      "bohemiancoding": 2316,
      "=\"ðŁİ¨-": 2317,
      "083": 2318,
      "FFB": 2319,
      "AAB": 2320,
      "898": 2321,
      "licenses": 2322,
      "FFD": 2323,
      "Ġ326": 2324,
      "363853": 2325,
      "785": 2326,
      "Ġ302": 2327,
      "offee": 2328,
      "096": 2329,
      "Ġ287": 2330,
      "887": 2331,
      "conne": 2332,
      "868": 2333,
      "MSPage": 2334,
      "611": 2335,
      "908": 2336,
      "030": 2337,
      "Ġ268": 2338,
      "927": 2339,
      "877": 2340,
      "as": 2341,
      "Ġ500": 2342,
      "855": 2343,
      "alt": 2344,
      "928": 2345,
      "814": 2346,
      "aa": 2347,
      "601": 2348,
      "Ġ295": 2349,
      "Ġ340": 2350,
      "581": 2351,
      "697": 2352,
      "918": 2353,
      "824": 2354,
      "866": 2355,
      "display": 2356,
      "949": 2357,
      "Ġ271": 2358,
      "Ġ366": 2359,
      "893": 2360,
      "Ġ312": 2361,
      "699": 2362,
      "upstroke": 2363,
      "Ġ338": 2364,
      "803": 2365,
      ";&#": 2366,
      "coffee": 2367,
      "dr": 2368,
      "inline": 2369,
      "load": 2370,
      "960": 2371,
      "867": 2372,
      "755": 2373,
      "Ġ331": 2374,
      "891": 2375,
      "val": 2376,
      "ked": 2377,
      "fea": 2378,
      "865": 2379,
      "952": 2380,
      "852": 2381,
      "cy": 2382,
      "817": 2383,
      "839": 2384,
      "osition": 2385,
      "843": 2386,
      "751": 2387,
      "feather": 2388,
      "mil": 2389,
      "888": 2390,
      "097": 2391,
      "599": 2392,
      "Ġ327": 2393,
      "ref": 2394,
      "vij": 2395,
      "em": 2396,
      "Ġ307": 2397,
      "CCCC": 2398,
      "659": 2399,
      "Ġ333": 2400,
      "Ġ324": 2401,
      "units": 2402,
      "Ġ299": 2403,
      "589": 2404,
      "809": 2405,
      "pro": 2406,
      "use": 2407,
      "775": 2408,
      "795": 2409,
      "753": 2410,
      "834": 2411,
      "%\">": 2412,
      "742": 2413,
      "073": 2414,
      "Ġ301": 2415,
      "081": 2416,
      "oom": 2417,
      "879": 2418,
      "doc": 2419,
      "909": 2420,
      "Oval": 2421,
      "ject": 2422,
      "Ġ330": 2423,
      "934": 2424,
      "881": 2425,
      "Ġ344": 2426,
      "ok": 2427,
      "cccc": 2428,
      "Ġ285": 2429,
      "712": 2430,
      "Ġ332": 2431,
      "3636": 2432,
      "679": 2433,
      "CCD": 2434,
      "ta": 2435,
      "Ġ270": 2436,
      "811": 2437,
      "040000": 2438,
      "723": 2439,
      "Ġ275": 2440,
      "Ġ279": 2441,
      "3737": 2442,
      "1000": 2443,
      "724": 2444,
      "Ġ640": 2445,
      "Ġ334": 2446,
      "Product": 2447,
      "EB": 2448,
      "904": 2449,
      "4347": 2450,
      "826": 2451,
      "hatch": 2452,
      "631": 2453,
      "955": 2454,
      "version": 2455,
      "light": 2456,
      "Ġ274": 2457,
      "939": 2458,
      "zoom": 2459,
      "bility": 2460,
      "715": 2461,
      "774": 2462,
      "Ġ276": 2463,
      "Ġ273": 2464,
      "762": 2465,
      "841": 2466,
      "997": 2467,
      "892": 2468,
      "fx": 2469,
      "Ġ269": 2470,
      "fxemoji": 2471,
      "956": 2472,
      "661": 2473,
      "docname": 2474,
      "baseline": 2475,
      "878": 2476,
      "874": 2477,
      "Ġ267": 2478,
      "836": 2479,
      "978": 2480,
      "Ġorientation": 2481,
      "Ġposition": 2482,
      "722": 2483,
      "924": 2484,
      "Ġ283": 2485,
      "De": 2486,
      "772": 2487,
      ";-": 2488,
      "903": 2489,
      "license": 2490,
      "un": 2491,
      "isolation": 2492,
      "773": 2493,
      "079": 2494,
      "823": 2495,
      "intig": 2496,
      "Ġ480": 2497,
      "3238": 2498,
      "884": 2499,
      "946": 2500,
      "nal": 2501,
      "739": 2502,
      "985": 2503,
      "FFDC": 2504,
      "Ġ303": 2505,
      "798": 2506,
      "oud": 2507,
      "923": 2508,
      "931": 2509,
      "Ġ364": 2510,
      "745": 2511,
      "263238": 2512,
      "801": 2513,
      "Ġ314": 2514,
      "851": 2515,
      "799": 2516,
      "Ġ311": 2517,
      "936": 2518,
      "967": 2519,
      "Ġ362": 2520,
      "973": 2521,
      "RG": 2522,
      "731": 2523,
      "YMin": 2524,
      "xMin": 2525,
      "Ġjam": 2526,
      "962": 2527,
      "xMinYMin": 2528,
      "095": 2529,
      "4444": 2530,
      "804": 2531,
      "Ġmask": 2532,
      "Ġ335": 2533,
      "Ġ337": 2534,
      "connector": 2535,
      "Sh": 2536,
      "very": 2537,
      "835": 2538,
      "863": 2539,
      "current": 2540,
      "Ġ339": 2541,
      "701": 2542,
      "ocument": 2543,
      "Ġ376": 2544,
      "Ġscale": 2545,
      "af": 2546,
      "914": 2547,
      "9999": 2548,
      "Ġ373": 2549,
      "Ġ278": 2550,
      "651": 2551,
      "944": 2552,
      "filter": 2553,
      "locked": 2554,
      "815": 2555,
      "829": 2556,
      "872": 2557,
      "943": 2558,
      "932": 2559,
      "aph": 2560,
      "eli": 2561,
      "Ġoverflow": 2562,
      "Ġ310": 2563,
      "/\"/>": 2564,
      "842": 2565,
      "famil": 2566,
      "duotone": 2567,
      "Ġ315": 2568,
      "901": 2569,
      "71717": 2570,
      "family": 2571,
      "933": 2572,
      "818": 2573,
      "let": 2574,
      "965": 2575,
      "292929": 2576,
      "Deli": 2577,
      "948": 2578,
      "Ġ316": 2579,
      "setting": 2580,
      "763": 2581,
      "bd": 2582,
      "Ġ426": 2583,
      "759": 2584,
      "976": 2585,
      "Delivery": 2586,
      "942": 2587,
      "max": 2588,
      "091": 2589,
      "Re": 2590,
      "aging": 2591,
      "991": 2592,
      "882": 2593,
      "Pack": 2594,
      "vature": 2595,
      "clo": 2596,
      "886": 2597,
      "curvature": 2598,
      "kit": 2599,
      "Ġ313": 2600,
      "Ġ308": 2601,
      "ood": 2602,
      "681": 2603,
      "Packaging": 2604,
      "741": 2605,
      "856": 2606,
      "maximize": 2607,
      "blend": 2608,
      "pageshadow": 2609,
      "vijf": 2610,
      "986": 2611,
      "907": 2612,
      "href": 2613,
      "Ġ325": 2614,
      "Ġxlink": 2615,
      "RGB": 2616,
      "941": 2617,
      "polation": 2618,
      "interpolation": 2619,
      "nce": 2620,
      "atter": 2621,
      "urn": 2622,
      "Ġfont": 2623,
      "3905": 2624,
      "DECE": 2625,
      "769": 2626,
      "982": 2627,
      "do": 2628,
      "974": 2629,
      "099": 2630,
      "document": 2631,
      "Ġ369": 2632,
      "drie": 2633,
      "teor": 2634,
      "meteor": 2635,
      "929": 2636,
      "bu": 2637,
      "marker": 2638,
      "settings": 2639,
      "Ġ342": 2640,
      "869": 2641,
      "dent": 2642,
      "922": 2643,
      "66757": 2644,
      "808184": 2645,
      "Ġ318": 2646,
      "Ġ378": 2647,
      "ĠĠĠĠĠĠĠĠĠĠĠĠ": 2648,
      "926": 2649,
      "folder": 2650,
      "cx": 2651,
      "Ġborder": 2652,
      "711": 2653,
      "862": 2654,
      "ort": 2655,
      "igh": 2656,
      "FD": 2657,
      "Ġ379": 2658,
      "res": 2659,
      "Ar": 2660,
      "attery": 2661,
      "Ġ343": 2662,
      "Ġ306": 2663,
      "2010": 2664,
      "861": 2665,
      "Ġpage": 2666,
      "Ġ345": 2667,
      "Ġ374": 2668,
      "Ca": 2669,
      "vier": 2670,
      "Ġ319": 2671,
      "071": 2672,
      "ropacity": 2673,
      "orde": 2674,
      "Ġborde": 2675,
      "pageopacity": 2676,
      "Ġbordercolor": 2677,
      "Ġborderopacity": 2678,
      "fc": 2679,
      "Ġshowgrid": 2680,
      "maximized": 2681,
      "Ġpagecolor": 2682,
      "Ġ317": 2683,
      "pin": 2684,
      "zeven": 2685,
      "5522847": 2686,
      "871": 2687,
      "Ġ323": 2688,
      "Filled": 2689,
      "Ġ576": 2690,
      "Ġ365": 2691,
      "761": 2692,
      "cloud": 2693,
      "520": 2694,
      "828282": 2695,
      "Ġ511": 2696,
      "ffe": 2697,
      "des": 2698,
      "Ġ309": 2699,
      "8954305": 2700,
      "821": 2701,
      "stone": 2702,
      "ore": 2703,
      "size": 2704,
      "Ġ321": 2705,
      "911": 2706,
      "opy": 2707,
      "972": 2708,
      "Ġ405": 2709,
      "face": 2710,
      "1920": 2711,
      "Ġ371": 2712,
      "ignal": 2713,
      "989": 2714,
      "indent": 2715,
      "Ġ377": 2716,
      "list": 2717,
      "app": 2718,
      "1919": 2719,
      "rance": 2720,
      "Ġ381": 2721,
      "Ġ322": 2722,
      "sn": 2723,
      "Ġ305": 2724,
      "831": 2725,
      "951": 2726,
      "Ġ360": 2727,
      "964": 2728,
      "ĠB": 2729,
      "bar": 2730,
      "uch": 2731,
      "tern": 2732,
      "check": 2733,
      "rink": 2734,
      "utt": 2735,
      "ulti": 2736,
      "DA": 2737,
      "Ġ382": 2738,
      "925": 2739,
      "ll": 2740,
      "sktop": 2741,
      "cff": 2742,
      "ob": 2743,
      "Ġ464": 2744,
      "Ġ346": 2745,
      "Ġ370": 2746,
      "num": 2747,
      "Ġ375": 2748,
      "Ġ432": 2749,
      "bean": 2750,
      "ical": 2751,
      "min": 2752,
      "Ġ380": 2753,
      "Capa": 2754,
      "Ġ383": 2755,
      "Ġ392": 2756,
      "Ġ348": 2757,
      "add": 2758,
      "High": 2759,
      "fd": 2760,
      "bbox": 2761,
      "540": 2762,
      "geo": 2763,
      "sion": 2764,
      "981": 2765,
      "CD": 2766,
      "med": 2767,
      "sand": 2768,
      "geometric": 2769,
      "Se": 2770,
      "cision": 2771,
      "ĠĠĠĊ": 2772,
      "Precision": 2773,
      "geometricPrecision": 2774,
      "co": 2775,
      "evel": 2776,
      "sans": 2777,
      "Ġ347": 2778,
      "lerance": 2779,
      "turn": 2780,
      "Ġ353": 2781,
      "ĉĉĊ": 2782,
      "Food": 2783,
      "ex": 2784,
      "labelled": 2785,
      "labelledby": 2786,
      "ĉĉĉĉĉ": 2787,
      "wor": 2788,
      "Ġ367": 2789,
      "Ġ496": 2790,
      "Source": 2791,
      "bine": 2792,
      "object": 2793,
      "Ġ359": 2794,
      "Combine": 2795,
      "Combined": 2796,
      "angles": 2797,
      "610": 2798,
      "(.": 2799,
      "stem": 2800,
      "linesand": 2801,
      "linesandangles": 2802,
      "971": 2803,
      "Ġ358": 2804,
      "gradient": 2805,
      "wintig": 2806,
      "ates": 2807,
      "899": 2808,
      "plu": 2809,
      "ree": 2810,
      "Drink": 2811,
      "ides": 2812,
      "FFAC": 2813,
      "ntwintig": 2814,
      "ott": 2815,
      "book": 2816,
      "Sy": 2817,
      "lic": 2818,
      "acht": 2819,
      "530": 2820,
      "919": 2821,
      "Ex": 2822,
      "oon": 2823,
      "FCE": 2824,
      "FFCC": 2825,
      "ger": 2826,
      "3939": 2827,
      "zes": 2828,
      "Desktop": 2829,
      "560": 2830,
      "butt": 2831,
      "group": 2832,
      "arch": 2833,
      "Ġ363": 2834,
      "caps": 2835,
      "5959": 2836,
      "bevel": 2837,
      "_-": 2838,
      "Signal": 2839,
      "2318": 2840,
      "Ġ390": 2841,
      "eric": 2842,
      "Ġ/": 2843,
      "DB": 2844,
      "1310": 2845,
      "snap": 2846,
      "block": 2847,
      "2857": 2848,
      "Ġ349": 2849,
      "921": 2850,
      "lig": 2851,
      "CEE": 2852,
      "ory": 2853,
      "Ġserif": 2854,
      "Ġ361": 2855,
      "nter": 2856,
      "Ġ356": 2857,
      "Ġ408": 2858,
      "acc": 2859,
      "Ġ509": 2860,
      "print": 2861,
      "position": 2862,
      "numeric": 2863,
      "padd": 2864,
      "padding": 2865,
      "700": 2866,
      "altern": 2867,
      "shar": 2868,
      "3905243": 2869,
      "arker": 2870,
      "Ġ490": 2871,
      "atures": 2872,
      "Ġ354": 2873,
      "Ġ440": 2874,
      "570": 2875,
      "port": 2876,
      "ffce": 2877,
      "feature": 2878,
      "ligatures": 2879,
      "alternates": 2880,
      "sharp": 2881,
      "ward": 2882,
      "Ġ350": 2883,
      "Ġ351": 2884,
      "ae": 2885,
      "Gr": 2886,
      "BFBF": 2887,
      "ction": 2888,
      "scien": 2889,
      "corn": 2890,
      "iction": 2891,
      "fiction": 2892,
      "ĉĊ": 2893,
      "Ġ395": 2894,
      "letter": 2895,
      "word": 2896,
      "ho": 2897,
      "Ġmarker": 2898,
      "Ġmarkers": 2899,
      "data": 2900,
      "Ġ357": 2901,
      "Ġ412": 2902,
      "ndfiction": 2903,
      "own": 2904,
      "ceandfiction": 2905,
      "scienceandfiction": 2906,
      "tra": 2907,
      "Ġ430": 2908,
      "394240": 2909,
      "slic": 2910,
      "Ġ435": 2911,
      "est": 2912,
      "Ġ768": 2913,
      "810": 2914,
      "sign": 2915,
      "curity": 2916,
      "visibility": 2917,
      "corners": 2918,
      "sharpcorners": 2919,
      "Ġ407": 2920,
      "Ġ469": 2921,
      "Ġ404": 2922,
      "fcea": 2923,
      "Ġ355": 2924,
      "plus": 2925,
      "minus": 2926,
      "pinner": 2927,
      "Bound": 2928,
      "era": 2929,
      "iv": 2930,
      "ication": 2931,
      "CB": 2932,
      "alert": 2933,
      "4157": 2934,
      "720": 2935,
      "Ġ472": 2936,
      "Ġ409": 2937,
      "4289": 2938,
      "Ġ492": 2939,
      "groupmode": 2940,
      "880": 2941,
      "231815": 2942,
      "Highlight": 2943,
      "Set": 2944,
      "Ġ387": 2945,
      "mixed": 2946,
      "ottom": 2947,
      "Ġ396": 2948,
      "Ġ388": 2949,
      "pha": 2950,
      "FB": 2951,
      "Ġ385": 2952,
      "Off": 2953,
      "str": 2954,
      "FE": 2955,
      "xy": 2956,
      "900": 2957,
      "Down": 2958,
      "go": 2959,
      "Ġ447": 2960,
      "Ġ441": 2961,
      "men": 2962,
      "_);\"/>": 2963,
      "all": 2964,
      "Ġ420": 2965,
      "Ġ439": 2966,
      "Ġ394": 2967,
      "blue": 2968,
      "Ġ386": 2969,
      "Ġ488": 2970,
      "790": 2971,
      "xygrid": 2972,
      "Ġ428": 2973,
      ")\"/></": 2974,
      "System": 2975,
      "Ġ402": 2976,
      "Ġ393": 2977,
      "1025": 2978,
      "web": 2979,
      "ters": 2980,
      "1525": 2981,
      "requ": 2982,
      "hairHighlight": 2983,
      "hairHighlights": 2984,
      "Ġ410": 2985,
      "580": 2986,
      "Shop": 2987,
      "Ġ431": 2988,
      "File": 2989,
      "ron": 2990,
      "clipboard": 2991,
      "Ġ414": 2992,
      "680": 2993,
      "Ġtranslate": 2994,
      "ef": 2995,
      "gy": 2996,
      "Ġ796": 2997,
      "Ġ434": 2998,
      "Ġ446": 2999,
      "Ġunits": 3000,
      "Ġ418": 3001,
      "blueprint": 3002,
      "Pen": 3003,
      "3436": 3004,
      "eather": 3005,
      "filters": 3006,
      "sf": 3007,
      "Ġ436": 3008,
      "Ġ456": 3009,
      "Ġ1034": 3010,
      "Ġ415": 3011,
      "840": 3012,
      "chart": 3013,
      "Ġ438": 3014,
      "60352": 3015,
      "Ġ403": 3016,
      "gray": 3017,
      "amb": 3018,
      "Ġ487": 3019,
      "sRGB": 3020,
      "1200": 3021,
      "alf": 3022,
      "ift": 3023,
      "cam": 3024,
      "Ġ011": 3025,
      "Ġ429": 3026,
      "ler": 3027,
      "Ġ896": 3028,
      "Ġ473": 3029,
      "slice": 3030,
      "ror": 3031,
      "Ġ399": 3032,
      "Map": 3033,
      "Arrow": 3034,
      "Ġ389": 3035,
      "Bounds": 3036,
      "Ġin": 3037,
      "SourceBounds": 3038,
      "slices": 3039,
      "sfw": 3040,
      "sliceSourceBounds": 3041,
      "590": 3042,
      "ult": 3043,
      "Vector": 3044,
      "Ġ425": 3045,
      "mits": 3046,
      "permits": 3047,
      "Ġ421": 3048,
      "Ġimage": 3049,
      "head": 3050,
      "For": 3051,
      "ndar": 3052,
      "Ġ391": 3053,
      "650": 3054,
      "chor": 3055,
      "AEE": 3056,
      "requi": 3057,
      "Ġ460": 3058,
      "373737": 3059,
      "Ġ422": 3060,
      "7777": 3061,
      "ual": 3062,
      "Ġ413": 3063,
      "requires": 3064,
      "Battery": 3065,
      "anchor": 3066,
      "ACEE": 3067,
      "000": 3068,
      "363636": 3069,
      "¯å": 3070,
      "Ġ411": 3071,
      "Ġ451": 3072,
      "4285": 3073,
      "·¯å": 3074,
      "¾Ħ": 3075,
      "è·¯å": 3076,
      "tolerance": 3077,
      "mark": 3078,
      "è·¯å¾Ħ": 3079,
      "ping": 3080,
      "Ġ494": 3081,
      "Ado": 3082,
      "=\"\"/></": 3083,
      "Ġ489": 3084,
      "Adobe": 3085,
      "cb": 3086,
      "620": 3087,
      "Ġ442": 3088,
      "eye": 3089,
      "clock": 3090,
      "4208": 3091,
      "gin": 3092,
      "Ġ401": 3093,
      "eta": 3094,
      ")_": 3095,
      "Ġ704": 3096,
      "Ġ417": 3097,
      "Ġ457": 3098,
      "ffdd": 3099,
      "heart": 3100,
      "Ġ437": 3101,
      "Ġ443": 3102,
      "mou": 3103,
      "pan": 3104,
      "Ġ424": 3105,
      "Ġ398": 3106,
      "menu": 3107,
      "Ġ433": 3108,
      "Ġicons": 3109,
      "Ġ444": 3110,
      "Ġ454": 3111,
      "cfce": 3112,
      "Shopicon": 3113,
      "tens": 3114,
      "Security": 3115,
      "Bas": 3116,
      "EAE": 3117,
      "444444": 3118,
      "Ġ467": 3119,
      "ideo": 3120,
      "Basket": 3121,
      "stre": 3122,
      "Ġ495": 3123,
      "ffc": 3124,
      "ĠBeta": 3125,
      "Graph": 3126,
      "chev": 3127,
      "ish": 3128,
      "Ġ445": 3129,
      "guides": 3130,
      "nergy": 3131,
      "Ġ397": 3132,
      "AE": 3133,
      "Ġ466": 3134,
      "and": 3135,
      "Extens": 3136,
      "db": 3137,
      "ĠĠĊ": 3138,
      "Ġ406": 3139,
      "Ġ800": 3140,
      "graph": 3141,
      "44771525": 3142,
      "ave": 3143,
      "icom": 3144,
      "8080": 3145,
      "Energy": 3146,
      "_);": 3147,
      "eft": 3148,
      "ignore": 3149,
      "icomoon": 3150,
      "wr": 3151,
      "0200": 3152,
      "Ġ471": 3153,
      "2328": 3154,
      "Ġ486": 3155,
      "55228475": 3156,
      "Lo": 3157,
      "Ġ497": 3158,
      "mail": 3159,
      "AC": 3160,
      "usic": 3161,
      "sub": 3162,
      "tch": 3163,
      "ulate": 3164,
      "Ġ453": 3165,
      "Ġ1800": 3166,
      "37474": 3167,
      "Download": 3168,
      "630": 3169,
      "Ġ001": 3170,
      "1219": 3171,
      "BCD": 3172,
      "Ġ470": 3173,
      "umulate": 3174,
      "accumulate": 3175,
      "rop": 3176,
      "igin": 3177,
      "Ġ544": 3178,
      "margin": 3179,
      "oth": 3180,
      "2327": 3181,
      "ibility": 3182,
      "Ġ481": 3183,
      "Ġ832": 3184,
      "4145": 3185,
      "750": 3186,
      "Ġ533": 3187,
      "Ġ423": 3188,
      "Ġ478": 3189,
      "660": 3190,
      "entwintig": 3191,
      "Ġtext": 3192,
      "Ġ482": 3193,
      "Ġ450": 3194,
      "tb": 3195,
      "550": 3196,
      "ext": 3197,
      "dce": 3198,
      "copy": 3199,
      "Ġglyph": 3200,
      "Ġ449": 3201,
      "Ġ455": 3202,
      "aalf": 3203,
      "Ġ475": 3204,
      "twaalf": 3205,
      "ack": 3206,
      "ear": 3207,
      "0020": 3208,
      "690": 3209,
      "opt": 3210,
      "eto": 3211,
      "dit": 3212,
      "Ġ847": 3213,
      "414547": 3214,
      "mem": 3215,
      "4040": 3216,
      "Regular": 3217,
      "abe": 3218,
      "ning": 3219,
      "Ġ600": 3220,
      "Ġ510": 3221,
      "iz": 3222,
      "Ġ419": 3223,
      "Ġ458": 3224,
      "4747": 3225,
      "Ġshowguides": 3226,
      "CCCCCC": 3227,
      "memory": 3228,
      "ple": 3229,
      "ved": 3230,
      "ĉĠ": 3231,
      "lay": 3232,
      "Maps": 3233,
      "stretch": 3234,
      "writ": 3235,
      "Ġ452": 3236,
      "calendar": 3237,
      "puch": 3238,
      "ipuch": 3239,
      "puchipuch": 3240,
      "puchipuchi": 3241,
      "Ġmulti": 3242,
      "Left": 3243,
      "air": 3244,
      "gen": 3245,
      "AFAF": 3246,
      "BEC": 3247,
      "blocks": 3248,
      "camera": 3249,
      "old": 3250,
      "scale": 3251,
      "bdc": 3252,
      "Ġ502": 3253,
      "linearRGB": 3254,
      "medi": 3255,
      "6768": 3256,
      "code": 3257,
      "writing": 3258,
      "ess": 3259,
      "4545": 3260,
      "Ġfit": 3261,
      "Ch": 3262,
      "ouble": 3263,
      "chevron": 3264,
      "fo": 3265,
      "mp": 3266,
      "Ġ750": 3267,
      "1428": 3268,
      "080": 3269,
      "Ġ468": 3270,
      "Ġ476": 3271,
      "orite": 3272,
      "Ġ484": 3273,
      "sketchy": 3274,
      "ld": 3275,
      "ntblocks": 3276,
      "shop": 3277,
      "bentblocks": 3278,
      "battery": 3279,
      "Ġ465": 3280,
      "rush": 3281,
      "medium": 3282,
      "shift": 3283,
      "Ġ474": 3284,
      "optimize": 3285,
      "/\">": 3286,
      "Ġ012": 3287,
      "Ġ508": 3288,
      "CCF": 3289,
      "Out": 3290,
      "can": 3291,
      "card": 3292,
      "double": 3293,
      "FCEA": 3294,
      "iado": 3295,
      "alpha": 3296,
      "afiado": 3297,
      "ambur": 3298,
      "Ġ427": 3299,
      "Ġ461": 3300,
      "red": 3301,
      "negent": 3302,
      "negentien": 3303,
      "010": 3304,
      "730": 3305,
      "Qual": 3306,
      "ist": 3307,
      "Ġ479": 3308,
      "2020": 3309,
      "202327": 3310,
      "igns": 3311,
      "0310": 3312,
      "optimizeQual": 3313,
      "optimizeQuality": 3314,
      "2626": 3315,
      "ball": 3316,
      "table": 3317,
      "designs": 3318,
      "1024": 3319,
      "6797": 3320,
      "bag": 3321,
      "Ġ493": 3322,
      "ste": 3323,
      "hor": 3324,
      "Share": 3325,
      "Ġ504": 3326,
      "llu": 3327,
      "ltr": 3328,
      "Ġ846": 3329,
      "strator": 3330,
      "Illu": 3331,
      "670": 3332,
      "tical": 3333,
      "Ġ462": 3334,
      "4900": 3335,
      "result": 3336,
      "Ap": 3337,
      "lash": 3338,
      "conta": 3339,
      "Ġ483": 3340,
      "Ġ501": 3341,
      "Illustrator": 3342,
      "Clarity": 3343,
      "uter": 3344,
      "Ġresult": 3345,
      "Ġ491": 3346,
      "search": 3347,
      "AdobeIllustrator": 3348,
      "830": 3349,
      "ON": 3350,
      "191919": 3351,
      "Graphs": 3352,
      "Extensibility": 3353,
      "970": 3354,
      "DBD": 3355,
      "Save": 3356,
      "ec": 3357,
      "icro": 3358,
      "820": 3359,
      "860": 3360,
      "ant": 3361,
      "Ġ459": 3362,
      "676883": 3363,
      "1111": 3364,
      "1313": 3365,
      "Ġ485": 3366,
      "cart": 3367,
      "gis": 3368,
      "Ġ477": 3369,
      "nse": 3370,
      "870": 3371,
      "ool": 3372,
      "ga": 3373,
      "poin": 3374,
      "Ġdisplay": 3375,
      "Ġ463": 3376,
      "Ġ498": 3377,
      "1366": 3378,
      "3935": 3379,
      "our": 3380,
      "ribu": 3381,
      "ribution": 3382,
      "time": 3383,
      "740": 3384,
      "Ġ554": 3385,
      "love": 3386,
      "node": 3387,
      "6859": 3388,
      "edit": 3389,
      "9268": 3390,
      "Bright": 3391,
      "Lice": 3392,
      "sp": 3393,
      "9939": 3394,
      "License": 3395,
      "760": 3396,
      "bound": 3397,
      "1010": 3398,
      "780": 3399,
      "Tra": 3400,
      "Outline": 3401,
      "00049": 3402,
      "drop": 3403,
      "smart": 3404,
      "Ġ524": 3405,
      "ĠmaskUnits": 3406,
      "4121": 3407,
      "Ġ746": 3408,
      "glass": 3409,
      "1429": 3410,
      "Spinner": 3411,
      "Ġ520": 3412,
      "EAD": 3413,
      "EAEA": 3414,
      "Brightest": 3415,
      "1931": 3416,
      "lect": 3417,
      "types": 3418,
      "850": 3419,
      "car": 3420,
      "fu": 3421,
      "arning": 3422,
      "media": 3423,
      "around": 3424,
      "dom": 3425,
      "4478": 3426,
      "Ġ597": 3427,
      "dertien": 3428,
      "999999": 3429,
      "ffb": 3430,
      "770": 3431,
      "roll": 3432,
      "1098": 3433,
      "ark": 3434,
      "ans": 3435,
      "CFCE": 3436,
      "mid": 3437,
      "key": 3438,
      "rol": 3439,
      "Ġ499": 3440,
      "ats": 3441,
      "EFE": 3442,
      "close": 3443,
      "ode": 3444,
      "1729": 3445,
      "Ġfeather": 3446,
      "twintig": 3447,
      "download": 3448,
      "Free": 3449,
      "Ġ2050": 3450,
      "note": 3451,
      "393939": 3452,
      "1091": 3453,
      "loading": 3454,
      "nodetypes": 3455,
      "Copy": 3456,
      "ive": 3457,
      "nodes": 3458,
      "fef": 3459,
      "hand": 3460,
      "Ð¾": 3461,
      "Ġwhite": 3462,
      "Ġ780": 3463,
      "EBB": 3464,
      "Ð¡": 3465,
      "center": 3466,
      "Ð¾Ð": 3467,
      "9266": 3468,
      "pers": 3469,
      "Ð»": 3470,
      "8888": 3471,
      "so": 3472,
      "ç»": 3473,
      "chat": 3474,
      "Ð¡Ð»": 3475,
      "Ð¾Ð¹": 3476,
      "Ð¡Ð»Ð¾Ð¹": 3477,
      "vertical": 3478,
      "fed": 3479,
      "video": 3480,
      "iner": 3481,
      "inant": 3482,
      "1280": 3483,
      "ding": 3484,
      "47495": 3485,
      "595959": 3486,
      "980": 3487,
      "Ġor": 3488,
      "344952": 3489,
      "shopping": 3490,
      "dominant": 3491,
      "star": 3492,
      "Ġ672": 3493,
      "negen": 3494,
      ":.": 3495,
      "Ġ506": 3496,
      "Ġ608": 3497,
      "FFFAEE": 3498,
      "Row": 3499,
      "music": 3500,
      "select": 3501,
      "Ġ528": 3502,
      "rain": 3503,
      "EDA": 3504,
      "Ġ725": 3505,
      "Ġ592": 3506,
      "Ġspacing": 3507,
      "ĠĠĠĠĠĠĠĠĠĠĠĠĠ": 3508,
      "Ġ526": 3509,
      "FFDD": 3510,
      "710": 3511,
      "Add": 3512,
      "Ġfilter": 3513,
      "0095": 3514,
      "Ġ513": 3515,
      "1712": 3516,
      "ontal": 3517,
      "979797": 3518,
      "izontal": 3519,
      "CAF": 3520,
      "rid": 3521,
      "Ġ507": 3522,
      "AEB": 3523,
      "act": 3524,
      "4644": 3525,
      "1103": 3526,
      "ffd": 3527,
      "Ġ505": 3528,
      "mag": 3529,
      "amburger": 3530,
      "gre": 3531,
      "subject": 3532,
      "IC": 3533,
      "hamburger": 3534,
      "sun": 3535,
      "Ġ518": 3536,
      "Web": 3537,
      "Ġ618": 3538,
      "Ġ002": 3539,
      "emp": 3540,
      "proved": 3541,
      "BFBFBF": 3542,
      "ail": 3543,
      "cht": 3544,
      "paper": 3545,
      "Ġ1028": 3546,
      "meter": 3547,
      "flag": 3548,
      "bottom": 3549,
      "Ġ682": 3550,
      "3535": 3551,
      "Ġsket": 3552,
      "home": 3553,
      "080341": 3554,
      "chtool": 3555,
      "Ġsketchtool": 3556,
      "1089": 3557,
      "Ġ2019": 3558,
      "ume": 3559,
      "cccccccc": 3560,
      "142858": 3561,
      "ãĥ": 3562,
      "User": 3563,
      "map": 3564,
      "å±": 3565,
      "Ġapp": 3566,
      "1414": 3567,
      "ater": 3568,
      "elf": 3569,
      "Ġ560": 3570,
      "2941": 3571,
      "535358": 3572,
      "Art": 3573,
      "zeventien": 3574,
      "container": 3575,
      "Ġapply": 3576,
      "5041": 3577,
      "ai": 3578,
      "ope": 3579,
      "uplo": 3580,
      "5555": 3581,
      "mouth": 3582,
      "selected": 3583,
      "Ġ736": 3584,
      "Ġ584": 3585,
      "13725": 3586,
      "94989": 3587,
      "upload": 3588,
      "wa": 3589,
      "Ġ532": 3590,
      "Ġ588": 3591,
      "olume": 3592,
      "6667": 3593,
      "Ġ503": 3594,
      "move": 3595,
      "788287": 3596,
      "._": 3597,
      "iness": 3598,
      "curve": 3599,
      "usiness": 3600,
      "EBC": 3601,
      "vice": 3602,
      "Ġ522": 3603,
      "press": 3604,
      "Approved": 3605,
      "Full": 3606,
      "Or": 3607,
      "1139": 3608,
      "EEC": 3609,
      "6399": 3610,
      "FDC": 3611,
      "spinner": 3612,
      "logo": 3613,
      "beans": 3614,
      "irt": 3615,
      "Artboard": 3616,
      "cle": 3617,
      "ick": 3618,
      "1016": 3619,
      "ertien": 3620,
      "veertien": 3621,
      "9480": 3622,
      "Bo": 3623,
      "dashing": 3624,
      "57939": 3625,
      "ICON": 3626,
      "Edit": 3627,
      "ase": 3628,
      "875334": 3629,
      "1028": 3630,
      "horizontal": 3631,
      "Origin": 3632,
      "Ġ548": 3633,
      "67757": 3634,
      "radio": 3635,
      "716558": 3636,
      "slash": 3637,
      "warning": 3638,
      "ps": 3639,
      "Ġbottom": 3640,
      "Gu": 3641,
      "ccc": 3642,
      "In": 3643,
      "ĠIcons": 3644,
      "1138": 3645,
      "515151": 3646,
      "bile": 3647,
      "3358": 3648,
      "ForWeb": 3649,
      "LeftOrigin": 3650,
      "SaveForWeb": 3651,
      "icrophone": 3652,
      "ĠbottomLeftOrigin": 3653,
      "1092": 3654,
      "121923": 3655,
      "7450": 3656,
      "He": 3657,
      "Right": 3658,
      "pand": 3659,
      "1096": 3660,
      "4652": 3661,
      "1173": 3662,
      "col": 3663,
      "Ġ525": 3664,
      "Ġ578": 3665,
      "BAA": 3666,
      "Ġ677": 3667,
      "twork": 3668,
      "EDB": 3669,
      "Med": 3670,
      "66353": 3671,
      "mun": 3672,
      "1131": 3673,
      "ifier": 3674,
      "pointer": 3675,
      "ling": 3676,
      "Ġ661": 3677,
      "ower": 3678,
      "Ġgu": 3679,
      "Ġobject": 3680,
      "0434": 3681,
      "EDED": 3682,
      "eaea": 3683,
      "545454": 3684,
      "eyes": 3685,
      "010101": 3686,
      "Bl": 3687,
      "DCE": 3688,
      "for": 3689,
      "Ġ\">": 3690,
      "ideto": 3691,
      "Ġ585": 3692,
      "4037": 3693,
      "Ġgrid": 3694,
      "Ġguideto": 3695,
      "Ġobjecttolerance": 3696,
      "Ġgridtolerance": 3697,
      "Ġguidetolerance": 3698,
      "ross": 3699,
      "1242": 3700,
      "27323": 3701,
      "ople": 3702,
      "664131": 3703,
      "product": 3704,
      "Matrix": 3705,
      "Ġ538": 3706,
      "3529": 3707,
      "ident": 3708,
      "rows": 3709,
      "Lock": 3710,
      "Cam": 3711,
      "Ge": 3712,
      "su": 3713,
      "watch": 3714,
      "Ġ810": 3715,
      "error": 3716,
      "27261": 3717,
      "ned": 3718,
      "5000": 3719,
      "medical": 3720,
      "efc": 3721,
      "1639": 3722,
      "ield": 3723,
      "Blur": 3724,
      "910": 3725,
      "bre": 3726,
      "bol": 3727,
      "pub": 3728,
      "side": 3729,
      "Ġt": 3730,
      "1132": 3731,
      "1133": 3732,
      "7866": 3733,
      "4249": 3734,
      "8686": 3735,
      "1337": 3736,
      "2925": 3737,
      "bas": 3738,
      "EDBD": 3739,
      "avorite": 3740,
      "eyeb": 3741,
      ");}": 3742,
      "940": 3743,
      "_);}": 3744,
      "Ġ527": 3745,
      "moon": 3746,
      "2236": 3747,
      "91674": 3748,
      "Ġ621": 3749,
      "isolate": 3750,
      "magic": 3751,
      "dis": 3752,
      "Ġ700": 3753,
      "1011": 3754,
      "1097": 3755,
      "Ġ536": 3756,
      "Ġ587": 3757,
      "ç»Ħ": 3758,
      "ICONS": 3759,
      "ãĤ": 3760,
      "pass": 3761,
      "ilding": 3762,
      "Ġ516": 3763,
      "Ġ596": 3764,
      "Ġ575": 3765,
      "5152": 3766,
      "¼ĸ": 3767,
      "ç¼ĸ": 3768,
      "Ġ530": 3769,
      "Ġ572": 3770,
      "ç¼ĸç»Ħ": 3771,
      "ede": 3772,
      "man": 3773,
      "Ġ574": 3774,
      "1338": 3775,
      "890": 3776,
      "464455": 3777,
      "Guides": 3778,
      "brush": 3779,
      "0050": 3780,
      "0041": 3781,
      "info": 3782,
      "Ġ820": 3783,
      "1056": 3784,
      "Ġ547": 3785,
      "Ġ570": 3786,
      "4099": 3787,
      "1001": 3788,
      "tions": 3789,
      "FDFFFF": 3790,
      "isher": 3791,
      "game": 3792,
      "Gener": 3793,
      "Back": 3794,
      "not": 3795,
      "Ġ819": 3796,
      "Ġ720": 3797,
      "Ġ583": 3798,
      "28571429": 3799,
      "And": 3800,
      "ADE": 3801,
      "Favorite": 3802,
      "No": 3803,
      "rier": 3804,
      "cont": 3805,
      ");}</": 3806,
      "agon": 3807,
      "bul": 3808,
      "eba": 3809,
      "1463": 3810,
      "5757": 3811,
      "LI": 3812,
      "PX": 3813,
      "her": 3814,
      "pdf": 3815,
      "3554": 3816,
      "creen": 3817,
      "Al": 3818,
      "cross": 3819,
      "Ġ537": 3820,
      "1171": 3821,
      "28572": 3822,
      "9680": 3823,
      "åĽ": 3824,
      "1818": 3825,
      "00001": 3826,
      "publ": 3827,
      "cil": 3828,
      "ew": 3829,
      "1052": 3830,
      "Ġ521": 3831,
      "Ġ529": 3832,
      "Ġ580": 3833,
      "remove": 3834,
      "1009": 3835,
      "barrier": 3836,
      "vers": 3837,
      "1211": 3838,
      "1875": 3839,
      "990": 3840,
      "ification": 3841,
      "AFA": 3842,
      "General": 3843,
      "ire": 3844,
      "ĠFile": 3845,
      "Ġ612": 3846,
      "Ġ568": 3847,
      "4646": 3848,
      "6856": 3849,
      "markers": 3850,
      "munication": 3851,
      "publisher": 3852,
      "070": 3853,
      "multi": 3854,
      "Ġ550": 3855,
      "Ġ589": 3856,
      "bebe": 3857,
      "Viv": 3858,
      "ry": 3859,
      "1095": 3860,
      "Ġ517": 3861,
      "Ġ534": 3862,
      "Ġ543": 3863,
      "1717": 3864,
      "4842": 3865,
      "6645": 3866,
      "1123": 3867,
      "mobile": 3868,
      "trash": 3869,
      "808080": 3870,
      "identifier": 3871,
      "åĽ¾": 3872,
      "SLI": 3873,
      "Ġ624": 3874,
      "CES": 3875,
      "SLICES": 3876,
      "040": 3877,
      "050": 3878,
      "950": 3879,
      "`\"/>": 3880,
      "Ġ864": 3881,
      "1015": 3882,
      "like": 3883,
      "export": 3884,
      "Vivid": 3885,
      "cel": 3886,
      "cog": 3887,
      "sw": 3888,
      "ue": 3889,
      "1045": 3890,
      "Ġ531": 3891,
      "ifi": 3892,
      "eyebrows": 3893,
      "-\"": 3894,
      "930": 3895,
      "Not": 3896,
      "border": 3897,
      "volume": 3898,
      "1013": 3899,
      "Ġ573": 3900,
      "44336": 3901,
      "Ġ874": 3902,
      "Ġ535": 3903,
      "Ġ598": 3904,
      "location": 3905,
      "EAA": 3906,
      "cut": 3907,
      "tag": 3908,
      "Ġ546": 3909,
      "Ġ564": 3910,
      "Ġ590": 3911,
      "1319": 3912,
      "share": 3913,
      "ECE": 3914,
      "ah": 3915,
      "Ġ540": 3916,
      "2048": 3917,
      "4893": 3918,
      "7344": 3919,
      "oct": 3920,
      "Ġ789": 3921,
      "1094": 3922,
      "1093": 3923,
      "2323": 3924,
      "89664": 3925,
      "ance": 3926,
      "Ġ519": 3927,
      "2041": 3928,
      "network": 3929,
      "terti": 3930,
      "EEE": 3931,
      "tertiary": 3932,
      "ecom": 3933,
      "1137": 3934,
      "forward": 3935,
      "jp": 3936,
      "1216": 3937,
      "Ġ581": 3938,
      "CCE": 3939,
      "production": 3940,
      "4142": 3941,
      "_\"/><": 3942,
      "Ġ610": 3943,
      "Ġ563": 3944,
      "1535": 3945,
      "920": 3946,
      "rt": 3947,
      "ĠG": 3948,
      "Ġ708": 3949,
      "Ġ577": 3950,
      "Ġ586": 3951,
      "comp": 3952,
      "EBE": 3953,
      "FEF": 3954,
      "ber": 3955,
      "nch": 3956,
      "Ġ632": 3957,
      "1018": 3958,
      "Ġ539": 3959,
      "3291": 3960,
      "57142858": 3961,
      "58360": 3962,
      "FFAF": 3963,
      "41416": 3964,
      "03838": 3965,
      "magicoon": 3966,
      "Ġevenodd": 3967,
      "Ġ523": 3968,
      "1129": 3969,
      "wind": 3970,
      "Dark": 3971,
      "glo": 3972,
      "site": 3973,
      "uk": 3974,
      "1297": 3975,
      "Ġ693": 3976,
      "1087": 3977,
      "Lager": 3978,
      "1008": 3979,
      "vas": 3980,
      "Ġst": 3981,
      "Ġ828": 3982,
      "1099": 3983,
      "Ġ542": 3984,
      "Ġ565": 3985,
      "030708": 3986,
      "octagon": 3987,
      "FCC": 3988,
      "Mess": 3989,
      "aw": 3990,
      "able": 3991,
      "acf": 3992,
      "free": 3993,
      "Ġ625": 3994,
      "Ġ514": 3995,
      "Ġ541": 3996,
      "142857": 3997,
      "5522": 3998,
      "Ġ853": 3999,
      "Ġ645": 4000,
      "1039": 4001,
      "Ġ599": 4002,
      "1320": 4003,
      "1578": 4004,
      "lete": 4005,
      "705041": 4006,
      "bookmark": 4007,
      "Book": 4008,
      "wal": 4009,
      "ĠR": 4010,
      "1279": 4011,
      "Ġ614": 4012,
      "Ġ622": 4013,
      "canvas": 4014,
      "cu": 4015,
      "dia": 4016,
      "1213": 4017,
      "Ġ716": 4018,
      "Ġ611": 4019,
      "1066": 4020,
      "1068": 4021,
      "lap": 4022,
      "3954": 4023,
      "5690": 4024,
      "delete": 4025,
      "dae": 4026,
      "Love": 4027,
      "layout": 4028,
      "herit": 4029,
      "Ġ558": 4030,
      "Ġ582": 4031,
      "1177": 4032,
      "1128": 4033,
      "2197": 4034,
      "5176": 4035,
      "bow": 4036,
      "Ġ734": 4037,
      "Ġ637": 4038,
      "2954": 4039,
      "1124": 4040,
      "Message": 4041,
      "(-.": 4042,
      "ggle": 4043,
      "zado": 4044,
      "Ġ591": 4045,
      "1565": 4046,
      "people": 4047,
      "caf": 4048,
      "Offset": 4049,
      "777777": 4050,
      "Trazado": 4051,
      "1105": 4052,
      "Bu": 4053,
      "zuk": 4054,
      "Ġ728": 4055,
      "1035": 4056,
      "Ġ571": 4057,
      "igo": 4058,
      "news": 4059,
      "ange": 4060,
      "Upload": 4061,
      "basket": 4062,
      "Outer": 4063,
      "ain": 4064,
      "action": 4065,
      "ng": 4066,
      "0002": 4067,
      "Ġ0132": 4068,
      "inherit": 4069,
      "Ġ856": 4070,
      "1048": 4071,
      "tele": 4072,
      "lood": 4073,
      "toggle": 4074,
      "panfu": 4075,
      "barrierfree": 4076,
      "ecomo": 4077,
      "zukigo": 4078,
      "0384": 4079,
      "At": 4080,
      "ecf": 4081,
      "Ġ840": 4082,
      "Ġ710": 4083,
      "bra": 4084,
      "pie": 4085,
      "Ġemp": 4086,
      "Ġ647": 4087,
      "1051": 4088,
      "Ġ562": 4089,
      "nding": 4090,
      "4640": 4091,
      "67625": 4092,
      "money": 4093,
      "EDEAE": 4094,
      "390524": 4095,
      "Next": 4096,
      "fce": 4097,
      "Ġeffect": 4098,
      "Ġ938": 4099,
      "1217": 4100,
      "1080": 4101,
      "1616": 4102,
      "9835": 4103,
      "1003": 4104,
      "irror": 4105,
      "Search": 4106,
      "plete": 4107,
      "BAADC": 4108,
      "6446": 4109,
      "ĠT": 4110,
      "5649": 4111,
      "FFCA": 4112,
      "Ġ602": 4113,
      "Ġ604": 4114,
      "feColor": 4115,
      "474747": 4116,
      "å±Ĥ": 4117,
      "åĽ¾å±Ĥ": 4118,
      "Ġempspacing": 4119,
      "feColorMatrix": 4120,
      ");}.": 4121,
      "2200": 4122,
      "9483": 4123,
      "Ebe": 4124,
      "mbol": 4125,
      "Ġ688": 4126,
      "Ġ698": 4127,
      "Ġ601": 4128,
      "case": 4129,
      "DDDD": 4130,
      "Ebene": 4131,
      "BBD": 4132,
      "coin": 4133,
      "Ġ620": 4134,
      "Ġ650": 4135,
      "1021": 4136,
      "Ġ515": 4137,
      "1551": 4138,
      "iet": 4139,
      "Ġ609": 4140,
      "CFD": 4141,
      "Low": 4142,
      "Screen": 4143,
      "under": 4144,
      "0006": 4145,
      "Ġ721": 4146,
      "Ġ630": 4147,
      "1057": 4148,
      "Ġ557": 4149,
      "Ġ579": 4150,
      "1167": 4151,
      "1172": 4152,
      "2727": 4153,
      "2855": 4154,
      "eef": 4155,
      "nose": 4156,
      "62727": 4157,
      "1104": 4158,
      "4152": 4159,
      "7671": 4160,
      "CDE": 4161,
      "FDD": 4162,
      "player": 4163,
      "Ġ638": 4164,
      "FDE": 4165,
      "cd": 4166,
      "roid": 4167,
      "Ġ664": 4168,
      "1575": 4169,
      "97360": 4170,
      "shield": 4171,
      "Complete": 4172,
      "8579": 4173,
      "1215": 4174,
      "Ġ665": 4175,
      "1050": 4176,
      "1062": 4177,
      "3016": 4178,
      "chine": 4179,
      "ouse": 4180,
      "rike": 4181,
      "Stats": 4182,
      "plane": 4183,
      "Fi": 4184,
      "OK": 4185,
      "aker": 4186,
      "jis": 4187,
      "pi": 4188,
      "ues": 4189,
      "Ġ772": 4190,
      "httien": 4191,
      "sent": 4192,
      "shu": 4193,
      "achttien": 4194,
      "4296": 4195,
      "Multi": 4196,
      "mer": 4197,
      "1214": 4198,
      "Ġ702": 4199,
      "Ġ656": 4200,
      "Ġ552": 4201,
      "Ġ569": 4202,
      "5652": 4203,
      "cial": 4204,
      "fav": 4205,
      "699635": 4206,
      "roller": 4207,
      "Ho": 4208,
      "call": 4209,
      "ise": 4210,
      "Ġ627": 4211,
      "Ġ556": 4212,
      "lamp": 4213,
      "2250": 4214,
      "3367": 4215,
      "ions": 4216,
      "5546": 4217,
      "5924": 4218,
      "1121": 4219,
      "424242": 4220,
      "7575": 4221,
      "OB": 4222,
      "1254": 4223,
      "1037": 4224,
      "1043": 4225,
      "Ġ561": 4226,
      "shirt": 4227,
      "esign": 4228,
      "50061": 4229,
      "chec": 4230,
      "454545": 4231,
      "3125": 4232,
      "Der": 4233,
      "Ã©": 4234,
      "Ġ648": 4235,
      "Ġ545": 4236,
      "2019": 4237,
      "Ġval": 4238,
      "Last": 4239,
      "0321": 4240,
      "tablet": 4241,
      "Alpha": 4242,
      "Ġvalues": 4243,
      "Bag": 4244,
      "Dist": 4245,
      "Tim": 4246,
      "aj": 4247,
      "Ġ723": 4248,
      "Ġ732": 4249,
      "Ġ729": 4250,
      "Ġ626": 4251,
      "Ġ629": 4252,
      "Ġ699": 4253,
      "Ġ653": 4254,
      "Ġ553": 4255,
      "1777": 4256,
      "tspan": 4257,
      "ativeWork": 4258,
      "lueto": 4259,
      "tweeentwintig": 4260,
      "Reproduction": 4261,
      "ivativeWork": 4262,
      "notification": 4263,
      "DerivativeWork": 4264,
      "Distribution": 4265,
      "luetooth": 4266,
      "DerivativeWorks": 4267,
      "ao": 4268,
      "aq": 4269,
      "0005": 4270,
      "1081": 4271,
      "1801": 4272,
      "2764": 4273,
      "1002": 4274,
      "comment": 4275,
      "ECT": 4276,
      "5174": 4277,
      "JECT": 4278,
      "Op": 4279,
      "night": 4280,
      "1251": 4281,
      "1253": 4282,
      "Ġ654": 4283,
      "Ġ696": 4284,
      "1023": 4285,
      "1088": 4286,
      "1085": 4287,
      "1336": 4288,
      "4473": 4289,
      "Ġ603": 4290,
      "aecb": 4291,
      "OBJECT": 4292,
      "aecbfa": 4293,
      "Cal": 4294,
      "Design": 4295,
      "ircle": 4296,
      "king": 4297,
      "lon": 4298,
      "wifi": 4299,
      "Ġ616": 4300,
      "Ġ646": 4301,
      "1019": 4302,
      "1084": 4303,
      "Ġ566": 4304,
      "1515": 4305,
      "2161": 4306,
      "Notice": 4307,
      "39052429": 4308,
      "0277": 4309,
      "4373": 4310,
      "6249": 4311,
      "Alike": 4312,
      "Gau": 4313,
      "tribution": 4314,
      "ĠZM": 4315,
      "1257": 4316,
      "Ġ735": 4317,
      "3434": 4318,
      "ell": 4319,
      "dots": 4320,
      "Grid": 4321,
      "ShareAlike": 4322,
      "Attribution": 4323,
      "Options": 4324,
      "5173": 4325,
      "pat": 4326,
      "Ġ727": 4327,
      "1017": 4328,
      "1079": 4329,
      "1136": 4330,
      "1134": 4331,
      "1657": 4332,
      "ssage": 4333,
      "ssian": 4334,
      "5523": 4335,
      "bal": 4336,
      "feGau": 4337,
      "othÃ©": 4338,
      "ĠGiet": 4339,
      "TimothÃ©": 4340,
      "ssianBlur": 4341,
      "feGaussianBlur": 4342,
      "TimothÃ©e": 4343,
      "New": 4344,
      "ĠF": 4345,
      "Ġon": 4346,
      "Ġ617": 4347,
      "1055": 4348,
      "Ġ549": 4349,
      "1166": 4350,
      "1152": 4351,
      "3653": 4352,
      "9991": 4353,
      "4572": 4354,
      "FCD": 4355,
      "gress": 4356,
      "BBEC": 4357,
      "points": 4358,
      "task": 4359,
      "Ġ633": 4360,
      "Ġ567": 4361,
      "itch": 4362,
      "7878": 4363,
      "show": 4364,
      "machine": 4365,
      "Ġorigin": 4366,
      "FDF": 4367,
      "Mer": 4368,
      "1113": 4369,
      "lose": 4370,
      "progress": 4371,
      "EAEAEA": 4372,
      "person": 4373,
      "4375": 4374,
      "Ġ717": 4375,
      "Ġ718": 4376,
      "Ġ760": 4377,
      "Ġ619": 4378,
      "Ġ670": 4379,
      "Ġ697": 4380,
      "1012": 4381,
      "2856": 4382,
      "atar": 4383,
      "5768": 4384,
      "6952": 4385,
      "Ġ701": 4386,
      "bell": 4387,
      "404040": 4388,
      "Turn": 4389,
      "roph": 4390,
      "Ġ928": 4391,
      "Ġ737": 4392,
      "Ġ792": 4393,
      "Ġ695": 4394,
      "Ġ559": 4395,
      "ernal": 4396,
      "5537": 4397,
      "67157": 4398,
      "CCBF": 4399,
      "Di": 4400,
      "oad": 4401,
      "Ġ841": 4402,
      "1256": 4403,
      "Ġ712": 4404,
      "Ġ747": 4405,
      "Ġ628": 4406,
      "Ġ651": 4407,
      "3369": 4408,
      "scre": 4409,
      "664500": 4410,
      "3207": 4411,
      "9148": 4412,
      "cket": 4413,
      "1212": 4414,
      "Ġ722": 4415,
      "Ġ784": 4416,
      "Ġ658": 4417,
      "Ġ593": 4418,
      "Ġ595": 4419,
      "1179": 4420,
      "3813": 4421,
      "eeee": 4422,
      "BDA": 4423,
      "glasses": 4424,
      "ogle": 4425,
      "work": 4426,
      "Ġ\"/><": 4427,
      "pad": 4428,
      "Ġ675": 4429,
      "Ġ680": 4430,
      "Ġ694": 4431,
      "1065": 4432,
      "1178": 4433,
      "1468": 4434,
      "CCB": 4435,
      "1803": 4436,
      "EEEE": 4437,
      "directory": 4438,
      "sidebar": 4439,
      "DFF": 4440,
      "ake": 4441,
      "1259": 4442,
      "Ġ763": 4443,
      "Ġ790": 4444,
      "1049": 4445,
      "1053": 4446,
      "1159": 4447,
      "29227": 4448,
      "cif": 4449,
      "ous": 4450,
      "external": 4451,
      "Business": 4452,
      "FAA": 4453,
      "FAFAF": 4454,
      "br": 4455,
      "efef": 4456,
      "Ġ714": 4457,
      "Ġ794": 4458,
      "Ġ686": 4459,
      "1041": 4460,
      "1059": 4461,
      "1165": 4462,
      "ral": 4463,
      "arge": 4464,
      "BDBD": 4465,
      "BCBC": 4466,
      "EFBC": 4467,
      "EFEAE": 4468,
      "262626": 4469,
      "way": 4470,
      "favorite": 4471,
      "1109": 4472,
      "dDe": 4473,
      "microphone": 4474,
      "ule": 4475,
      "Ġ754": 4476,
      "1047": 4477,
      "Ġ594": 4478,
      "1176": 4479,
      "1499": 4480,
      "specif": 4481,
      "FFFAFA": 4482,
      "018273": 4483,
      "viation": 4484,
      "202020": 4485,
      "opened": 4486,
      "edebdc": 4487,
      "685683": 4488,
      "ĠstdDe": 4489,
      "644638": 4490,
      "ĠstdDeviation": 4491,
      "2196": 4492,
      "4335": 4493,
      "Cur": 4494,
      "FO": 4495,
      "Video": 4496,
      "ith": 4497,
      "water": 4498,
      "inner": 4499,
      "Ġ808": 4500,
      "1291": 4501,
      "Ġ711": 4502,
      "Ġ752": 4503,
      "1465": 4504,
      "5609": 4505,
      "4736": 4506,
      "lope": 4507,
      "5128": 4508,
      "Base": 4509,
      "ots": 4510,
      "tre": 4511,
      "ino": 4512,
      "Ġ958": 4513,
      "Ġ643": 4514,
      "1090": 4515,
      "Ġ1792": 4516,
      "1643": 4517,
      "2324": 4518,
      "2853": 4519,
      "3418": 4520,
      "3457": 4521,
      "present": 4522,
      "male": 4523,
      "94747": 4524,
      "database": 4525,
      "Forward": 4526,
      "midpoints": 4527,
      "rophy": 4528,
      "specification": 4529,
      "nk": 4530,
      "sup": 4531,
      "1255": 4532,
      "Ġ719": 4533,
      "Ġ724": 4534,
      "Ġ740": 4535,
      "Ġ687": 4536,
      "1339": 4537,
      "1635": 4538,
      "1884": 4539,
      "4400": 4540,
      "4761": 4541,
      "Ġ703": 4542,
      "00214": 4543,
      "31373": 4544,
      "7669": 4545,
      "aaaa": 4546,
      "Ġspacingx": 4547,
      "Ġspacingy": 4548,
      "5481": 4549,
      "Ru": 4550,
      "dol": 4551,
      "1298": 4552,
      "1042": 4553,
      "2021": 4554,
      "Ġ605": 4555,
      "43535": 4556,
      "Media": 4557,
      "computer": 4558,
      "1102": 4559,
      "Sound": 4560,
      "ĠD": 4561,
      "stick": 4562,
      "0058": 4563,
      "Ġ709": 4564,
      "Ġ685": 4565,
      "1058": 4566,
      "1367": 4567,
      "nda": 4568,
      "5725": 4569,
      "1006": 4570,
      "0625": 4571,
      "ftien": 4572,
      "vijftien": 4573,
      "door": 4574,
      "appy": 4575,
      "888888": 4576,
      "wallet": 4577,
      "569080": 4578,
      "Card": 4579,
      "vatar": 4580,
      "ãģ": 4581,
      "Ġ1023": 4582,
      "Ġ757": 4583,
      "Ġ635": 4584,
      "Ġ660": 4585,
      "1169": 4586,
      "2334": 4587,
      "5656": 4588,
      "5685": 4589,
      "desk": 4590,
      "5879": 4591,
      "system": 4592,
      "steps": 4593,
      "food": 4594,
      "hel": 4595,
      "ust": 4596,
      "ula": 4597,
      "ĉĠĠĠ": 4598,
      "paths": 4599,
      "Ġ730": 4600,
      "Ġ615": 4601,
      "Ġ679": 4602,
      "Ġ681": 4603,
      "1038": 4604,
      "1638": 4605,
      "ert": 4606,
      "3368": 4607,
      "5845": 4608,
      "5215": 4609,
      "cbe": 4610,
      "0001": 4611,
      "paste": 4612,
      "Ġ707": 4613,
      "1419": 4614,
      "pack": 4615,
      "3976": 4616,
      "message": 4617,
      "1125": 4618,
      "ico": 4619,
      "3009": 4620,
      "feMer": 4621,
      "zevenentwintig": 4622,
      "pattern": 4623,
      "feMerge": 4624,
      "OD": 4625,
      "Rel": 4626,
      "gamb": 4627,
      "happy": 4628,
      "rian": 4629,
      "tic": 4630,
      "Ġ917": 4631,
      "Ġ634": 4632,
      "Ġ691": 4633,
      "1333": 4634,
      "orage": 4635,
      "3374": 4636,
      "6639": 4637,
      "663333": 4638,
      "6085": 4639,
      "security": 4640,
      "9332": 4641,
      "Reload": 4642,
      "riangle": 4643,
      "5136": 4644,
      "FEC": 4645,
      "fcc": 4646,
      "loud": 4647,
      "signal": 4648,
      "Ġsteps": 4649,
      "Ġ715": 4650,
      "Ġ767": 4651,
      "Ġ666": 4652,
      "1014": 4653,
      "1146": 4654,
      "14346": 4655,
      "2051": 4656,
      "Ġhel": 4657,
      "3213": 4658,
      "react": 4659,
      "velope": 4660,
      "5645": 4661,
      "lator": 4662,
      "spline": 4663,
      "FOOD": 4664,
      "Ġhelper": 4665,
      "5175": 4666,
      "8284": 4667,
      "sor": 4668,
      "ui": 4669,
      "Ġweight": 4670,
      "Ġ959": 4671,
      "Ġ731": 4672,
      "Ġ705": 4673,
      "Ġ706": 4674,
      "Ġ623": 4675,
      "Ġ676": 4676,
      "Ġ673": 4677,
      "1072": 4678,
      "Ġ555": 4679,
      "1174": 4680,
      "less": 4681,
      "58595": 4682,
      "1005": 4683,
      "Ġ607": 4684,
      "rib": 4685,
      "tool": 4686,
      "300604": 4687,
      "cas": 4688,
      "DEC": 4689,
      "FEFEFE": 4690,
      "Clock": 4691,
      "Up": 4692,
      "bspline": 4693,
      "fb": 4694,
      "uro": 4695,
      "Ġ824": 4696,
      "Ġ742": 4697,
      "Ġ791": 4698,
      "Ġ657": 4699,
      "5527": 4700,
      "6691": 4701,
      "594640": 4702,
      "CEC": 4703,
      "cccccc": 4704,
      "Ġonly": 4705,
      "vue": 4706,
      "1289": 4707,
      "Ġ766": 4708,
      "Ġ678": 4709,
      "1168": 4710,
      "1175": 4711,
      "ital": 4712,
      "5213": 4713,
      "Ġ606": 4714,
      "1206": 4715,
      "2239": 4716,
      "Strike": 4717,
      "ogo": 4718,
      "Recor": 4719,
      "gambling": 4720,
      "4297": 4721,
      "ial": 4722,
      "Ġ805": 4723,
      "Ġ655": 4724,
      "Ġ674": 4725,
      "1377": 4726,
      "\">.": 4727,
      "20293": 4728,
      "2220": 4729,
      "5765": 4730,
      "FFBC": 4731,
      "colored": 4732,
      "tach": 4733,
      "Expand": 4734,
      "casino": 4735,
      "3226": 4736,
      "4391": 4737,
      "åľ": 4738,
      "pause": 4739,
      "Ġ739": 4740,
      "Ġ644": 4741,
      "Ġ649": 4742,
      "Ġ689": 4743,
      "1321": 4744,
      "9995": 4745,
      "ntu": 4746,
      "99975": 4747,
      "laptop": 4748,
      "0408": 4749,
      "5133": 4750,
      "5497": 4751,
      "Play": 4752,
      "hr": 4753,
      "=\"-.": 4754,
      "Ġ816": 4755,
      "Ġ831": 4756,
      "Ġ884": 4757,
      "Ġ726": 4758,
      "Ġ793": 4759,
      "Ġ652": 4760,
      "1792": 4761,
      "iginy": 4762,
      "2525": 4763,
      "vel": 4764,
      "5888": 4765,
      "1007": 4766,
      "1209": 4767,
      "Ġ008": 4768,
      "hairGroup": 4769,
      "ript": 4770,
      "131313": 4771,
      "Ġoriginy": 4772,
      "Ġoriginx": 4773,
      "screen": 4774,
      "dollar": 4775,
      "dbb": 4776,
      "0003": 4777,
      "1296": 4778,
      "Ġ782": 4779,
      "Ġ631": 4780,
      "Ġ641": 4781,
      "Ġ690": 4782,
      "1063": 4783,
      "5217": 4784,
      "ship": 4785,
      "AAAB": 4786,
      "937237": 4787,
      "connection": 4788,
      "lery": 4789,
      "rtl": 4790,
      "6715729": 4791,
      "dra": 4792,
      "Ġdots": 4793,
      "Ġ639": 4794,
      "Ġ663": 4795,
      "Ġ684": 4796,
      "1135": 4797,
      "1970": 4798,
      "2002": 4799,
      "78909": 4800,
      "mometer": 4801,
      "333336": 4802,
      "0911": 4803,
      "log": 4804,
      "Communication": 4805,
      "website": 4806,
      "mouse": 4807,
      "Cor": 4808,
      "Music": 4809,
      "fire": 4810,
      "çŁ": 4811,
      "ĠW": 4812,
      "inbox": 4813,
      "1161": 4814,
      "1416": 4815,
      "1735": 4816,
      "1996": 4817,
      "2559": 4818,
      "ssss": 4819,
      "2896": 4820,
      "4547": 4821,
      "5846": 4822,
      "nentwintig": 4823,
      "eenentwintig": 4824,
      "speaker": 4825,
      "shred": 4826,
      "ĉĉĉĊ": 4827,
      "flash": 4828,
      "umb": 4829,
      "FCEFF": 4830,
      "6379": 4831,
      "io": 4832,
      "0009": 4833,
      "Ġ893": 4834,
      "Ġ744": 4835,
      "1040": 4836,
      "online": 4837,
      "1497": 4838,
      "1579": 4839,
      "1976": 4840,
      "2040": 4841,
      "3498": 4842,
      "5881": 4843,
      "1281": 4844,
      "1126": 4845,
      "004364": 4846,
      "60012": 4847,
      "8593": 4848,
      "DADEC": 4849,
      "Background": 4850,
      "shredder": 4851,
      "4207": 4852,
      "7487": 4853,
      "Ble": 4854,
      "DBA": 4855,
      "ms": 4856,
      "sort": 4857,
      "Ġ[": 4858,
      "stien": 4859,
      "Ġ749": 4860,
      "Ġ788": 4861,
      "Ġ613": 4862,
      "1044": 4863,
      "1082": 4864,
      "10156": 4865,
      "1569": 4866,
      "1975": 4867,
      "2893": 4868,
      "57143": 4869,
      "5811": 4870,
      "5848": 4871,
      "Ġmirror": 4872,
      "zestien": 4873,
      "04009": 4874,
      "cfcf": 4875,
      "cloudy": 4876,
      "Ubu": 4877,
      "dpi": 4878,
      "Ġ829": 4879,
      "Ġ838": 4880,
      "Ġ850": 4881,
      "Ġ733": 4882,
      "Ġ743": 4883,
      "Ġ762": 4884,
      "1141": 4885,
      "1359": 4886,
      "1645": 4887,
      "1761": 4888,
      "2246": 4889,
      "2577": 4890,
      "3857": 4891,
      "5770": 4892,
      "5801": 4893,
      "pee": 4894,
      "ntine": 4895,
      "ĠShape": 4896,
      "dio": 4897,
      "disc": 4898,
      "snow": 4899,
      "Ubuntu": 4900,
      "4209": 4901,
      "5166": 4902,
      "DFFB": 4903,
      "Pri": 4904,
      "ging": 4905,
      "0007": 4906,
      "Ġ783": 4907,
      "Ġ671": 4908,
      "1612": 4909,
      "1537": 4910,
      "28103": 4911,
      "attach": 4912,
      "5605": 4913,
      "ract": 4914,
      "Ġ803": 4915,
      "ĠĠĠĠĠĠĠĠĠĠĠĠĠĠĠĠĠ": 4916,
      "tract": 4917,
      "BFF": 4918,
      "©å½¢": 4919,
      "rono": 4920,
      "Ġ013": 4921,
      "Ġ903": 4922,
      "Ġ812": 4923,
      "Ġ867": 4924,
      "Ġ738": 4925,
      "Ġ748": 4926,
      "Ġ667": 4927,
      "1036": 4928,
      "Ġ551": 4929,
      "1318": 4930,
      "1457": 4931,
      "1659": 4932,
      "1926": 4933,
      "2057": 4934,
      "2376": 4935,
      "3400": 4936,
      "5841": 4937,
      "5214": 4938,
      "1283": 4939,
      "BFA": 4940,
      "FDCB": 4941,
      "çŁ©å½¢": 4942,
      "4281": 4943,
      "Shadow": 4944,
      "Ġ836": 4945,
      "Ġ848": 4946,
      "Ġ871": 4947,
      "Ġ745": 4948,
      "Ġ642": 4949,
      "Ġ669": 4950,
      "1614": 4951,
      "2897": 4952,
      "3906": 4953,
      "4762": 4954,
      "ded": 4955,
      "5771": 4956,
      "5885": 4957,
      "6041": 4958,
      "04337": 4959,
      "3007": 4960,
      "36537": 4961,
      "BDC": 4962,
      "usb": 4963,
      "574137": 4964,
      "envelope": 4965,
      "profile": 4966,
      "_-_": 4967,
      "ears": 4968,
      "555555": 4969,
      "Editor": 4970,
      "Sub": 4971,
      "sad": 4972,
      "1263": 4973,
      "Ġ751": 4974,
      "Ġ636": 4975,
      "Ġ668": 4976,
      "1199": 4977,
      "1641": 4978,
      "5722": 4979,
      "5839": 4980,
      "7770": 4981,
      "ched": 4982,
      "EDC": 4983,
      "alentine": 4984,
      "Android": 4985,
      "EBEBDA": 4986,
      "actions": 4987,
      "4359": 4988,
      "5479": 4989,
      "Spe": 4990,
      "sur": 4991,
      "0078": 4992,
      "Ġ839": 4993,
      "Ġ806": 4994,
      "1235": 4995,
      "Ġ662": 4996,
      "1357": 4997,
      "2017": 4998,
      "3366": 4999,
      "5571": 5000,
      "5890": 5001,
      "test": 5002,
      "Ġmode": 5003,
      "larm": 5004,
      "feBle": 5005,
      "eaeaea": 5006,
      "ronometer": 5007,
      "feBlend": 5008,
      "4365": 5009,
      "JS": 5010,
      "bcf": 5011,
      "fbb": 5012,
      "gold": 5013,
      "pt": 5014,
      "Ġ844": 5015,
      "Ġ888": 5016,
      "Ġ765": 5017,
      "1335": 5018,
      "1399": 5019,
      "1363": 5020,
      "1734": 5021,
      "2980": 5022,
      "4443": 5023,
      "4609": 5024,
      "nav": 5025,
      "5880": 5026,
      "1284": 5027,
      "allery": 5028,
      "1004": 5029,
      "1207": 5030,
      "sho": 5031,
      "Stop": 5032,
      "Film": 5033,
      "ubble": 5034,
      "medal": 5035,
      "Chat": 5036,
      "6328": 5037,
      "Circle": 5038,
      "Inter": 5039,
      "Pr": 5040,
      "View": 5041,
      "dbe": 5042,
      "mod": 5043,
      "Ġisolate": 5044,
      "Ġ916": 5045,
      "Ġ992": 5046,
      "Ġ877": 5047,
      "Ġ862": 5048,
      "Ġ755": 5049,
      "1074": 5050,
      "1117": 5051,
      "igation": 5052,
      "3030": 5053,
      "5886": 5054,
      "6096": 5055,
      "6081": 5056,
      "6839": 5057,
      "DDBD": 5058,
      "00977": 5059,
      "thermometer": 5060,
      "nos": 5061,
      "Fix": 5062,
      "showpageshadow": 5063,
      "5172": 5064,
      "ass": 5065,
      "pay": 5066,
      "Ġ815": 5067,
      "Ġ713": 5068,
      "1110": 5069,
      "1158": 5070,
      "1151": 5071,
      "1611": 5072,
      "1715": 5073,
      "lined": 5074,
      "5799": 5075,
      "als": 5076,
      "icnos": 5077,
      "feOffset": 5078,
      "rowser": 5079,
      "cursor": 5080,
      "ImageFix": 5081,
      "70534": 5082,
      "drink": 5083,
      "shunter": 5084,
      "casinoshunter": 5085,
      "BackgroundImageFix": 5086,
      "5137": 5087,
      "Id": 5088,
      "storage": 5089,
      "Ġ014": 5090,
      "Ġ776": 5091,
      "1067": 5092,
      "10449": 5093,
      "1156": 5094,
      "1456": 5095,
      "3399": 5096,
      "36781": 5097,
      "3817": 5098,
      "FFEC": 5099,
      "6045": 5100,
      "alth": 5101,
      "credit": 5102,
      "que": 5103,
      "2158": 5104,
      "4279": 5105,
      "9800": 5106,
      "Close": 5107,
      "0067": 5108,
      "Ġ944": 5109,
      "Ġ759": 5110,
      "1054": 5111,
      "1157": 5112,
      "1529": 5113,
      "rece": 5114,
      "5728": 5115,
      "sentwintig": 5116,
      "1287": 5117,
      "zesentwintig": 5118,
      "1201": 5119,
      "ures": 5120,
      "pencil": 5121,
      "ottle": 5122,
      "Head": 5123,
      "Camera": 5124,
      "090": 5125,
      "1107": 5126,
      "2207": 5127,
      "6125": 5128,
      "EFFA": 5129,
      "FAF": 5130,
      "gg": 5131,
      "sis": 5132,
      "weather": 5133,
      "1293": 5134,
      "Ġ778": 5135,
      "Ġ761": 5136,
      "Ġ771": 5137,
      "Ġ795": 5138,
      "Ġ683": 5139,
      "14286": 5140,
      "2368": 5141,
      "recor": 5142,
      "3838": 5143,
      "4759": 5144,
      "8899": 5145,
      "corner": 5146,
      "keyboard": 5147,
      "Multimedia": 5148,
      "ertif": 5149,
      "EFF": 5150,
      "Net": 5151,
      "more": 5152,
      "Ġ830": 5153,
      "Ġ842": 5154,
      "Ġ770": 5155,
      "Ġ787": 5156,
      "1064": 5157,
      "1086": 5158,
      "1332": 5159,
      "1493": 5160,
      "1519": 5161,
      "2761": 5162,
      "2895": 5163,
      "aptop": 5164,
      "6039": 5165,
      "chair": 5166,
      "ality": 5167,
      "icate": 5168,
      "11914": 5169,
      "CCFF": 5170,
      "Ġbrush": 5171,
      "EFD": 5172,
      "dropShadow": 5173,
      "ertificate": 5174,
      "9784": 5175,
      "Mail": 5176,
      "RT": 5177,
      "business": 5178,
      "}</": 5179,
      "0004": 5180,
      "1237": 5181,
      "Ġ798": 5182,
      "1032": 5183,
      "1155": 5184,
      "1538": 5185,
      "2608": 5186,
      "ren": 5187,
      "next": 5188,
      "later": 5189,
      "scope": 5190,
      "ices": 5191,
      "Ġ804": 5192,
      "04336": 5193,
      "vision": 5194,
      "pagechec": 5195,
      "kerboard": 5196,
      "Device": 5197,
      "Symbol": 5198,
      "pagecheckerboard": 5199,
      ">/": 5200,
      "dba": 5201,
      "tal": 5202,
      "par": 5203,
      "Ġ1029": 5204,
      "Ġ814": 5205,
      "Ġ875": 5206,
      "1299": 5207,
      "Ġ764": 5208,
      "Ġ753": 5209,
      "1649": 5210,
      "1769": 5211,
      "2050": 5212,
      "3017": 5213,
      "4219": 5214,
      "meda": 5215,
      "5766": 5216,
      "ffa": 5217,
      "script": 5218,
      "eee": 5219,
      "2168": 5220,
      "mentals": 5221,
      "funda": 5222,
      "verse": 5223,
      "multimeda": 5224,
      "globe": 5225,
      "Building": 5226,
      "454749": 5227,
      "peepers": 5228,
      "fundamentals": 5229,
      "0459": 5230,
      "1108": 5231,
      "4248": 5232,
      "7129": 5233,
      "bin": 5234,
      "fbc": 5235,
      "ich": 5236,
      "power": 5237,
      "Ġ833": 5238,
      "1100": 5239,
      "1196": 5240,
      "1455": 5241,
      "1561": 5242,
      "1930": 5243,
      "2056": 5244,
      "2068": 5245,
      "2881": 5246,
      "3417": 5247,
      "4537": 5248,
      "4790": 5249,
      "Iconly": 5250,
      "day": 5251,
      "fefe": 5252,
      "utral": 5253,
      "currentcolor": 5254,
      "Home": 5255,
      "Curved": 5256,
      "4291": 5257,
      "5135": 5258,
      ":'": 5259,
      "ACA": 5260,
      "Alt": 5261,
      "Li": 5262,
      "Your": 5263,
      "bubble": 5264,
      "sim": 5265,
      "triangle": 5266,
      "stic": 5267,
      "thunder": 5268,
      "0049": 5269,
      "Ġ018": 5270,
      "1226": 5271,
      "1191": 5272,
      "2363": 5273,
      "2959": 5274,
      "3325": 5275,
      "4487": 5276,
      "4535": 5277,
      "tent": 5278,
      "ffbd": 5279,
      "7767": 5280,
      "7761": 5281,
      "EDFF": 5282,
      "ECF": 5283,
      "apps": 5284,
      "Laptop": 5285,
      "ay": 5286,
      "cra": 5287,
      "lla": 5288,
      "Ġ817": 5289,
      "Ġ895": 5290,
      "Ġ777": 5291,
      "1020": 5292,
      "1046": 5293,
      "1153": 5294,
      "1577": 5295,
      "17142857": 5296,
      "2052": 5297,
      "2279": 5298,
      "3819": 5299,
      "4097": 5300,
      "5688": 5301,
      "5957": 5302,
      "6049": 5303,
      "6984": 5304,
      "neck": 5305,
      "neutral": 5306,
      "eel": 5307,
      "ĠSlater": 5308,
      "3447": 5309,
      "ĠAr": 5310,
      "expand": 5311,
      "ĠRich": 5312,
      "ĠRichard": 5313,
      "5359": 5314,
      "Che": 5315,
      "Tele": 5316,
      "jo": 5317,
      "wo": 5318,
      "ye": 5319,
      "zz": 5320,
      "}.": 5321,
      "Ġ813": 5322,
      "Ġ659": 5323,
      "1144": 5324,
      "1609": 5325,
      "1523": 5326,
      "2059": 5327,
      "3845": 5328,
      "5525": 5329,
      "ruler": 5330,
      "FFBF": 5331,
      "6878": 5332,
      "2565": 5333,
      "backward": 5334,
      "3201": 5335,
      "pot": 5336,
      "42312": 5337,
      "FFEB": 5338,
      "building": 5339,
      "ĠfilterUnits": 5340,
      "3164": 5341,
      "4292": 5342,
      "4363": 5343,
      "5286": 5344,
      "OS": 5345,
      "alarm": 5346,
      "email": 5347,
      "stru": 5348,
      "Ġ827": 5349,
      "Ġ870": 5350,
      "Ġ880": 5351,
      "Ġdy": 5352,
      "1073": 5353,
      "1145": 5354,
      "1369": 5355,
      "1521": 5356,
      "1567": 5357,
      "1737": 5358,
      "ssor": 5359,
      "naly": 5360,
      "6716": 5361,
      "PathUnits": 5362,
      "prise": 5363,
      "ĠclipPathUnits": 5364,
      "11428572": 5365,
      "compass": 5366,
      "tock": 5367,
      "15067": 5368,
      "DFB": 5369,
      "SourceAlpha": 5370,
      "bulk": 5371,
      "Ruler": 5372,
      "chedule": 5373,
      "5177": 5374,
      "Avatar": 5375,
      "Stock": 5376,
      "vo": 5377,
      "ĠLimit": 5378,
      "Ġ869": 5379,
      "1324": 5380,
      "1696": 5381,
      "2344": 5382,
      "2417": 5383,
      "4677": 5384,
      "4719": 5385,
      "5521": 5386,
      "5805": 5387,
      "5216": 5388,
      "6729": 5389,
      "7816": 5390,
      "434854": 5391,
      "ĠAmid": 5392,
      "5569": 5393,
      "BAD": 5394,
      "CDCCD": 5395,
      "111111": 5396,
      "141414": 5397,
      "aterial": 5398,
      "brella": 5399,
      "FAFAFB": 5400,
      "ĠLimited": 5401,
      "ĠAmido": 5402,
      "4377": 5403,
      "5488": 5404,
      "DAA": 5405,
      "ring": 5406,
      "trophy": 5407,
      "ĠĊ": 5408,
      "Ġ825": 5409,
      "1285": 5410,
      "Ġ741": 5411,
      "1148": 5412,
      "1149": 5413,
      "1379": 5414,
      "1440": 5415,
      "1479": 5416,
      "1709": 5417,
      "1977": 5418,
      "2405": 5419,
      "3439": 5420,
      "3843": 5421,
      "6024": 5422,
      "541018": 5423,
      "7935": 5424,
      "631578": 5425,
      "ada": 5426,
      "daa": 5427,
      "27022": 5428,
      "54596": 5429,
      "sliced": 5430,
      "5186": 5431,
      "EBF": 5432,
      "Emp": 5433,
      "gram": 5434,
      "sound": 5435,
      "tape": 5436,
      "Ġ822": 5437,
      "Ġ837": 5438,
      "Ġ857": 5439,
      "1229": 5440,
      "Ġ799": 5441,
      "1154": 5442,
      "1481": 5443,
      "1765": 5444,
      "2374": 5445,
      "2295": 5446,
      "29289": 5447,
      "3688": 5448,
      "4403": 5449,
      "6088": 5450,
      "8077": 5451,
      "3441": 5452,
      "FAD": 5453,
      "Interface": 5454,
      "63157894": 5455,
      "4337": 5456,
      "9803": 5457,
      "Microphone": 5458,
      "hard": 5459,
      "vices": 5460,
      "ster": 5461,
      "store": 5462,
      "0099": 5463,
      "Ġ920": 5464,
      "Ġ818": 5465,
      "1294": 5466,
      "Ġ758": 5467,
      "Ġ775": 5468,
      "1030": 5469,
      "1325": 5470,
      "1539": 5471,
      "1700": 5472,
      "2375": 5473,
      "25781": 5474,
      "3334": 5475,
      "3855": 5476,
      "3887": 5477,
      "3801": 5478,
      "4801": 5479,
      "4214": 5480,
      "7818": 5481,
      "1605": 5482,
      "ultip": 5483,
      "Graphic": 5484,
      "Trash": 5485,
      "dout": 5486,
      "done": 5487,
      "0088": 5488,
      "Ġ015": 5489,
      "Ġ908": 5490,
      "Ġ823": 5491,
      "Ġ855": 5492,
      "Ġ863": 5493,
      "1224": 5494,
      "1249": 5495,
      "Ġ756": 5496,
      "Ġ692": 5497,
      "1026": 5498,
      "1563": 5499,
      "3839": 5500,
      "3805": 5501,
      "4607": 5502,
      "rame": 5503,
      "ody": 5504,
      "ffded": 5505,
      "6055": 5506,
      "ipe": 5507,
      "formance": 5508,
      "6933": 5509,
      "Pause": 5510,
      "5127": 5511,
      "Ġ0016": 5512,
      "3005": 5513,
      "elete": 5514,
      "alendar": 5515,
      "78947": 5516,
      "achtien": 5517,
      "Pencil": 5518,
      "headset": 5519,
      "353535": 5520,
      "lond": 5521,
      "0308": 5522,
      "0392": 5523,
      "1106": 5524,
      "5134": 5525,
      "Cont": 5526,
      "Ro": 5527,
      "dark": 5528,
      "nc": 5529,
      "Ġ1030": 5530,
      "Ġ834": 5531,
      "Ġ802": 5532,
      "1272": 5533,
      "1439": 5534,
      "1966": 5535,
      "1972": 5536,
      "20686": 5537,
      "203529": 5538,
      "leaf": 5539,
      "3335": 5540,
      "4213": 5541,
      "5726": 5542,
      "9645": 5543,
      "0636": 5544,
      "save": 5545,
      "6575": 5546,
      "performance": 5547,
      "SourceGraphic": 5548,
      "culator": 5549,
      "Empty": 5550,
      "ECC": 5551,
      "EDD": 5552,
      "EAF": 5553,
      "Ġ1019": 5554,
      "Ġ811": 5555,
      "Ġ826": 5556,
      "Ġ876": 5557,
      "1485": 5558,
      "1483": 5559,
      "1651": 5560,
      "1763": 5561,
      "2283": 5562,
      "ief": 5563,
      "2561": 5564,
      "4885": 5565,
      "4807": 5566,
      "4082": 5567,
      "4925": 5568,
      "5499": 5569,
      "9724": 5570,
      "454140": 5571,
      "disk": 5572,
      "arget": 5573,
      "Viewer": 5574,
      "doutone": 5575,
      "2118": 5576,
      "6128": 5577,
      "EN": 5578,
      "Er": 5579,
      "FBD": 5580,
      "SC": 5581,
      "ace": 5582,
      "high": 5583,
      "house": 5584,
      "of": 5585,
      "Ġ2253": 5586,
      "Ġ954": 5587,
      "Ġ843": 5588,
      "Ġ894": 5589,
      "1231": 5590,
      "1077": 5591,
      "1130": 5592,
      "1372": 5593,
      "1489": 5594,
      "1407": 5595,
      "1401": 5596,
      "1599": 5597,
      "1768": 5598,
      "1767": 5599,
      "2588": 5600,
      "2639": 5601,
      "2645": 5602,
      "3419": 5603,
      "4626": 5604,
      "4723": 5605,
      "5519": 5606,
      "5737": 5607,
      "583529": 5608,
      "6977": 5609,
      "bank": 5610,
      "1127": 5611,
      "aret": 5612,
      "41421": 5613,
      "5565": 5614,
      "FCB": 5615,
      "SVGViewer": 5616,
      "FAE": 5617,
      "78753": 5618,
      "AdobeSVGViewer": 5619,
      "Extensions": 5620,
      "navigation": 5621,
      "zzle": 5622,
      "AdobeSVGViewerExtensions": 5623,
      "Player": 5624,
      "ngu": 5625,
      "00195": 5626,
      "1221": 5627,
      "1290": 5628,
      "Ġ774": 5629,
      "1160": 5630,
      "1527": 5631,
      "1559": 5632,
      "1807": 5633,
      "2217": 5634,
      "2416": 5635,
      "3803": 5636,
      "4841": 5637,
      "6799": 5638,
      "change": 5639,
      "post": 5640,
      "miss": 5641,
      "unlock": 5642,
      "earth": 5643,
      "notebook": 5644,
      "attachment": 5645,
      "moder": 5646,
      "3173": 5647,
      "5246": 5648,
      "5506": 5649,
      "bottle": 5650,
      "1264": 5651,
      "1033": 5652,
      "1162": 5653,
      "11328": 5654,
      "1327": 5655,
      "1679": 5656,
      "2329": 5657,
      "2927": 5658,
      "3639": 5659,
      "4579": 5660,
      "5661": 5661,
      "5859": 5662,
      "FFDF": 5663,
      "8946": 5664,
      "8525": 5665,
      "printer": 5666,
      "ness": 5667,
      "truck": 5668,
      "place": 5669,
      "utton": 5670,
      "fdda": 5671,
      "estion": 5672,
      "Setting": 5673,
      "Outlined": 5674,
      "colum": 5675,
      "132028": 5676,
      "CDEF": 5677,
      "Print": 5678,
      "0166": 5679,
      "6359": 5680,
      "7333": 5681,
      "Bluetooth": 5682,
      "ala": 5683,
      "cup": 5684,
      "half": 5685,
      "sci": 5686,
      "ĸå±": 5687,
      "0044": 5688,
      "Ġ1035": 5689,
      "Ġ809": 5690,
      "Ġ786": 5691,
      "1061": 5692,
      "1400": 5693,
      "1681": 5694,
      "2281": 5695,
      "3516": 5696,
      "3789": 5697,
      "4883": 5698,
      "4727": 5699,
      "5518": 5700,
      "access": 5701,
      "point": 5702,
      "åľĸå±": 5703,
      "Subtract": 5704,
      "åľĸå±¤": 5705,
      "2181": 5706,
      "5245": 5707,
      "5373": 5708,
      "5371": 5709,
      "8271": 5710,
      "AFF": 5711,
      "hone": 5712,
      "road": 5713,
      "thumb": 5714,
      "Ġ1010": 5715,
      "1060": 5716,
      "1075": 5717,
      "1163": 5718,
      "1350": 5719,
      "1432": 5720,
      "1441": 5721,
      "1799": 5722,
      "1817": 5723,
      "Ġcopy": 5724,
      "2330": 5725,
      "2369": 5726,
      "2247": 5727,
      "3412": 5728,
      "4079": 5729,
      "4541": 5730,
      "4561": 5731,
      "desktop": 5732,
      "arm": 5733,
      "5762": 5734,
      "4321": 5735,
      "6738": 5736,
      "ount": 5737,
      "15869": 5738,
      "crease": 5739,
      "7688": 5740,
      "FDCD": 5741,
      "EDEDED": 5742,
      "ECECEC": 5743,
      "simple": 5744,
      "SCI": 5745,
      "%\"/>": 5746,
      "4241": 5747,
      "6129": 5748,
      "6371": 5749,
      "Delete": 5750,
      "Flash": 5751,
      "Wor": 5752,
      "pon": 5753,
      "ug": 5754,
      "0015": 5755,
      "0008": 5756,
      "Ġ900": 5757,
      "Ġ952": 5758,
      "Ġ849": 5759,
      "1164": 5760,
      "1358": 5761,
      "1417": 5762,
      "1683": 5763,
      "1572": 5764,
      "1819": 5765,
      "1855": 5766,
      "23298": 5767,
      "2832": 5768,
      "3799": 5769,
      "4811": 5770,
      "4848": 5771,
      "4081": 5772,
      "4599": 5773,
      "5699": 5774,
      "5936": 5775,
      "6079": 5776,
      "7779": 5777,
      "formation": 5778,
      "8975": 5779,
      "896024": 5780,
      "90603": 5781,
      "ife": 5782,
      "Ġ003": 5783,
      "fast": 5784,
      "91216": 5785,
      "2159": 5786,
      "cla": 5787,
      "js": 5788,
      "por": 5789,
      "xs": 5790,
      "0074": 5791,
      "Ġ957": 5792,
      "Ġ904": 5793,
      "Ġ879": 5794,
      "1218": 5795,
      "Ġ769": 5796,
      "Ġ797": 5797,
      "1392": 5798,
      "1932": 5799,
      "2241": 5800,
      "3347": 5801,
      "report": 5802,
      "4404": 5803,
      "3401": 5804,
      "3815": 5805,
      "3765": 5806,
      "4721": 5807,
      "5010": 5808,
      "5039": 5809,
      "5072": 5810,
      "5210": 5811,
      "6543": 5812,
      "13916": 5813,
      "14063": 5814,
      "3205": 5815,
      "umbrella": 5816,
      "bug": 5817,
      "040505": 5818,
      "ENCE": 5819,
      "Error": 5820,
      "SCIENCE": 5821,
      "4206": 5822,
      "9244": 5823,
      "Weather": 5824,
      "_)\"": 5825,
      "bg": 5826,
      "bit": 5827,
      "fer": 5828,
      "iOS": 5829,
      "Ġ919": 5830,
      "Ġ951": 5831,
      "Ġ887": 5832,
      "1328": 5833,
      "1498": 5834,
      "1689": 5835,
      "1759": 5836,
      "2039": 5837,
      "2365": 5838,
      "2799": 5839,
      "2759": 5840,
      "3897": 5841,
      "4536": 5842,
      "4531": 5843,
      "odm": 5844,
      "team": 5845,
      "5212": 5846,
      "ipt": 5847,
      "corel": 5848,
      "fall": 5849,
      "ĠĠĠĠĠĠĠĠĠĠ": 5850,
      "Compass": 5851,
      "Forb": 5852,
      "smartphone": 5853,
      "983543": 5854,
      "fccd": 5855,
      "AltIconTitle": 5856,
      "3255": 5857,
      "4376": 5858,
      "5252": 5859,
      "Cloud": 5860,
      "Ext": 5861,
      "Eye": 5862,
      "Glyph": 5863,
      "Poin": 5864,
      "ime": 5865,
      "ĠX": 5866,
      "station": 5867,
      "0063": 5868,
      "ĠCh": 5869,
      "Ġ970": 5870,
      "Ġ905": 5871,
      "Ġ860": 5872,
      "Ġ868": 5873,
      "1223": 5874,
      "1031": 5875,
      "1115": 5876,
      "1147": 5877,
      "1361": 5878,
      "1413": 5879,
      "1615": 5880,
      "1733": 5881,
      "1736": 5882,
      "2336": 5883,
      "2359": 5884,
      "3217": 5885,
      "3293": 5886,
      "2641": 5887,
      "3533": 5888,
      "4834": 5889,
      "4521": 5890,
      "4574": 5891,
      "4648": 5892,
      "5689": 5893,
      "4766": 5894,
      "4967": 5895,
      "5719": 5896,
      "5761": 5897,
      "6689": 5898,
      "6086": 5899,
      "7759": 5900,
      "lying": 5901,
      "2201": 5902,
      "030504": 5903,
      "55063291": 5904,
      "scissor": 5905,
      "4367": 5906,
      "5335": 5907,
      "5495": 5908,
      "7174": 5909,
      "browser": 5910,
      "fl": 5911,
      "gift": 5912,
      "jack": 5913,
      "ube": 5914,
      "vie": 5915,
      "00146": 5916,
      "Ġ1069": 5917,
      "Ġ912": 5918,
      "Ġ866": 5919,
      "Ġ807": 5920,
      "1234": 5921,
      "1373": 5922,
      "1494": 5923,
      "1562": 5924,
      "1574": 5925,
      "1721": 5926,
      "1775": 5927,
      "1928": 5928,
      "Ġ2048": 5929,
      "2251": 5930,
      "2573": 5931,
      "2583": 5932,
      "2828": 5933,
      "3613": 5934,
      "4437": 5935,
      "3925": 5936,
      "4809": 5937,
      "4737": 5938,
      "4765": 5939,
      "4932": 5940,
      "495771": 5941,
      "5539": 5942,
      "6051": 5943,
      "6858": 5944,
      "6896": 5945,
      "send": 5946,
      "7919": 5947,
      "dashboard": 5948,
      "cake": 5949,
      "google": 5950,
      "3174": 5951,
      "3171": 5952,
      "4299": 5953,
      "City": 5954,
      "Tag": 5955,
      "caret": 5956,
      "dri": 5957,
      "fig": 5958,
      "fdf": 5959,
      "ium": 5960,
      "target": 5961,
      "0011": 5962,
      "Ġ781": 5963,
      "1484": 5964,
      "1486": 5965,
      "1648": 5966,
      "1682": 5967,
      "1533": 5968,
      "1723": 5969,
      "2016": 5970,
      "2055": 5971,
      "8008": 5972,
      "2412": 5973,
      "2441": 5974,
      "2773": 5975,
      "3019": 5976,
      "3413": 5977,
      "4583": 5978,
      "4931": 5979,
      "5529": 5980,
      "5769": 5981,
      "668077": 5982,
      "7959": 5983,
      "office": 5984,
      "Ġby": 5985,
      "ammer": 5986,
      "08838": 5987,
      "ithub": 5988,
      "draw": 5989,
      "';": 5990,
      "3257": 5991,
      "5333": 5992,
      "5493": 5993,
      "6377": 5994,
      "Material": 5995,
      "Take": 5996,
      "award": 5997,
      "mute": 5998,
      "uzzle": 5999,
      "0012": 6000,
      "0084": 6001,
      "Ġ911": 6002,
      "Ġ984": 6003,
      "Ġ821": 6004,
      "Ġ835": 6005,
      "Ġ851": 6006,
      "Ġ865": 6007,
      "Ġ779": 6008,
      "Ġ773": 6009,
      "1448": 6010,
      "1445": 6011,
      "14287": 6012,
      "1553": 6013,
      "ingBox": 6014,
      "2046": 6015,
      "2378": 6016,
      "2371": 6017,
      "2407": 6018,
      "3452": 6019,
      "3841": 6020,
      "4767": 6021,
      "arging": 6022,
      "1202": 6023,
      "11816": 6024,
      "3209": 6025,
      "bec": 6026,
      "safe": 6027,
      "question": 6028,
      "ĠĠĠĠĠĠĠĠĠĠĠĠĠĠĠĠĠĠĠĠĠ": 6029,
      "number": 6030,
      "objectBound": 6031,
      "575757": 6032,
      "brief": 6033,
      "Corel": 6034,
      "rency": 6035,
      "objectBoundingBox": 6036,
      "0455": 6037,
      "5132": 6038,
      "Fail": 6039,
      "Height": 6040,
      "Hambur": 6041,
      "Nature": 6042,
      "cee": 6043,
      "dle": 6044,
      "hot": 6045,
      "smil": 6046,
      "tree": 6047,
      "Ġ1016": 6048,
      "Ġ918": 6049,
      "Ġ881": 6050,
      "1076": 6051,
      "1083": 6052,
      "1182": 6053,
      "1323": 6054,
      "1386": 6055,
      "1459": 6056,
      "1650": 6057,
      "1655": 6058,
      "1536": 6059,
      "1979": 6060,
      "1984": 6061,
      "nset": 6062,
      "2319": 6063,
      "2939": 6064,
      "3336": 6065,
      "3721": 6066,
      "4568": 6067,
      "4565": 6068,
      "4608": 6069,
      "6853": 6070,
      "6888": 6071,
      "7046": 6072,
      "Land": 6073,
      "7600": 6074,
      "3008": 6075,
      "31578947": 6076,
      "vious": 6077,
      "Speed": 6078,
      "receipt": 6079,
      "World": 6080,
      "Pointer": 6081,
      "-(": 6082,
      "4243": 6083,
      "Flying": 6084,
      "Position": 6085,
      "Width": 6086,
      "github": 6087,
      "han": 6088,
      "0047": 6089,
      "0073": 6090,
      "Ġ1080": 6091,
      "Ġ872": 6092,
      "Ġ886": 6093,
      "1233": 6094,
      "1247": 6095,
      "1069": 6096,
      "1142": 6097,
      "1189": 6098,
      "1185": 6099,
      "itu": 6100,
      "1685": 6101,
      "1697": 6102,
      "2058": 6103,
      "2461": 6104,
      "2406": 6105,
      "2539": 6106,
      "2979": 6107,
      "3018": 6108,
      "4859": 6109,
      "4853": 6110,
      "5855": 6111,
      "tem": 6112,
      "6813": 6113,
      "7017": 6114,
      "8736": 6115,
      "bac": 6116,
      "1203": 6117,
      "guer": 6118,
      "3004": 6119,
      "6562": 6120,
      "61538": 6121,
      "Compress": 6122,
      "Reverse": 6123,
      "Chronometer": 6124,
      "Record": 6125,
      "Prize": 6126,
      "voice": 6127,
      "Forbidden": 6128,
      "Extract": 6129,
      "Hamburguer": 6130,
      "0995": 6131,
      "4360": 6132,
      "5170": 6133,
      "5151": 6134,
      "8158": 6135,
      "9122": 6136,
      "Cart": 6137,
      "Node": 6138,
      "ach": 6139,
      "analy": 6140,
      "flat": 6141,
      "ib": 6142,
      "mic": 6143,
      "ote": 6144,
      "tation": 6145,
      "0071": 6146,
      "information": 6147,
      "Ġ931": 6148,
      "1034": 6149,
      "1078": 6150,
      "1311": 6151,
      "1329": 6152,
      "1415": 6153,
      "1496": 6154,
      "1658": 6155,
      "1776": 6156,
      "1968": 6157,
      "1962": 6158,
      "2404": 6159,
      "3370": 6160,
      "rench": 6161,
      "3860": 6162,
      "3921": 6163,
      "4843": 6164,
      "4895": 6165,
      "9985": 6166,
      "99327": 6167,
      "4639": 6168,
      "5613": 6169,
      "5691": 6170,
      "4785": 6171,
      "57144": 6172,
      "6617": 6173,
      "6089": 6174,
      "server": 6175,
      "7086": 6176,
      "7319": 6177,
      "oman": 6178,
      "10547": 6179,
      "1208": 6180,
      "1601": 6181,
      "DFE": 6182,
      "515570": 6183,
      "62828": 6184,
      "Health": 6185,
      "bulb": 6186,
      "global": 6187,
      "basketball": 6188,
      "clam": 6189,
      "3208": 6190,
      "3248": 6191,
      "6121": 6192,
      "7175": 6193,
      "bed": 6194,
      "blond": 6195,
      "egg": 6196,
      "wrink": 6197,
      "Ġ:": 6198,
      "00488": 6199,
      "Ġ1031": 6200,
      "Ġ950": 6201,
      "Ġ983": 6202,
      "Ġ907": 6203,
      "Ġ901": 6204,
      "Ġ785": 6205,
      "1170": 6206,
      "1326": 6207,
      "1450": 6208,
      "1458": 6209,
      "141124": 6210,
      "1566": 6211,
      "1581": 6212,
      "1924": 6213,
      "2024": 6214,
      "3376": 6215,
      "3886": 6216,
      "4533": 6217,
      "4769": 6218,
      "6053": 6219,
      "7921": 6220,
      "scroll": 6221,
      "15039": 6222,
      "bench": 6223,
      "45536": 6224,
      "5563": 6225,
      "546170": 6226,
      "7969": 6227,
      "switch": 6228,
      "windy": 6229,
      "presentation": 6230,
      "talking": 6231,
      "wrinkle": 6232,
      "3176": 6233,
      "4287": 6234,
      "4361": 6235,
      "valentine": 6236,
      "Ġstr": 6237,
      "ĵå": 6238,
      "ĠLight": 6239,
      "0034": 6240,
      "Ġ924": 6241,
      "10678": 6242,
      "1193": 6243,
      "1490": 6244,
      "1780": 6245,
      "Ġcom": 6246,
      "1958": 6247,
      "2415": 6248,
      "2451": 6249,
      "2479": 6250,
      "3211": 6251,
      "3371": 6252,
      "3931": 6253,
      "4891": 6254,
      "4519": 6255,
      "4566": 6256,
      "device": 6257,
      "4927": 6258,
      "5576": 6259,
      "6641": 6260,
      "rectangle": 6261,
      "icy": 6262,
      "2124": 6263,
      "Ġ801": 6264,
      "1304": 6265,
      "3239": 6266,
      "mond": 6267,
      "wire": 6268,
      "audio": 6269,
      "cfc": 6270,
      "EFB": 6271,
      "7881": 6272,
      "617880": 6273,
      "ĠBas": 6274,
      "ivers": 6275,
      "disable": 6276,
      "clamation": 6277,
      "1101": 6278,
      "3204": 6279,
      "3246": 6280,
      "3250": 6281,
      "5309": 6282,
      "7246": 6283,
      "9448": 6284,
      "Bus": 6285,
      "Gallery": 6286,
      "Pin": 6287,
      "bold": 6288,
      "ead": 6289,
      "fro": 6290,
      "sil": 6291,
      "rons": 6292,
      "Ġ0112": 6293,
      "Ġ937": 6294,
      "Ġ899": 6295,
      "1376": 6296,
      "1406": 6297,
      "1739": 6298,
      "1774": 6299,
      "1816": 6300,
      "1909": 6301,
      "2009": 6302,
      "2022": 6303,
      "lection": 6304,
      "2297": 6305,
      "2793": 6306,
      "2966": 6307,
      "2978": 6308,
      "2976": 6309,
      "3406": 6310,
      "3848": 6311,
      "9966": 6312,
      "9988": 6313,
      "4619": 6314,
      "4687": 6315,
      "5439": 6316,
      "6845": 6317,
      "peat": 6318,
      "7955": 6319,
      "scan": 6320,
      "36841": 6321,
      "AAAA": 6322,
      "7577": 6323,
      "eae": 6324,
      "BBB": 6325,
      "bfb": 6326,
      "7690": 6327,
      "bujo": 6328,
      "express": 6329,
      "Dibujo": 6330,
      "eeeeee": 6331,
      "feMergeNode": 6332,
      "ĠXicons": 6333,
      "ĠBasic": 6334,
      "3177": 6335,
      "3199": 6336,
      "6126": 6337,
      "7485": 6338,
      "Ball": 6339,
      "Go": 6340,
      "ending": 6341,
      "focu": 6342,
      "smo": 6343,
      "ï½": 6344,
      "Ġ1033": 6345,
      "1220": 6346,
      "1239": 6347,
      "1371": 6348,
      "1647": 6349,
      "1653": 6350,
      "1724": 6351,
      "1748": 6352,
      "1914": 6353,
      "orts": 6354,
      "2015": 6355,
      "2364": 6356,
      "2373": 6357,
      "2249": 6358,
      "2859": 6359,
      "2885": 6360,
      "2805": 6361,
      "33789": 6362,
      "resh": 6363,
      "3881": 6364,
      "4651": 6365,
      "5727": 6366,
      "6057": 6367,
      "6054": 6368,
      "6097": 6369,
      "8838": 6370,
      "Ġ1002": 6371,
      "1607": 6372,
      "female": 6373,
      "flower": 6374,
      "72822": 6375,
      "643800": 6376,
      "exclamation": 6377,
      "ecd": 6378,
      "161615": 6379,
      "package": 6380,
      "missing": 6381,
      "wireless": 6382,
      "0181": 6383,
      "2180": 6384,
      "3175": 6385,
      "bla": 6386,
      "bright": 6387,
      "ech": 6388,
      "fbf": 6389,
      "hammer": 6390,
      "ux": 6391,
      "Ġinline": 6392,
      "ĲĪ": 6393,
      "Ġ1036": 6394,
      "Ġ962": 6395,
      "Ġ906": 6396,
      "Ġ891": 6397,
      "ones": 6398,
      "1409": 6399,
      "1699": 6400,
      "1691": 6401,
      "1727": 6402,
      "1925": 6403,
      "2379": 6404,
      "2372": 6405,
      "2403": 6406,
      "2648": 6407,
      "2921": 6408,
      "4805": 6409,
      "4613": 6410,
      "5693": 6411,
      "4725": 6412,
      "4961": 6413,
      "5017": 6414,
      "5078": 6415,
      "5764": 6416,
      "5777": 6417,
      "5813": 6418,
      "5808": 6419,
      "5928": 6420,
      "7043": 6421,
      "7093": 6422,
      "7970": 6423,
      "7324": 6424,
      "dfea": 6425,
      "17627": 6426,
      "15744": 6427,
      "CCC": 6428,
      "4999": 6429,
      "ABBA": 6430,
      "arrows": 6431,
      "71425781": 6432,
      "achtentwintig": 6433,
      "host": 6434,
      "webapps": 6435,
      "controller": 6436,
      "464646": 6437,
      "progressive": 6438,
      "EEEEEE": 6439,
      "ĠArrow": 6440,
      "ultiply": 6441,
      "61538462": 6442,
      "silver": 6443,
      "dfeaef": 6444,
      "3169": 6445,
      "3165": 6446,
      "3006": 6447,
      "4139": 6448,
      "4374": 6449,
      "5361": 6450,
      "6361": 6451,
      "Glass": 6452,
      "Link": 6453,
      "bluetooth": 6454,
      "cou": 6455,
      "just": 6456,
      "0097": 6457,
      "Ġ016": 6458,
      "Ġ921": 6459,
      "Ġ926": 6460,
      "Ġ889": 6461,
      "1295": 6462,
      "11133": 6463,
      "1688": 6464,
      "1582": 6465,
      "1854": 6466,
      "1964": 6467,
      "2047": 6468,
      "23584": 6469,
      "2252": 6470,
      "2411": 6471,
      "2488": 6472,
      "2769": 6473,
      "2977": 6474,
      "3941": 6475,
      "4033": 6476,
      "9972": 6477,
      "4520": 6478,
      "4683": 6479,
      "4729": 6480,
      "4799": 6481,
      "5081": 6482,
      "5759": 6483,
      "5815": 6484,
      "5849": 6485,
      "6857": 6486,
      "7763": 6487,
      "7849": 6488,
      "oper": 6489,
      "nel": 6490,
      "2163": 6491,
      "13037": 6492,
      "70710678": 6493,
      "fab": 6494,
      "facial": 6495,
      "DDE": 6496,
      "bcdd": 6497,
      "å½¢çĬ¶ç»": 6498,
      "design": 6499,
      "contact": 6500,
      "ticket": 6501,
      "ĵåĲĪ": 6502,
      "å½¢çĬ¶ç»ĵåĲĪ": 6503,
      "2108": 6504,
      "3271": 6505,
      "4119": 6506,
      "4140": 6507,
      "4366": 6508,
      "5485": 6509,
      "7177": 6510,
      "7257": 6511,
      "AEC": 6512,
      "Winter": 6513,
      "ebb": 6514,
      "euro": 6515,
      "room": 6516,
      "Ġ909": 6517,
      "Ġ845": 6518,
      "1027": 6519,
      "1140": 6520,
      "1194": 6521,
      "1543": 6522,
      "1728": 6523,
      "1808": 6524,
      "ley": 6525,
      "4539": 6526,
      "5608": 6527,
      "4731": 6528,
      "4770": 6529,
      "4771": 6530,
      "4959": 6531,
      "6885": 6532,
      "ormula": 6533,
      "6777": 6534,
      "previous": 6535,
      "7724": 6536,
      "7015": 6537,
      "7327": 6538,
      "7413": 6539,
      "12061": 6540,
      "0721": 6541,
      "2199": 6542,
      "cef": 6543,
      "CED": 6544,
      "currency": 6545,
      "6565": 6546,
      "utor": 6547,
      "perature": 6548,
      "616161": 6549,
      "_);\"": 6550,
      "foot": 6551,
      "green": 6552,
      "logos": 6553,
      "irtual": 6554,
      "databases": 6555,
      "aaaaaa": 6556,
      "struct": 6557,
      "modern": 6558,
      "0791": 6559,
      "6576": 6560,
      "7121": 6561,
      "Mag": 6562,
      "aed": 6563,
      "py": 6564,
      "ken": 6565,
      "Ġ873": 6566,
      "Ġ883": 6567,
      "1245": 6568,
      "1252": 6569,
      "1292": 6570,
      "1150": 6571,
      "11963": 6572,
      "1394": 6573,
      "16455": 6574,
      "1731": 6575,
      "1773": 6576,
      "1934": 6577,
      "2001": 6578,
      "2003": 6579,
      "2299": 6580,
      "2410": 6581,
      "2402": 6582,
      "2579": 6583,
      "2501": 6584,
      "2835": 6585,
      "2643": 6586,
      "2684": 6587,
      "2967": 6588,
      "2969": 6589,
      "3497": 6590,
      "3525": 6591,
      "3586": 6592,
      "3923": 6593,
      "4803": 6594,
      "9986": 6595,
      "4570": 6596,
      "4796": 6597,
      "4921": 6598,
      "4937": 6599,
      "6724": 6600,
      "8813": 6601,
      "9728": 6602,
      "Ġ004": 6603,
      "cast": 6604,
      "54663": 6605,
      "94736841": 6606,
      "9681": 6607,
      "bebebe": 6608,
      "telephone": 6609,
      "expressions": 6610,
      "-_": 6611,
      "3170": 6612,
      "3252": 6613,
      "3253": 6614,
      "4379": 6615,
      "5103": 6616,
      "5006": 6617,
      "5377": 6618,
      "7256": 6619,
      "Bad": 6620,
      "Data": 6621,
      "Open": 6622,
      "Pe": 6623,
      "bus": 6624,
      "wall": 6625,
      "ç¹": 6626,
      "0039": 6627,
      "Ġ930": 6628,
      "Ġ945": 6629,
      "Ġ964": 6630,
      "1300": 6631,
      "1378": 6632,
      "1387": 6633,
      "1309": 6634,
      "itect": 6635,
      "1411": 6636,
      "1560": 6637,
      "1831": 6638,
      "1927": 6639,
      "2816": 6640,
      "2923": 6641,
      "3318": 6642,
      "3408": 6643,
      "3847": 6644,
      "3763": 6645,
      "3955": 6646,
      "99052": 6647,
      "4614": 6648,
      "4616": 6649,
      "5654": 6650,
      "4763": 6651,
      "imer": 6652,
      "5776": 6653,
      "5817": 6654,
      "5887": 6655,
      "6695": 6656,
      "tea": 6657,
      "6059": 6658,
      "7772": 6659,
      "7084": 6660,
      "10064": 6661,
      "ĠSt": 6662,
      "1204": 6663,
      "1603": 6664,
      "19629": 6665,
      "34495": 6666,
      "009688": 6667,
      "plant": 6668,
      "shadowBlur": 6669,
      "shadowOffset": 6670,
      "FCF": 6671,
      "ĉĉĉĉĊ": 6672,
      "unction": 6673,
      "architect": 6674,
      "chevrons": 6675,
      "earmark": 6676,
      "BDBDBD": 6677,
      "030819": 6678,
      "temperature": 6679,
      "focus": 6680,
      "architecture": 6681,
      "2148": 6682,
      "3154": 6683,
      "4333": 6684,
      "4368": 6685,
      "6165": 6686,
      "7488": 6687,
      "9665": 6688,
      "Calendar": 6689,
      "DAD": 6690,
      "Mac": 6691,
      "Mask": 6692,
      "ebebe": 6693,
      "iation": 6694,
      "zip": 6695,
      "00293": 6696,
      "Ġ943": 6697,
      "Ġ859": 6698,
      "1222": 6699,
      "1029": 6700,
      "onts": 6701,
      "1143": 6702,
      "1375": 6703,
      "1477": 6704,
      "1725": 6705,
      "1787": 6706,
      "1782": 6707,
      "2254": 6708,
      "3216": 6709,
      "2841": 6710,
      "repeat": 6711,
      "4418": 6712,
      "3414": 6713,
      "3859": 6714,
      "3851": 6715,
      "3735": 6716,
      "3924": 6717,
      "4839": 6718,
      "4851": 6719,
      "4881": 6720,
      "4210": 6721,
      "4332": 6722,
      "5812": 6723,
      "5856": 6724,
      "6836": 6725,
      "7937": 6726,
      "5121": 6727,
      "1205": 6728,
      "skip": 6729,
      "05957": 6730,
      "picture": 6731,
      "interface": 6732,
      "ONE": 6733,
      "empty": 6734,
      "suit": 6735,
      "control": 6736,
      "contrib": 6737,
      "briefcase": 6738,
      "contributor": 6739,
      "0127": 6740,
      "3241": 6741,
      "3161": 6742,
      "4201": 6743,
      "4253": 6744,
      "4245": 6745,
      "5249": 6746,
      "5285": 6747,
      "7126": 6748,
      "8492": 6749,
      "Button": 6750,
      "NG": 6751,
      "_\"/></": 6752,
      "cbb": 6753,
      "rocket": 6754,
      "0083": 6755,
      "Ġ0116": 6756,
      "Ġ910": 6757,
      "Ġ934": 6758,
      "Ġ902": 6759,
      "Ġ1111": 6760,
      "Ġ858": 6761,
      "Ġ852": 6762,
      "Ġ878": 6763,
      "Ġ890": 6764,
      "Ġ882": 6765,
      "1210": 6766,
      "1225": 6767,
      "1276": 6768,
      "1114": 6769,
      "1365": 6770,
      "1405": 6771,
      "1548": 6772,
      "1922": 6773,
      "1971": 6774,
      "2005": 6775,
      "2069": 6776,
      "2960": 6777,
      "resize": 6778,
      "4412": 6779,
      "4482": 6780,
      "4409": 6781,
      "3415": 6782,
      "38346": 6783,
      "3725": 6784,
      "3926": 6785,
      "5639": 6786,
      "5857": 6787,
      "5889": 6788,
      "FFCE": 6789,
      "ffle": 6790,
      "servers": 6791,
      "8947": 6792,
      "7332": 6793,
      "732002": 6794,
      "10059": 6795,
      "104386": 6796,
      "Ġfx": 6797,
      "Ġfy": 6798,
      "10742": 6799,
      "09668": 6800,
      "12647": 6801,
      "11035": 6802,
      "dacb": 6803,
      "quote": 6804,
      "febc": 6805,
      "amp": 6806,
      "6561": 6807,
      "users": 6808,
      "FAFF": 6809,
      "cycle": 6810,
      "lette": 6811,
      "exchange": 6812,
      "Info": 6813,
      "Camada": 6814,
      "diagram": 6815,
      "592413": 6816,
      "payment": 6817,
      "nguage": 6818,
      "iversity": 6819,
      "795548": 6820,
      "4288": 6821,
      "5449": 6822,
      "5454": 6823,
      "5498": 6824,
      "6127": 6825,
      "7373": 6826,
      "7568": 6827,
      "DEE": 6828,
      "Logo": 6829,
      "bot": 6830,
      "cal": 6831,
      "cation": 6832,
      "ent": 6833,
      "fee": 6834,
      "fish": 6835,
      "hist": 6836,
      "ĠP": 6837,
      "0019": 6838,
      "film": 6839,
      "Ġ925": 6840,
      "Ġ956": 6841,
      "1070": 6842,
      "1195": 6843,
      "1334": 6844,
      "1435": 6845,
      "1453": 6846,
      "1613": 6847,
      "1690": 6848,
      "1528": 6849,
      "1571": 6850,
      "cks": 6851,
      "1836": 6852,
      "1953": 6853,
      "1967": 6854,
      "2011": 6855,
      "2524": 6856,
      "2754": 6857,
      "2768": 6858,
      "3285": 6859,
      "2601": 6860,
      "3010": 6861,
      "3481": 6862,
      "4845": 6863,
      "4559": 6864,
      "4569": 6865,
      "5648": 6866,
      "5697": 6867,
      "5809": 6868,
      "7835": 6869,
      "6541": 6870,
      "9726": 6871,
      "ccess": 6872,
      "1120": 6873,
      "36719": 6874,
      "808285": 6875,
      "5561": 6876,
      "variation": 6877,
      "8598": 6878,
      "85714287": 6879,
      "bdff": 6880,
      "3905242": 6881,
      "cook": 6882,
      "button": 6883,
      "ivity": 6884,
      "FDFEFE": 6885,
      "accessibility": 6886,
      "3001": 6887,
      "3172": 6888,
      "4254": 6889,
      "5161": 6890,
      "7239": 6891,
      "7365": 6892,
      "7407": 6893,
      "7492": 6894,
      "7490": 6895,
      "Bra": 6896,
      "FEE": 6897,
      "Flood": 6898,
      "Formula": 6899,
      "Gala": 6900,
      "ecff": 6901,
      "fin": 6902,
      "hour": 6903,
      "kn": 6904,
      "nator": 6905,
      "pill": 6906,
      "wing": 6907,
      "woman": 6908,
      "xicons": 6909,
      "Ġset": 6910,
      "rone": 6911,
      "0024": 6912,
      "00024": 6913,
      "Ġ1032": 6914,
      "Ġ941": 6915,
      "Ġ953": 6916,
      "Ġ898": 6917,
      "1241": 6918,
      "1112": 6919,
      "1116": 6920,
      "1491": 6921,
      "1619": 6922,
      "1706": 6923,
      "2213": 6924,
      "2248": 6925,
      "2253": 6926,
      "ied": 6927,
      "2419": 6928,
      "2409": 6929,
      "2747": 6930,
      "2813": 6931,
      "2961": 6932,
      "3652": 6933,
      "4492": 6934,
      "3492": 6935,
      "3486": 6936,
      "3523": 6937,
      "3527": 6938,
      "3809": 6939,
      "38345": 6940,
      "99674": 6941,
      "4649": 6942,
      "5684": 6943,
      "5687": 6944,
      "5686": 6945,
      "4965": 6946,
      "5535": 6947,
      "5736": 6948,
      "4319": 6949,
      "5891": 6950,
      "6849": 6951,
      "6841": 6952,
      "6808": 6953,
      "6761": 6954,
      "7764": 6955,
      "70561": 6956,
      "7861": 6957,
      "752323": 6958,
      "7927": 6959,
      "742019": 6960,
      "742024": 6961,
      "Ġflood": 6962,
      "2127": 6963,
      "11523": 6964,
      "phones": 6965,
      "Ġ0015": 6966,
      "edge": 6967,
      "210807": 6968,
      "27946": 6969,
      "5567": 6970,
      "6571": 6971,
      "Elbow": 6972,
      "vectornator": 6973,
      "FBBC": 6974,
      "canned": 6975,
      "gala": 6976,
      "soft": 6977,
      "rainfall": 6978,
      "diamond": 6979,
      "Calque": 6980,
      "progression": 6981,
      "8284271": 6982,
      "icycle": 6983,
      "Google": 6984,
      "0293": 6985,
      "5201": 6986,
      "7176": 6987,
      "7167": 6988,
      "7161": 6989,
      "7489": 6990,
      "7563": 6991,
      "frame": 6992,
      "git": 6993,
      "tower": 6994,
      "Ġpaint": 6995,
      "Ġ1044": 6996,
      "Ġ927": 6997,
      "1250": 6998,
      "1288": 6999,
      "1278": 7000,
      "12891": 7001,
      "10254": 7002,
      "1353": 7003,
      "1636": 7004,
      "1532": 7005,
      "1503": 7006,
      "1732": 7007,
      "1738": 7008,
      "1779": 7009,
      "2337": 7010,
      "2243": 7011,
      "router": 7012,
      "2519": 7013,
      "2563": 7014,
      "2839": 7015,
      "3339": 7016,
      "3331": 7017,
      "3365": 7018,
      "4413": 7019,
      "3494": 7020,
      "3407": 7021,
      "3532": 7022,
      "4969": 7023,
      "4211": 7024,
      "5019": 7025,
      "5574": 7026,
      "5775": 7027,
      "nant": 7028,
      "5853": 7029,
      "6601": 7030,
      "59600": 7031,
      "6875": 7032,
      "782608": 7033,
      "8078": 7034,
      "7653": 7035,
      "wheel": 7036,
      "0432": 7037,
      "mana": 7038,
      "3445": 7039,
      "3446": 7040,
      "00699": 7041,
      "42336": 7042,
      "DCB": 7043,
      "7588": 7044,
      "rgba": 7045,
      "6567": 7046,
      "fdb": 7047,
      "social": 7048,
      "help": 7049,
      "78260871": 7050,
      "4123": 7051,
      "4295": 7052,
      "6999": 7053,
      "7119": 7054,
      "7137": 7055,
      "7139": 7056,
      "Diversity": 7057,
      "SE": 7058,
      "fonts": 7059,
      "gra": 7060,
      "timer": 7061,
      "wrench": 7062,
      "zure": 7063,
      "Ġletter": 7064,
      "0057": 7065,
      "ild": 7066,
      "ilet": 7067,
      "Ġ019": 7068,
      "Ġ913": 7069,
      "Ġ914": 7070,
      "1022": 7071,
      "1192": 7072,
      "11601": 7073,
      "1355": 7074,
      "itter": 7075,
      "1467": 7076,
      "1610": 7077,
      "1617": 7078,
      "1642": 7079,
      "1813": 7080,
      "1935": 7081,
      "2079": 7082,
      "2257": 7083,
      "2481": 7084,
      "2568": 7085,
      "2797": 7086,
      "3295": 7087,
      "2615": 7088,
      "2609": 7089,
      "2973": 7090,
      "3379": 7091,
      "3659": 7092,
      "3405": 7093,
      "3544": 7094,
      "3833": 7095,
      "3711": 7096,
      "3767": 7097,
      "4046": 7098,
      "4612": 7099,
      "5679": 7100,
      "5575": 7101,
      "4323": 7102,
      "5814": 7103,
      "5897": 7104,
      "temp": 7105,
      "6852": 7106,
      "6876": 7107,
      "6801": 7108,
      "7719": 7109,
      "7766": 7110,
      "7083": 7111,
      "7807": 7112,
      "chip": 7113,
      "bath": 7114,
      "9533": 7115,
      "9833": 7116,
      "movie": 7117,
      "1606": 7118,
      "22634": 7119,
      "edding": 7120,
      "guru": 7121,
      "7689": 7122,
      "CAE": 7123,
      "dddd": 7124,
      "ãĥ¼": 7125,
      "Artboards": 7126,
      "collection": 7127,
      "tools": 7128,
      "surprise": 7129,
      "testing": 7130,
      "fbbf": 7131,
      "Netguru": 7132,
      "Avatars": 7133,
      "hardAlpha": 7134,
      "0446": 7135,
      "3135": 7136,
      "3133": 7137,
      "3167": 7138,
      "4369": 7139,
      "7404": 7140,
      "AED": 7141,
      "BBC": 7142,
      "CDD": 7143,
      "Schedule": 7144,
      "_)\"/>": 7145,
      "dice": 7146,
      "eab": 7147,
      "hat": 7148,
      "wine": 7149,
      "xdpi": 7150,
      "ydpi": 7151,
      "three": 7152,
      "0016": 7153,
      "0029": 7154,
      "0079": 7155,
      "part": 7156,
      "Ġ968": 7157,
      "Ġ976": 7158,
      "1269": 7159,
      "12158": 7160,
      "1438": 7161,
      "1622": 7162,
      "1692": 7163,
      "1564": 7164,
      "1758": 7165,
      "1959": 7166,
      "2321": 7167,
      "22168": 7168,
      "3297": 7169,
      "2842": 7170,
      "2879": 7171,
      "3012": 7172,
      "3076": 7173,
      "3479": 7174,
      "3493": 7175,
      "3495": 7176,
      "3596": 7177,
      "3892": 7178,
      "3727": 7179,
      "3933": 7180,
      "4041": 7181,
      "9912": 7182,
      "5653": 7183,
      "4777": 7184,
      "4217": 7185,
      "olog": 7186,
      "7031": 7187,
      "dcf": 7188,
      "7322": 7189,
      "1286": 7190,
      "chro": 7191,
      "Ġmultiply": 7192,
      "opment": 7193,
      "11426": 7194,
      "CCA": 7195,
      "03125": 7196,
      "twatch": 7197,
      "feFlood": 7198,
      "martwatch": 7199,
      "pennant": 7200,
      "refresh": 7201,
      "ACBA": 7202,
      "layers": 7203,
      "airplane": 7204,
      "DDDDDD": 7205,
      "cfcfd": 7206,
      "303033": 7207,
      "0378": 7208,
      "3111": 7209,
      "3123": 7210,
      "4336": 7211,
      "5159": 7212,
      "6137": 7213,
      "6005": 7214,
      "7448": 7215,
      "7677": 7216,
      "Body": 7217,
      "FBF": 7218,
      "ash": 7219,
      "ny": 7220,
      "Ġ955": 7221,
      "Ġ854": 7222,
      "1265": 7223,
      "12109": 7224,
      "11377": 7225,
      "1312": 7226,
      "1330": 7227,
      "1348": 7228,
      "1331": 7229,
      "1384": 7230,
      "1434": 7231,
      "1443": 7232,
      "1600": 7233,
      "1513": 7234,
      "1594": 7235,
      "1939": 7236,
      "1904": 7237,
      "2433": 7238,
      "2599": 7239,
      "3214": 7240,
      "2876": 7241,
      "2891": 7242,
      "3382": 7243,
      "33579": 7244,
      "3660": 7245,
      "3662": 7246,
      "3411": 7247,
      "3416": 7248,
      "3458": 7249,
      "3526": 7250,
      "3530": 7251,
      "3885": 7252,
      "3759": 7253,
      "4043": 7254,
      "4059": 7255,
      "4077": 7256,
      "9994": 7257,
      "4567": 7258,
      "4658": 7259,
      "5615": 7260,
      "5607": 7261,
      "4949": 7262,
      "5751": 7263,
      "cone": 7264,
      "FFBB": 7265,
      "6779": 7266,
      "6787": 7267,
      "7737": 7268,
      "7041": 7269,
      "7054": 7270,
      "7097": 7271,
      "7879": 7272,
      "85245": 7273,
      "120515": 7274,
      "two": 7275,
      "gue": 7276,
      "36767": 7277,
      "FCBE": 7278,
      "8486541": 7279,
      "64972": 7280,
      "FDAFA": 7281,
      "Medical": 7282,
      "television": 7283,
      "deskcolor": 7284,
      "porter": 7285,
      "scissors": 7286,
      "2022120515": 7287,
      "shadowBlurOuter": 7288,
      "shadowOffsetOuter": 7289,
      "Brand": 7290,
      "202212051550": 7291,
      "3166": 7292,
      "3163": 7293,
      "4167": 7294,
      "4283": 7295,
      "5001": 7296,
      "5119": 7297,
      "5008": 7298,
      "7329": 7299,
      "7567": 7300,
      "9375": 7301,
      "Document": 7302,
      "Oth": 7303,
      "Sc": 7304,
      "Square": 7305,
      "UP": 7306,
      "bill": 7307,
      "fore": 7308,
      "mall": 7309,
      "micro": 7310,
      "nify": 7311,
      "stats": 7312,
      "0092": 7313,
      "Ġ1037": 7314,
      "Ġ1055": 7315,
      "1227": 7316,
      "12207": 7317,
      "1388": 7318,
      "1370": 7319,
      "1374": 7320,
      "language": 7321,
      "itor": 7322,
      "1410": 7323,
      "1449": 7324,
      "1495": 7325,
      "1693": 7326,
      "1531": 7327,
      "1588": 7328,
      "15137": 7329,
      "1772": 7330,
      "1771": 7331,
      "1856": 7332,
      "1982": 7333,
      "orange": 7334,
      "2092": 7335,
      "2083": 7336,
      "2361": 7337,
      "2244": 7338,
      "2245": 7339,
      "2445": 7340,
      "2858": 7341,
      "2887": 7342,
      "26786": 7343,
      "2962": 7344,
      "3459": 7345,
      "3454": 7346,
      "3491": 7347,
      "3882": 7348,
      "4858": 7349,
      "4887": 7350,
      "4093": 7351,
      "4527": 7352,
      "4529": 7353,
      "4573": 7354,
      "45596": 7355,
      "4615": 7356,
      "4605": 7357,
      "4601": 7358,
      "5664": 7359,
      "5559": 7360,
      "5577": 7361,
      "5806": 7362,
      "6759": 7363,
      "6767": 7364,
      "7774": 7365,
      "dca": 7366,
      "85565": 7367,
      "stopwatch": 7368,
      "2162": 7369,
      "16061": 7370,
      "16977": 7371,
      "2238": 7372,
      "elect": 7373,
      "ĠĠĠĠĠĠĠĠĠĠĠĠĠĠĠĠĠĠĠĠĠĠĠĠĠĠĠ": 7374,
      "EAC": 7375,
      "7684": 7376,
      "7685": 7377,
      "ddd": 7378,
      "6559": 7379,
      "alignment": 7380,
      "71464": 7381,
      "checkmark": 7382,
      "163844": 7383,
      "Like": 7384,
      "drive": 7385,
      "Others": 7386,
      "0227": 7387,
      "2185": 7388,
      "3185": 7389,
      "4137": 7390,
      "4251": 7391,
      "5247": 7392,
      "7001": 7393,
      "7486": 7394,
      "AEF": 7395,
      "BG": 7396,
      "gor": 7397,
      "0096": 7398,
      "Ġ915": 7399,
      "Ġ923": 7400,
      "Ġ946": 7401,
      "Ġ861": 7402,
      "Ġ885": 7403,
      "Ġ897": 7404,
      "1228": 7405,
      "1071": 7406,
      "1314": 7407,
      "1345": 7408,
      "land": 7409,
      "lance": 7410,
      "1412": 7411,
      "1426": 7412,
      "1514": 7413,
      "1978": 7414,
      "1969": 7415,
      "2018": 7416,
      "00000": 7417,
      "2338": 7418,
      "2366": 7419,
      "2242": 7420,
      "2263": 7421,
      "28571": 7422,
      "2617": 7423,
      "2657": 7424,
      "2937": 7425,
      "2999": 7426,
      "3338": 7427,
      "3015": 7428,
      "3629": 7429,
      "3438": 7430,
      "3584": 7431,
      "3769": 7432,
      "3774": 7433,
      "4091": 7434,
      "4525": 7435,
      "4575": 7436,
      "4610": 7437,
      "4681": 7438,
      "4693": 7439,
      "4772": 7440,
      "49362": 7441,
      "5842": 7442,
      "5850": 7443,
      "6602": 7444,
      "6810": 7445,
      "formula": 7446,
      "7052": 7447,
      "7857": 7448,
      "7809": 7449,
      "831318": 7450,
      "gear": 7451,
      "14062": 7452,
      "cfb": 7453,
      "7686": 7454,
      "847677": 7455,
      "99990": 7456,
      "times": 7457,
      "wash": 7458,
      "BBDEFB": 7459,
      "5128358": 7460,
      "women": 7461,
      "004787": 7462,
      "414042": 7463,
      "hourglass": 7464,
      "83131873": 7465,
      "%;": 7466,
      "%;-": 7467,
      "0244": 7468,
      "0254": 7469,
      "0371": 7470,
      "3202": 7471,
      "3179": 7472,
      "3259": 7473,
      "4135": 7474,
      "5139": 7475,
      "5239": 7476,
      "5283": 7477,
      "5494": 7478,
      "6366": 7479,
      "6445": 7480,
      "7288": 7481,
      "7368": 7482,
      "7371": 7483,
      "7441": 7484,
      "7693": 7485,
      "9229": 7486,
      "Certificate": 7487,
      "Euro": 7488,
      "Puzzle": 7489,
      "xx": 7490,
      "ĠE": 7491,
      "Ġ922": 7492,
      "Ġ933": 7493,
      "Ġ942": 7494,
      "1118": 7495,
      "1356": 7496,
      "1352": 7497,
      "1362": 7498,
      "1398": 7499,
      "1656": 7500,
      "1707": 7501,
      "18213": 7502,
      "2255": 7503,
      "2288": 7504,
      "2486": 7505,
      "24121": 7506,
      "2734": 7507,
      "3219": 7508,
      "2817": 7509,
      "2801": 7510,
      "3359": 7511,
      "ĠMed": 7512,
      "3485": 7513,
      "3879": 7514,
      "3893": 7515,
      "3775": 7516,
      "4034": 7517,
      "4611": 7518,
      "4604": 7519,
      "4939": 7520,
      "olf": 7521,
      "5735": 7522,
      "4325": 7523,
      "5852": 7524,
      "5873": 7525,
      "6642": 7526,
      "6655": 7527,
      "6651": 7528,
      "6653": 7529,
      "6816": 7530,
      "6881": 7531,
      "6893": 7532,
      "7734": 7533,
      "7099": 7534,
      "7091": 7535,
      "7973": 7536,
      "6323": 7537,
      "7657": 7538,
      "7414": 7539,
      "1282": 7540,
      "gby": 7541,
      "10009": 7542,
      "14648": 7543,
      "cand": 7544,
      "Ġ11845": 7545,
      "dist": 7546,
      "0286691": 7547,
      "7666": 7548,
      "playlist": 7549,
      "5522848": 7550,
      "world": 7551,
      "plug": 7552,
      "middle": 7553,
      "cccccccccccccccc": 7554,
      "sunset": 7555,
      "Buy": 7556,
      "recorder": 7557,
      "Infos": 7558,
      "surprised": 7559,
      "Europe": 7560,
      "3168": 7561,
      "3448": 7562,
      "4293": 7563,
      "4199": 7564,
      "5168": 7565,
      "5225": 7566,
      "5287": 7567,
      "5339": 7568,
      "5347": 7569,
      "7363": 7570,
      "8789": 7571,
      "BDD": 7572,
      "CBB": 7573,
      "dog": 7574,
      "pic": 7575,
      "und": 7576,
      "wedding": 7577,
      "ĠU": 7578,
      "Ġhttp": 7579,
      "Ġword": 7580,
      "stand": 7581,
      "0065": 7582,
      "00489": 7583,
      "Ġ932": 7584,
      "1187": 7585,
      "1181": 7586,
      "1360": 7587,
      "1354": 7588,
      "1390": 7589,
      "1302": 7590,
      "1488": 7591,
      "1478": 7592,
      "1626": 7593,
      "16259": 7594,
      "1502": 7595,
      "1812": 7596,
      "1863": 7597,
      "2377": 7598,
      "2370": 7599,
      "2449": 7600,
      "2452": 7601,
      "2485": 7602,
      "2538": 7603,
      "3294": 7604,
      "2899": 7605,
      "2894": 7606,
      "2968": 7607,
      "3014": 7608,
      "3081": 7609,
      "3667": 7610,
      "3453": 7611,
      "3482": 7612,
      "3850": 7613,
      "3888": 7614,
      "3726": 7615,
      "4897": 7616,
      "4051": 7617,
      "4523": 7618,
      "45454": 7619,
      "4668": 7620,
      "4679": 7621,
      "4606": 7622,
      "5646": 7623,
      "4732": 7624,
      "4730": 7625,
      "4919": 7626,
      "5025": 7627,
      "5513": 7628,
      "5816": 7629,
      "event": 7630,
      "6614": 7631,
      "5914": 7632,
      "FFEA": 7633,
      "6848": 7634,
      "6807": 7635,
      "6771": 7636,
      "7892": 7637,
      "6923": 7638,
      "gement": 7639,
      "98328": 7640,
      "10058": 7641,
      "1122": 7642,
      "12012": 7643,
      "12549": 7644,
      "11719": 7645,
      "07129": 7646,
      "Ġ005": 7647,
      "toilet": 7648,
      "25537": 7649,
      "3443": 7650,
      "cabin": 7651,
      "FFFBA": 7652,
      "6564": 7653,
      "shadowMatrix": 7654,
      "64807": 7655,
      "98856": 7656,
      "FFDA": 7657,
      "Chr": 7658,
      "tics": 7659,
      "Telephone": 7660,
      "Contact": 7661,
      "),": 7662,
      "0468": 7663,
      "2119": 7664,
      "3247": 7665,
      "4255": 7666,
      "4177": 7667,
      "4165": 7668,
      "5364": 7669,
      "5357": 7670,
      "5496": 7671,
      "6119": 7672,
      "6205": 7673,
      "6264": 7674,
      "7133": 7675,
      "7165": 7676,
      "7289": 7677,
      "7447": 7678,
      "7963": 7679,
      "AN": 7680,
      "ABD": 7681,
      "EDF": 7682,
      "EBA": 7683,
      "FCA": 7684,
      "LE": 7685,
      "sl": 7686,
      "uation": 7687,
      "0052": 7688,
      "0061": 7689,
      "Ġ1041": 7690,
      "Ġ1136": 7691,
      "1262": 7692,
      "1344": 7693,
      "1500": 7694,
      "1718": 7695,
      "17676": 7696,
      "2408": 7697,
      "2854": 7698,
      "2655": 7699,
      "3451": 7700,
      "3528": 7701,
      "3723": 7702,
      "4817": 7703,
      "4857": 7704,
      "4603": 7705,
      "5657": 7706,
      "4774": 7707,
      "ruit": 7708,
      "4971": 7709,
      "5093": 7710,
      "5533": 7711,
      "6657": 7712,
      "6046": 7713,
      "6056": 7714,
      "5321": 7715,
      "6840": 7716,
      "6899": 7717,
      "7721": 7718,
      "7044": 7719,
      "7897": 7720,
      "8014": 7721,
      "7979": 7722,
      "7647": 7723,
      "ategy": 7724,
      "10645": 7725,
      "communication": 7726,
      "11621": 7727,
      "Ġ0012": 7728,
      "loon": 7729,
      "ced": 7730,
      "ava": 7731,
      "headphone": 7732,
      "spital": 7733,
      "gamepad": 7734,
      "070707": 7735,
      "multimedia": 7736,
      "shuffle": 7737,
      "checked": 7738,
      "2109": 7739,
      "2117": 7740,
      "4242": 7741,
      "4257": 7742,
      "5130": 7743,
      "5179": 7744,
      "5171": 7745,
      "5279": 7746,
      "5376": 7747,
      "5399": 7748,
      "5484": 7749,
      "6367": 7750,
      "7131": 7751,
      "7694": 7752,
      "DCC": 7753,
      "ER": 7754,
      "Elipse": 7755,
      "grad": 7756,
      "oto": 7757,
      "rss": 7758,
      "va": 7759,
      "ĉĠĠĠĠĠ": 7760,
      "ĠLogo": 7761,
      "stat": 7762,
      "0014": 7763,
      "0037": 7764,
      "Ġ947": 7765,
      "Ġ949": 7766,
      "1317": 7767,
      "1492": 7768,
      "1512": 7769,
      "1785": 7770,
      "1791": 7771,
      "17578": 7772,
      "2362": 7773,
      "2256": 7774,
      "2287": 7775,
      "2424": 7776,
      "2439": 7777,
      "2457": 7778,
      "2521": 7779,
      "2578": 7780,
      "3283": 7781,
      "2659": 7782,
      "3027": 7783,
      "3651": 7784,
      "3681": 7785,
      "reality": 7786,
      "4405": 7787,
      "4407": 7788,
      "3733": 7789,
      "39373": 7790,
      "4879": 7791,
      "4039": 7792,
      "4500": 7793,
      "4563": 7794,
      "5611": 7795,
      "5625": 7796,
      "4923": 7797,
      "5528": 7798,
      "5599": 7799,
      "5729": 7800,
      "FFEE": 7801,
      "7013": 7802,
      "7813": 7803,
      "pet": 7804,
      "7655": 7805,
      "cha": 7806,
      "icine": 7807,
      "photo": 7808,
      "Ġ006": 7809,
      "0332": 7810,
      "22313": 7811,
      "02051": 7812,
      "6566": 7813,
      "99943": 7814,
      "facebook": 7815,
      "DAE": 7816,
      "07031": 7817,
      "FFECB": 7818,
      "Headphone": 7819,
      "fbfcfc": 7820,
      "football": 7821,
      "structures": 7822,
      "shadowMatrixOuter": 7823,
      "2800": 7824,
      "2177": 7825,
      "4256": 7826,
      "4399": 7827,
      "6169": 7828,
      "6171": 7829,
      "6006": 7830,
      "7127": 7831,
      "8129": 7832,
      "9489": 7833,
      "Face": 7834,
      "Su": 7835,
      "put": 7836,
      "tv": 7837,
      "00048": 7838,
      "Ġ948": 7839,
      "Ġ961": 7840,
      "1230": 7841,
      "1248": 7842,
      "1258": 7843,
      "10791": 7844,
      "1188": 7845,
      "1183": 7846,
      "1197": 7847,
      "1381": 7848,
      "1418": 7849,
      "1422": 7850,
      "1442": 7851,
      "1471": 7852,
      "1621": 7853,
      "1631": 7854,
      "1646": 7855,
      "1549": 7856,
      "1720": 7857,
      "1793": 7858,
      "18994": 7859,
      "1921": 7860,
      "1965": 7861,
      "2007": 7862,
      "2090": 7863,
      "2637": 7864,
      "2965": 7865,
      "35156": 7866,
      "3891": 7867,
      "4892": 7868,
      "4096": 7869,
      "9903": 7870,
      "5694": 7871,
      "5029": 7872,
      "5531": 7873,
      "5739": 7874,
      "5779": 7875,
      "5847": 7876,
      "5895": 7877,
      "6613": 7878,
      "6659": 7879,
      "5944": 7880,
      "5319": 7881,
      "6847": 7882,
      "6880": 7883,
      "6809": 7884,
      "7059": 7885,
      "7095": 7886,
      "7811": 7887,
      "7641": 7888,
      "shelf": 7889,
      "24414": 7890,
      "3442": 7891,
      "oco": 7892,
      "fafa": 7893,
      "35952": 7894,
      "symbol": 7895,
      "BDB": 7896,
      "6579": 7897,
      "chen": 7898,
      "9355072": 7899,
      "rolley": 7900,
      "edeb": 7901,
      "Recorder": 7902,
      "fefefe": 7903,
      "Pencils": 7904,
      "0288": 7905,
      "3128": 7906,
      "3162": 7907,
      "3328": 7908,
      "3242": 7909,
      "4239": 7910,
      "4378": 7911,
      "5189": 7912,
      "6161": 7913,
      "7135": 7914,
      "7238": 7915,
      "FBE": 7916,
      "ecc": 7917,
      "oil": 7918,
      "ton": 7919,
      "0017": 7920,
      "0066": 7921,
      "00305": 7922,
      "pal": 7923,
      "Ġ1039": 7924,
      "Ġ940": 7925,
      "1243": 7926,
      "12793": 7927,
      "1368": 7928,
      "1421": 7929,
      "1444": 7930,
      "1472": 7931,
      "1675": 7932,
      "1665": 7933,
      "16113": 7934,
      "1576": 7935,
      "1506": 7936,
      "1802": 7937,
      "18555": 7938,
      "1973": 7939,
      "19141": 7940,
      "2044": 7941,
      "2339": 7942,
      "2331": 7943,
      "2219": 7944,
      "2413": 7945,
      "2459": 7946,
      "2554": 7947,
      "2779": 7948,
      "2776": 7949,
      "sset": 7950,
      "3288": 7951,
      "2812": 7952,
      "2818": 7953,
      "2650": 7954,
      "3373": 7955,
      "read": 7956,
      "3489": 7957,
      "3812": 7958,
      "3856": 7959,
      "3777": 7960,
      "3937": 7961,
      "4053": 7962,
      "4092": 7963,
      "9961": 7964,
      "4647": 7965,
      "4641": 7966,
      "5536": 7967,
      "5760": 7968,
      "5854": 7969,
      "5893": 7970,
      "6616": 7971,
      "6604": 7972,
      "663318": 7973,
      "5927": 7974,
      "5932": 7975,
      "tel": 7976,
      "6439": 7977,
      "6093": 7978,
      "5419": 7979,
      "6889": 7980,
      "6898": 7981,
      "6804": 7982,
      "rch": 7983,
      "6737": 7984,
      "7715": 7985,
      "7094": 7986,
      "7851": 7987,
      "7933": 7988,
      "6922": 7989,
      "7439": 7990,
      "algor": 7991,
      "score": 7992,
      "ĠSvg": 7993,
      "0918": 7994,
      "11768": 7995,
      "21094": 7996,
      "ĠVector": 7997,
      "6563": 7998,
      "54545454": 7999,
      "7883": 8000,
      "6570": 8001,
      "05518": 8002,
      "7965": 8003,
      "76757": 8004,
      "63900": 8005,
      "train": 8006,
      "strategy": 8007,
      "goal": 8008,
      "webfonts": 8009,
      "underline": 8010,
      "553788": 8011,
      "trend": 8012,
      "1996403": 8013,
      "onlinewebfonts": 8014,
      "bitcoin": 8015,
      "brightness": 8016,
      "People": 8017,
      "ç¹Ŀ": 8018,
      "ocolate": 8019,
      "algorith": 8020,
      "4124": 8021,
      "4164": 8022,
      "4173": 8023,
      "4205": 8024,
      "4247": 8025,
      "5489": 8026,
      "6136": 8027,
      "6123": 8028,
      "6133": 8029,
      "6130": 8030,
      "6177": 8031,
      "7255": 8032,
      "7331": 8033,
      "7691": 8034,
      "Bell": 8035,
      "CFF": 8036,
      "Clip": 8037,
      "DCA": 8038,
      "Devel": 8039,
      "Key": 8040,
      "Remo": 8041,
      "dff": 8042,
      "fruit": 8043,
      "ock": 8044,
      "tone": 8045,
      "tub": 8046,
      "Ġe": 8047,
      "Ġstart": 8048,
      "0022": 8049,
      "0036": 8050,
      "0048": 8051,
      "0055": 8052,
      "00012": 8053,
      "inside": 8054,
      "Ġ929": 8055,
      "Ġ892": 8056,
      "1244": 8057,
      "1238": 8058,
      "1186": 8059,
      "13105": 8060,
      "1308": 8061,
      "13965": 8062,
      "lane": 8063,
      "1464": 8064,
      "1624": 8065,
      "1522": 8066,
      "1524": 8067,
      "15283": 8068,
      "1730": 8069,
      "1805": 8070,
      "1905": 8071,
      "2043": 8072,
      "2332": 8073,
      "2296": 8074,
      "2285": 8075,
      "2450": 8076,
      "2723": 8077,
      "2762": 8078,
      "2809": 8079,
      "2803": 8080,
      "2646": 8081,
      "2919": 8082,
      "3324": 8083,
      "3013": 8084,
      "4411": 8085,
      "3739": 8086,
      "4088": 8087,
      "4089": 8088,
      "4532": 8089,
      "4571": 8090,
      "4645": 8091,
      "4216": 8092,
      "5532": 8093,
      "5930": 8094,
      "ffba": 8095,
      "6047": 8096,
      "6817": 8097,
      "6770": 8098,
      "7728": 8099,
      "7730": 8100,
      "7775": 8101,
      "7890": 8102,
      "7801": 8103,
      "7649": 8104,
      "7415": 8105,
      "chocolate": 8106,
      "oma": 8107,
      "11817": 8108,
      "15625": 8109,
      "Transport": 8110,
      "31352": 8111,
      "boat": 8112,
      "irst": 8113,
      "flask": 8114,
      "656766": 8115,
      "02344": 8116,
      "5566": 8117,
      "7885": 8118,
      "6577": 8119,
      "51428572": 8120,
      "959595": 8121,
      "tain": 8122,
      "404041": 8123,
      "Ġmultimedia": 8124,
      "activity": 8125,
      "787878": 8126,
      "BCBCBC": 8127,
      "Expanded": 8128,
      "shoe": 8129,
      "record": 8130,
      "column": 8131,
      "management": 8132,
      "bathtub": 8133,
      "ology": 8134,
      "0221": 8135,
      "4161": 8136,
      "4286": 8137,
      "5289": 8138,
      "6007": 8139,
      "6494": 8140,
      "6339": 8141,
      "6009": 8142,
      "7163": 8143,
      "7446": 8144,
      "7454": 8145,
      "7403": 8146,
      "7483": 8147,
      "9450": 8148,
      "OM": 8149,
      "certificate": 8150,
      "jew": 8151,
      "sate": 8152,
      "wave": 8153,
      "ĠRight": 8154,
      "ĠLeft": 8155,
      "00781": 8156,
      "Ġ017": 8157,
      "Ġ936": 8158,
      "Ġ969": 8159,
      "1236": 8160,
      "12256": 8161,
      "10205": 8162,
      "1347": 8163,
      "1341": 8164,
      "1425": 8165,
      "1437": 8166,
      "1431": 8167,
      "1451": 8168,
      "1469": 8169,
      "1408": 8170,
      "1644": 8171,
      "1698": 8172,
      "1545": 8173,
      "1557": 8174,
      "1568": 8175,
      "1573": 8176,
      "1592": 8177,
      "1714": 8178,
      "1708": 8179,
      "17383": 8180,
      "1937": 8181,
      "1963": 8182,
      "1974": 8183,
      "2333": 8184,
      "2335": 8185,
      "2367": 8186,
      "2212": 8187,
      "2447": 8188,
      "2718": 8189,
      "2765": 8190,
      "4415": 8191
    },
    "merges": [
      [
        "Ġ",
        "1"
      ],
      [
        "=",
        "\""
      ],
      [
        "Ġ",
        "L"
      ],
      [
        "r",
        "o"
      ],
      [
        "s",
        "t"
      ],
      [
        "k",
        "e"
      ],
      [
        "ro",
        "ke"
      ],
      [
        "st",
        "roke"
      ],
      [
        "Ġ",
        "stroke"
      ],
      [
        "t",
        "h"
      ],
      [
        "0",
        "0"
      ],
      [
        "Ġ",
        "2"
      ],
      [
        "Ġ",
        "C"
      ],
      [
        "p",
        "a"
      ],
      [
        "i",
        "l"
      ],
      [
        "f",
        "il"
      ],
      [
        "fil",
        "l"
      ],
      [
        "Ġ",
        "fill"
      ],
      [
        "Ġ",
        "0"
      ],
      [
        "Ġ",
        "Ġ"
      ],
      [
        "i",
        "d"
      ],
      [
        "/",
        ">"
      ],
      [
        "\"",
        "/>"
      ],
      [
        "Ġ1",
        "2"
      ],
      [
        "i",
        "n"
      ],
      [
        "Ġ1",
        "0"
      ],
      [
        "Ġ",
        "9"
      ],
      [
        "Ġ1",
        "1"
      ],
      [
        "Ġ",
        "8"
      ],
      [
        "pa",
        "th"
      ],
      [
        "Ġ",
        "d"
      ],
      [
        "Ġ1",
        "3"
      ],
      [
        "1",
        "2"
      ],
      [
        "Ġ1",
        "4"
      ],
      [
        "Ġ",
        "7"
      ],
      [
        "Ġ1",
        "5"
      ],
      [
        "id",
        "th"
      ],
      [
        "w",
        "idth"
      ],
      [
        "Ġ",
        "6"
      ],
      [
        "-",
        "."
      ],
      [
        "Ġ1",
        "6"
      ],
      [
        "Ġ",
        "3"
      ],
      [
        "1",
        "0"
      ],
      [
        "o",
        "n"
      ],
      [
        "Ġ",
        "5"
      ],
      [
        "Ġ",
        "4"
      ],
      [
        "1",
        "1"
      ],
      [
        "1",
        "3"
      ],
      [
        "l",
        "a"
      ],
      [
        "Ġ1",
        "7"
      ],
      [
        "v",
        "g"
      ],
      [
        "s",
        "vg"
      ],
      [
        "i",
        "t"
      ],
      [
        "1",
        "4"
      ],
      [
        "n",
        "on"
      ],
      [
        "1",
        "6"
      ],
      [
        "non",
        "e"
      ],
      [
        "1",
        "5"
      ],
      [
        "pa",
        "c"
      ],
      [
        "h",
        "t"
      ],
      [
        "Ġ1",
        "8"
      ],
      [
        "w",
        "w"
      ],
      [
        "it",
        "y"
      ],
      [
        "pac",
        "ity"
      ],
      [
        "o",
        "pacity"
      ],
      [
        "c",
        "k"
      ],
      [
        "in",
        "g"
      ],
      [
        "1",
        "7"
      ],
      [
        "=\"",
        "."
      ],
      [
        "la",
        "ck"
      ],
      [
        "b",
        "lack"
      ],
      [
        "Ġfill",
        "ing"
      ],
      [
        "<",
        "/"
      ],
      [
        "p",
        "x"
      ],
      [
        "1",
        "8"
      ],
      [
        "Ġ",
        "c"
      ],
      [
        "1",
        "9"
      ],
      [
        "Ġ",
        "x"
      ],
      [
        "Ġ1",
        "9"
      ],
      [
        "o",
        "r"
      ],
      [
        "2",
        "00"
      ],
      [
        "\"",
        ">"
      ],
      [
        "n",
        "s"
      ],
      [
        "l",
        "in"
      ],
      [
        "2",
        "0"
      ],
      [
        "ĠĠ",
        "ĠĠ"
      ],
      [
        "m",
        "l"
      ],
      [
        "00",
        "00"
      ],
      [
        "Ġx",
        "ml"
      ],
      [
        "l",
        "e"
      ],
      [
        "8",
        "00"
      ],
      [
        "Ġ2",
        "4"
      ],
      [
        "=\"",
        "#"
      ],
      [
        "Ġ2",
        "0"
      ],
      [
        "ht",
        "t"
      ],
      [
        "htt",
        "p"
      ],
      [
        "/",
        "/"
      ],
      [
        ":",
        "//"
      ],
      [
        "or",
        "g"
      ],
      [
        "Ġxml",
        "ns"
      ],
      [
        "Ġ",
        "v"
      ],
      [
        "ww",
        "w"
      ],
      [
        "i",
        "g"
      ],
      [
        "Ġ",
        "h"
      ],
      [
        "ig",
        "ht"
      ],
      [
        "e",
        "ight"
      ],
      [
        "Ġh",
        "eight"
      ],
      [
        "Ġ",
        "width"
      ],
      [
        "2",
        "3"
      ],
      [
        "lin",
        "e"
      ],
      [
        "2",
        "2"
      ],
      [
        "i",
        "e"
      ],
      [
        "2",
        "4"
      ],
      [
        "ie",
        "w"
      ],
      [
        "200",
        "0"
      ],
      [
        "o",
        "x"
      ],
      [
        "B",
        "ox"
      ],
      [
        "Ġv",
        "iew"
      ],
      [
        "Ġview",
        "Box"
      ],
      [
        "ro",
        "u"
      ],
      [
        "2",
        "1"
      ],
      [
        "n",
        "d"
      ],
      [
        "Ġ",
        "id"
      ],
      [
        "rou",
        "nd"
      ],
      [
        "Ġ2",
        "1"
      ],
      [
        "ĠĠ",
        "Ġ"
      ],
      [
        "2",
        "5"
      ],
      [
        "Ġ",
        "-"
      ],
      [
        "e",
        "r"
      ],
      [
        "Ġ",
        "<"
      ],
      [
        "2",
        "7"
      ],
      [
        "s",
        "s"
      ],
      [
        "3",
        "2"
      ],
      [
        "0000",
        "00"
      ],
      [
        "2",
        "8"
      ],
      [
        "2",
        "6"
      ],
      [
        "2",
        "9"
      ],
      [
        "Ġ2",
        "2"
      ],
      [
        "3",
        "3"
      ],
      [
        "la",
        "ss"
      ],
      [
        "Ġc",
        "lass"
      ],
      [
        ",",
        "-"
      ],
      [
        "a",
        "p"
      ],
      [
        "3",
        "0"
      ],
      [
        "Ġ",
        "M"
      ],
      [
        "\"/>",
        "<"
      ],
      [
        "st",
        "y"
      ],
      [
        "sty",
        "le"
      ],
      [
        "3",
        "6"
      ],
      [
        "o",
        "in"
      ],
      [
        "r",
        "e"
      ],
      [
        "4",
        "4"
      ],
      [
        "c",
        "ap"
      ],
      [
        "\"/>",
        "</"
      ],
      [
        "\">",
        "<"
      ],
      [
        "3",
        "4"
      ],
      [
        "3",
        "5"
      ],
      [
        "3",
        "8"
      ],
      [
        "3",
        "7"
      ],
      [
        ":",
        "#"
      ],
      [
        "line",
        "cap"
      ],
      [
        "3",
        "9"
      ],
      [
        "v",
        "e"
      ],
      [
        "Ġ",
        "y"
      ],
      [
        "4",
        "8"
      ],
      [
        "j",
        "oin"
      ],
      [
        "line",
        "join"
      ],
      [
        "lin",
        "k"
      ],
      [
        "3",
        "1"
      ],
      [
        "x",
        "link"
      ],
      [
        "4",
        "0"
      ],
      [
        "a",
        "t"
      ],
      [
        "9",
        "9"
      ],
      [
        "Ġ3",
        "2"
      ],
      [
        "4",
        "5"
      ],
      [
        "Z",
        "M"
      ],
      [
        "4",
        "6"
      ],
      [
        "5",
        "6"
      ],
      [
        "4",
        "7"
      ],
      [
        "r",
        "a"
      ],
      [
        "Ġ",
        "style"
      ],
      [
        "c",
        "l"
      ],
      [
        "Ġ",
        "r"
      ],
      [
        "ĠĠĠĠ",
        "ĠĠĠ"
      ],
      [
        "r",
        "u"
      ],
      [
        "c",
        "t"
      ],
      [
        "d",
        "e"
      ],
      [
        "4",
        "9"
      ],
      [
        "4",
        "2"
      ],
      [
        ",",
        "."
      ],
      [
        "z",
        "m"
      ],
      [
        "o",
        "d"
      ],
      [
        "i",
        "on"
      ],
      [
        "a",
        "r"
      ],
      [
        "m",
        "e"
      ],
      [
        "5",
        "0"
      ],
      [
        "5",
        "5"
      ],
      [
        "4",
        "1"
      ],
      [
        "Ġ",
        "."
      ],
      [
        "cl",
        "s"
      ],
      [
        "i",
        "m"
      ],
      [
        "ra",
        "ns"
      ],
      [
        "ru",
        "le"
      ],
      [
        "o",
        "l"
      ],
      [
        "5",
        "7"
      ],
      [
        "4",
        "3"
      ],
      [
        "Ġ2",
        "3"
      ],
      [
        "Ġ",
        "Z"
      ],
      [
        "t",
        "rans"
      ],
      [
        "n",
        "a"
      ],
      [
        "c",
        "on"
      ],
      [
        "5",
        "8"
      ],
      [
        "e",
        "ve"
      ],
      [
        ";",
        "}"
      ],
      [
        "eve",
        "n"
      ],
      [
        "Ġ2",
        "6"
      ],
      [
        "od",
        "d"
      ],
      [
        "even",
        "odd"
      ],
      [
        "Ġ2",
        "8"
      ],
      [
        "Ġ2",
        "5"
      ],
      [
        "er",
        "s"
      ],
      [
        "ers",
        "ion"
      ],
      [
        "6",
        "6"
      ],
      [
        "19",
        "99"
      ],
      [
        "5",
        "9"
      ],
      [
        "Ġv",
        "ersion"
      ],
      [
        "t",
        "e"
      ],
      [
        "F",
        "F"
      ],
      [
        "Ġ",
        "</"
      ],
      [
        "Ġ2",
        "7"
      ],
      [
        "6",
        "4"
      ],
      [
        "it",
        "le"
      ],
      [
        "f",
        "f"
      ],
      [
        "5",
        "2"
      ],
      [
        "t",
        "itle"
      ],
      [
        "z",
        "M"
      ],
      [
        "6",
        "0"
      ],
      [
        "Ġ4",
        "8"
      ],
      [
        "Ġ3",
        "0"
      ],
      [
        "re",
        "ct"
      ],
      [
        "5",
        "4"
      ],
      [
        "Ġ2",
        "9"
      ],
      [
        "at",
        "a"
      ],
      [
        "5",
        "1"
      ],
      [
        "s",
        "er"
      ],
      [
        "5",
        "3"
      ],
      [
        "6",
        "8"
      ],
      [
        "na",
        "me"
      ],
      [
        "i",
        "p"
      ],
      [
        "r",
        "c"
      ],
      [
        "or",
        "m"
      ],
      [
        "6",
        "7"
      ],
      [
        "Ġ3",
        "6"
      ],
      [
        "Ġd",
        "ata"
      ],
      [
        "8",
        "8"
      ],
      [
        "Ġ5",
        "12"
      ],
      [
        "ĠĠĠĠ",
        "ĠĠĠĠĠĠĠ"
      ],
      [
        "c",
        "i"
      ],
      [
        "de",
        "f"
      ],
      [
        "def",
        "s"
      ],
      [
        "p",
        "re"
      ],
      [
        "ser",
        "ve"
      ],
      [
        "pre",
        "serve"
      ],
      [
        "y",
        "er"
      ],
      [
        "Ġc",
        "y"
      ],
      [
        "Ġc",
        "x"
      ],
      [
        "7",
        "7"
      ],
      [
        "rc",
        "le"
      ],
      [
        "ci",
        "rcle"
      ],
      [
        "i",
        "con"
      ],
      [
        "f",
        "orm"
      ],
      [
        "7",
        "0"
      ],
      [
        "s",
        "e"
      ],
      [
        "7",
        "8"
      ],
      [
        "9",
        "6"
      ],
      [
        "7",
        "5"
      ],
      [
        "L",
        "a"
      ],
      [
        "Ġ3",
        "1"
      ],
      [
        "Z",
        "m"
      ],
      [
        "Ġ6",
        "4"
      ],
      [
        "La",
        "yer"
      ],
      [
        "pac",
        "e"
      ],
      [
        "6",
        "1"
      ],
      [
        "p",
        "e"
      ],
      [
        "8",
        "0"
      ],
      [
        "7",
        "9"
      ],
      [
        "Ġ3",
        "8"
      ],
      [
        "6",
        "9"
      ],
      [
        "6",
        "2"
      ],
      [
        "Ġ",
        "l"
      ],
      [
        "s",
        "pace"
      ],
      [
        "trans",
        "form"
      ],
      [
        "Ġ4",
        "0"
      ],
      [
        "n",
        "t"
      ],
      [
        "Ġ",
        "transform"
      ],
      [
        "Ġ3",
        "4"
      ],
      [
        "6",
        "3"
      ],
      [
        "8",
        "9"
      ],
      [
        "Ġ3",
        "3"
      ],
      [
        "ar",
        "y"
      ],
      [
        "Ġ3",
        "5"
      ],
      [
        "m",
        "it"
      ],
      [
        "7",
        "2"
      ],
      [
        "7",
        "6"
      ],
      [
        "mit",
        "er"
      ],
      [
        "25",
        "6"
      ],
      [
        "Ġ3",
        "9"
      ],
      [
        "t",
        "s"
      ],
      [
        "im",
        "it"
      ],
      [
        "l",
        "imit"
      ],
      [
        "miter",
        "limit"
      ],
      [
        "p",
        "ol"
      ],
      [
        "pol",
        "y"
      ],
      [
        "Ġ3",
        "7"
      ],
      [
        "Ġ4",
        "2"
      ],
      [
        "Ġ",
        "p"
      ],
      [
        "6",
        "5"
      ],
      [
        "la",
        "te"
      ],
      [
        "ol",
        "or"
      ],
      [
        "trans",
        "late"
      ],
      [
        "d",
        "c"
      ],
      [
        "l",
        "ip"
      ],
      [
        "oin",
        "ts"
      ],
      [
        "Ġp",
        "oints"
      ],
      [
        "P",
        "a"
      ],
      [
        "7",
        "1"
      ],
      [
        "7",
        "3"
      ],
      [
        "Ġ",
        "round"
      ],
      [
        "Ġ4",
        "4"
      ],
      [
        "8",
        "5"
      ],
      [
        "9",
        "0"
      ],
      [
        "7",
        "4"
      ],
      [
        "ĉ",
        "ĉ"
      ],
      [
        "Ġ4",
        "1"
      ],
      [
        "12",
        "8"
      ],
      [
        ")",
        ";"
      ],
      [
        "Ġ",
        "z"
      ],
      [
        ">",
        "<"
      ],
      [
        "8",
        "4"
      ],
      [
        "27",
        "4"
      ],
      [
        "ĠĠĠĠ",
        "ĠĠĠĠĠĠĠĠĠĠĠ"
      ],
      [
        "g",
        "b"
      ],
      [
        "8",
        "7"
      ],
      [
        "9",
        "4"
      ],
      [
        "t",
        "y"
      ],
      [
        "ĠĠĠĠ",
        "Ġ"
      ],
      [
        "ty",
        "pe"
      ],
      [
        "Pa",
        "th"
      ],
      [
        "Ġ4",
        "3"
      ],
      [
        "Ġ5",
        "0"
      ],
      [
        "p",
        "r"
      ],
      [
        "9",
        "2"
      ],
      [
        "8",
        "3"
      ],
      [
        "b",
        "le"
      ],
      [
        "8",
        "6"
      ],
      [
        "pr",
        "im"
      ],
      [
        "prim",
        "ary"
      ],
      [
        "Ġ",
        "s"
      ],
      [
        "c",
        "h"
      ],
      [
        "8",
        "2"
      ],
      [
        "Ġr",
        "gb"
      ],
      [
        "b",
        "a"
      ],
      [
        "8",
        "1"
      ],
      [
        "9",
        "3"
      ],
      [
        "Ġc",
        "lip"
      ],
      [
        "x",
        "t"
      ],
      [
        "=\"",
        "_"
      ],
      [
        "Ġ4",
        "5"
      ],
      [
        "te",
        "xt"
      ],
      [
        ";",
        "\""
      ],
      [
        ")",
        "\""
      ],
      [
        "c",
        "olor"
      ],
      [
        "a",
        "l"
      ],
      [
        "9",
        "5"
      ],
      [
        "9",
        "1"
      ],
      [
        "g",
        "on"
      ],
      [
        "poly",
        "gon"
      ],
      [
        "Ġ4",
        "6"
      ],
      [
        "Ġ",
        "m"
      ],
      [
        "g",
        "e"
      ],
      [
        "Ġ4",
        "7"
      ],
      [
        "in",
        "k"
      ],
      [
        "i",
        "f"
      ],
      [
        "M",
        "id"
      ],
      [
        "Ġ4",
        "9"
      ],
      [
        "o",
        "p"
      ],
      [
        "cap",
        "e"
      ],
      [
        "s",
        "cape"
      ],
      [
        "ink",
        "scape"
      ],
      [
        "29",
        "2"
      ],
      [
        "9",
        "7"
      ],
      [
        "9",
        "8"
      ],
      [
        "n",
        "e"
      ],
      [
        "Ġ2",
        "56"
      ],
      [
        "o",
        "m"
      ],
      [
        "5",
        "12"
      ],
      [
        "o",
        "u"
      ],
      [
        "1",
        "00"
      ],
      [
        "Ġ5",
        "1"
      ],
      [
        "Ġ5",
        "2"
      ],
      [
        "la",
        "t"
      ],
      [
        "a",
        "d"
      ],
      [
        "c",
        "c"
      ],
      [
        "Ġ5",
        "6"
      ],
      [
        "Ġ",
        "ro"
      ],
      [
        "Ġ",
        "type"
      ],
      [
        "s",
        "c"
      ],
      [
        "i",
        "a"
      ],
      [
        "d",
        "f"
      ],
      [
        "Ġ1",
        "00"
      ],
      [
        "at",
        "i"
      ],
      [
        "if",
        "y"
      ],
      [
        "st",
        "op"
      ],
      [
        "Ġ",
        "none"
      ],
      [
        ")",
        "\">"
      ],
      [
        "c",
        "ss"
      ],
      [
        "icon",
        "ify"
      ],
      [
        "1",
        "12"
      ],
      [
        "u",
        "r"
      ],
      [
        "(",
        "-"
      ],
      [
        "ff",
        "ff"
      ],
      [
        "i",
        "c"
      ],
      [
        "_",
        "\""
      ],
      [
        "Ġ5",
        "3"
      ],
      [
        "ba",
        "ck"
      ],
      [
        "g",
        "round"
      ],
      [
        "FF",
        "FF"
      ],
      [
        "back",
        "ground"
      ],
      [
        "e",
        "na"
      ],
      [
        "ena",
        "ble"
      ],
      [
        "Ġ",
        "inkscape"
      ],
      [
        "de",
        "sc"
      ],
      [
        "ne",
        "w"
      ],
      [
        "ke",
        "t"
      ],
      [
        "Ġr",
        "x"
      ],
      [
        "ar",
        "ia"
      ],
      [
        "o",
        "w"
      ],
      [
        "Ġ",
        "\"/>"
      ],
      [
        "10",
        "4"
      ],
      [
        ";}",
        "</"
      ],
      [
        ">",
        "."
      ],
      [
        "at",
        "e"
      ],
      [
        "19",
        "2"
      ],
      [
        "Ġ5",
        "4"
      ],
      [
        "Ġ6",
        "0"
      ],
      [
        "Ġ5",
        "5"
      ],
      [
        "11",
        "4"
      ],
      [
        "11",
        "3"
      ],
      [
        "10",
        "6"
      ],
      [
        "e",
        "e"
      ],
      [
        "i",
        "s"
      ],
      [
        "12",
        "1"
      ],
      [
        "ra",
        "d"
      ],
      [
        "rou",
        "p"
      ],
      [
        "Ġ10",
        "24"
      ],
      [
        "ket",
        "ch"
      ],
      [
        "im",
        "g"
      ],
      [
        "Ġro",
        "le"
      ],
      [
        "c",
        "om"
      ],
      [
        "ap",
        "e"
      ],
      [
        "h",
        "ape"
      ],
      [
        "con",
        "d"
      ],
      [
        "Ġ",
        "enable"
      ],
      [
        "Ġ16",
        "9"
      ],
      [
        "se",
        "cond"
      ],
      [
        "G",
        "roup"
      ],
      [
        "Ġ5",
        "7"
      ],
      [
        "ie",
        "nt"
      ],
      [
        "second",
        "ary"
      ],
      [
        "t",
        "ru"
      ],
      [
        "10",
        "2"
      ],
      [
        "Ġ",
        "f"
      ],
      [
        "z",
        "e"
      ],
      [
        "tru",
        "e"
      ],
      [
        "-",
        "-"
      ],
      [
        "m",
        "o"
      ],
      [
        "poly",
        "line"
      ],
      [
        "a",
        "n"
      ],
      [
        "Ġ7",
        "6"
      ],
      [
        "00",
        "1"
      ],
      [
        "10",
        "8"
      ],
      [
        "Ġ",
        "S"
      ],
      [
        ";",
        "\"/>"
      ],
      [
        "Ġ5",
        "8"
      ],
      [
        "14",
        "4"
      ],
      [
        "33",
        "33"
      ],
      [
        "Ġ18",
        "8"
      ],
      [
        "10",
        "5"
      ],
      [
        "10",
        "3"
      ],
      [
        "12",
        "0"
      ],
      [
        ";",
        "\"/><"
      ],
      [
        "cl",
        "ip"
      ],
      [
        "s",
        "pe"
      ],
      [
        "2",
        "12"
      ],
      [
        "ur",
        "l"
      ],
      [
        "s",
        "h"
      ],
      [
        "20",
        "8"
      ],
      [
        "Ġ",
        "opacity"
      ],
      [
        "10",
        "7"
      ],
      [
        "e",
        "t"
      ],
      [
        "e",
        "ct"
      ],
      [
        "0",
        "9"
      ],
      [
        "rad",
        "ient"
      ],
      [
        "Ġ7",
        "2"
      ],
      [
        "ati",
        "o"
      ],
      [
        "spe",
        "ct"
      ],
      [
        "R",
        "atio"
      ],
      [
        "A",
        "spect"
      ],
      [
        "Ġ",
        "preserve"
      ],
      [
        "Aspect",
        "Ratio"
      ],
      [
        "Ġpreserve",
        "AspectRatio"
      ],
      [
        "=\"",
        "-"
      ],
      [
        "Ġ6",
        "2"
      ],
      [
        "11",
        "6"
      ],
      [
        "10",
        "1"
      ],
      [
        "Ġ12",
        "8"
      ],
      [
        "e",
        "l"
      ],
      [
        "10",
        "9"
      ],
      [
        "0",
        "2"
      ],
      [
        "13",
        "6"
      ],
      [
        "Ġ",
        "aria"
      ],
      [
        "2",
        "16"
      ],
      [
        "23",
        "1"
      ],
      [
        "16",
        "0"
      ],
      [
        "it",
        "e"
      ],
      [
        ">",
        "</"
      ],
      [
        "Ġ5",
        "9"
      ],
      [
        "12",
        "4"
      ],
      [
        "17",
        "6"
      ],
      [
        "11",
        "1"
      ],
      [
        "24",
        "1"
      ],
      [
        "11",
        "8"
      ],
      [
        "11",
        "5"
      ],
      [
        "p",
        "h"
      ],
      [
        ";}",
        "."
      ],
      [
        "11",
        "9"
      ],
      [
        "Y",
        "Mid"
      ],
      [
        "x",
        "Mid"
      ],
      [
        "xMid",
        "YMid"
      ],
      [
        "Ġ6",
        "1"
      ],
      [
        "12",
        "5"
      ],
      [
        "de",
        "n"
      ],
      [
        "in",
        "e"
      ],
      [
        "23",
        "2"
      ],
      [
        "w",
        "h"
      ],
      [
        "id",
        "den"
      ],
      [
        "18",
        "4"
      ],
      [
        "11",
        "7"
      ],
      [
        "h",
        "idden"
      ],
      [
        "15",
        "2"
      ],
      [
        "wh",
        "ite"
      ],
      [
        "16",
        "8"
      ],
      [
        "r",
        "df"
      ],
      [
        "12",
        "6"
      ],
      [
        "0",
        "5"
      ],
      [
        "I",
        "con"
      ],
      [
        "0",
        "6"
      ],
      [
        "S",
        "hape"
      ],
      [
        "12",
        "7"
      ],
      [
        "Ġ9",
        "6"
      ],
      [
        "F",
        "lat"
      ],
      [
        "12",
        "3"
      ],
      [
        "0",
        "8"
      ],
      [
        "e",
        "mo"
      ],
      [
        "1",
        "10"
      ],
      [
        "ze",
        "ro"
      ],
      [
        "non",
        "zero"
      ],
      [
        "emo",
        "j"
      ],
      [
        "12",
        "2"
      ],
      [
        "22",
        "4"
      ],
      [
        "r",
        "i"
      ],
      [
        "Ġ",
        "me"
      ],
      [
        "0",
        "7"
      ],
      [
        "o",
        "ff"
      ],
      [
        "Ġme",
        "et"
      ],
      [
        "Ġ",
        "00"
      ],
      [
        "l",
        "y"
      ],
      [
        "13",
        "2"
      ],
      [
        "l",
        "o"
      ],
      [
        "Ġ8",
        "0"
      ],
      [
        "15",
        "3"
      ],
      [
        "2",
        "13"
      ],
      [
        "Ġ7",
        "0"
      ],
      [
        "se",
        "t"
      ],
      [
        "Ġ6",
        "3"
      ],
      [
        "13",
        "5"
      ],
      [
        "12",
        "9"
      ],
      [
        "Ġ6",
        "5"
      ],
      [
        "13",
        "4"
      ],
      [
        "0",
        "1"
      ],
      [
        "14",
        "1"
      ],
      [
        "13",
        "7"
      ],
      [
        "20",
        "2"
      ],
      [
        "14",
        "9"
      ],
      [
        "17",
        "0"
      ],
      [
        "16",
        "6"
      ],
      [
        "14",
        "6"
      ],
      [
        "14",
        "3"
      ],
      [
        "16",
        "4"
      ],
      [
        "13",
        "3"
      ],
      [
        "13",
        "0"
      ],
      [
        "ee",
        "n"
      ],
      [
        "13",
        "8"
      ],
      [
        "38",
        "4"
      ],
      [
        "15",
        "6"
      ],
      [
        "13",
        "1"
      ],
      [
        "lip",
        "se"
      ],
      [
        "17",
        "2"
      ],
      [
        "13",
        "9"
      ],
      [
        "14",
        "0"
      ],
      [
        "14",
        "2"
      ],
      [
        "14",
        "8"
      ],
      [
        "ly",
        "ph"
      ],
      [
        "g",
        "le"
      ],
      [
        "Ġ8",
        "5"
      ],
      [
        "14",
        "5"
      ],
      [
        "g",
        "lyph"
      ],
      [
        "Ġ",
        "iconify"
      ],
      [
        "3",
        "23"
      ],
      [
        "15",
        "7"
      ],
      [
        "orm",
        "al"
      ],
      [
        "n",
        "ormal"
      ],
      [
        "15",
        "8"
      ],
      [
        "17",
        "4"
      ],
      [
        "line",
        "ar"
      ],
      [
        "ffff",
        "ff"
      ],
      [
        "00",
        "2"
      ],
      [
        "18",
        "8"
      ],
      [
        "17",
        "3"
      ],
      [
        "on",
        "t"
      ],
      [
        "rc",
        "e"
      ],
      [
        "ou",
        "rce"
      ],
      [
        "C",
        "C"
      ],
      [
        "an",
        "gle"
      ],
      [
        "15",
        "4"
      ],
      [
        "c",
        "re"
      ],
      [
        "22",
        "22"
      ],
      [
        "18",
        "0"
      ],
      [
        "me",
        "t"
      ],
      [
        "Ġr",
        "y"
      ],
      [
        "16",
        "2"
      ],
      [
        "off",
        "set"
      ],
      [
        "14",
        "7"
      ],
      [
        "od",
        "i"
      ],
      [
        "od",
        "ip"
      ],
      [
        "odip",
        "odi"
      ],
      [
        "20",
        "4"
      ],
      [
        "15",
        "9"
      ],
      [
        "16",
        "7"
      ],
      [
        "Ġ7",
        "1"
      ],
      [
        "Ġ6",
        "6"
      ],
      [
        "17",
        "8"
      ],
      [
        "t",
        "o"
      ],
      [
        "0",
        "3"
      ],
      [
        "Ġ7",
        "3"
      ],
      [
        "44",
        "8"
      ],
      [
        "ou",
        "t"
      ],
      [
        "16",
        "9"
      ],
      [
        "Ġ6",
        "8"
      ],
      [
        "22",
        "8"
      ],
      [
        "0",
        "4"
      ],
      [
        "18",
        "2"
      ],
      [
        "FFFF",
        "FF"
      ],
      [
        "15",
        "1"
      ],
      [
        "15",
        "5"
      ],
      [
        "17",
        "9"
      ],
      [
        "25",
        "5"
      ],
      [
        "24",
        "4"
      ],
      [
        "17",
        "5"
      ],
      [
        "23",
        "4"
      ],
      [
        "Ġ7",
        "4"
      ],
      [
        "18",
        "6"
      ],
      [
        "Ġ6",
        "7"
      ],
      [
        "s",
        "ource"
      ],
      [
        "G",
        "radient"
      ],
      [
        "17",
        "7"
      ],
      [
        "16",
        "5"
      ],
      [
        "s",
        "i"
      ],
      [
        "19",
        "6"
      ],
      [
        "20",
        "7"
      ],
      [
        "24",
        "8"
      ],
      [
        "17",
        "1"
      ],
      [
        "t",
        "w"
      ],
      [
        "16",
        "1"
      ],
      [
        "22",
        "5"
      ],
      [
        "28",
        "8"
      ],
      [
        "R",
        "ect"
      ],
      [
        "Rect",
        "angle"
      ],
      [
        ";",
        "\"/></"
      ],
      [
        "m",
        "a"
      ],
      [
        "Ġ6",
        "9"
      ],
      [
        "m",
        "on"
      ],
      [
        "Ġ7",
        "5"
      ],
      [
        "ĠC",
        "olor"
      ],
      [
        "el",
        "lipse"
      ],
      [
        "44",
        "4"
      ],
      [
        "18",
        "1"
      ],
      [
        "19",
        "7"
      ],
      [
        "2",
        "23"
      ],
      [
        "16",
        "3"
      ],
      [
        "ĠĠĠĠ",
        "ĠĠĠĠĠĠĠĠĠĠĠĠĠĠĠ"
      ],
      [
        "18",
        "5"
      ],
      [
        "19",
        "3"
      ],
      [
        "19",
        "8"
      ],
      [
        "24",
        "0"
      ],
      [
        "18",
        "3"
      ],
      [
        "f",
        "ont"
      ],
      [
        "Ġ9",
        "2"
      ],
      [
        "15",
        "0"
      ],
      [
        "24",
        "6"
      ],
      [
        "(",
        "#"
      ],
      [
        "35",
        "2"
      ],
      [
        "3",
        "20"
      ],
      [
        "19",
        "5"
      ],
      [
        "Ġ8",
        "1"
      ],
      [
        "2",
        "14"
      ],
      [
        "ri",
        "x"
      ],
      [
        "d",
        "a"
      ],
      [
        "at",
        "rix"
      ],
      [
        "ĠĠĠĠ",
        "Ċ"
      ],
      [
        "Ġ",
        "offset"
      ],
      [
        "20",
        "6"
      ],
      [
        "ar",
        "t"
      ],
      [
        "s",
        "k"
      ],
      [
        "19",
        "1"
      ],
      [
        "18",
        "7"
      ],
      [
        "2",
        "19"
      ],
      [
        "25",
        "4"
      ],
      [
        "2",
        "17"
      ],
      [
        "3",
        "44"
      ],
      [
        "2",
        "15"
      ],
      [
        "emoj",
        "i"
      ],
      [
        "2",
        "20"
      ],
      [
        "Ġ0",
        "1"
      ],
      [
        "Ġ7",
        "9"
      ],
      [
        "s",
        "odipodi"
      ],
      [
        "22",
        "2"
      ],
      [
        "20",
        "5"
      ],
      [
        "19",
        "4"
      ],
      [
        "Ġ8",
        "4"
      ],
      [
        "20",
        "3"
      ],
      [
        "m",
        "atrix"
      ],
      [
        "Ġ7",
        "8"
      ],
      [
        "2",
        "11"
      ],
      [
        "20",
        "9"
      ],
      [
        "4",
        "34"
      ],
      [
        "33",
        "3"
      ],
      [
        "I",
        "D"
      ],
      [
        "22",
        "6"
      ],
      [
        "18",
        "9"
      ],
      [
        "33",
        "6"
      ],
      [
        "27",
        "7"
      ],
      [
        "L",
        "ine"
      ],
      [
        "w",
        "i"
      ],
      [
        "2",
        "18"
      ],
      [
        "Ġ9",
        "0"
      ],
      [
        "25",
        "2"
      ],
      [
        "29",
        "3"
      ],
      [
        "#",
        "\""
      ],
      [
        "Ġ8",
        "3"
      ],
      [
        "o",
        "c"
      ],
      [
        "Ġ",
        "A"
      ],
      [
        "Icon",
        "s"
      ],
      [
        "Ġ7",
        "7"
      ],
      [
        "19",
        "9"
      ],
      [
        "36",
        "3"
      ],
      [
        "d",
        "ow"
      ],
      [
        "wi",
        "th"
      ],
      [
        ")",
        "\"/>"
      ],
      [
        "D",
        "F"
      ],
      [
        "22",
        "9"
      ],
      [
        "Ġf",
        "lat"
      ],
      [
        "icon",
        "s"
      ],
      [
        "at",
        "ion"
      ],
      [
        "Ġ8",
        "6"
      ],
      [
        "29",
        "8"
      ],
      [
        "34",
        "1"
      ],
      [
        "ĉĉ",
        "ĉ"
      ],
      [
        "Ġ19",
        "2"
      ],
      [
        "32",
        "8"
      ],
      [
        "Ġ8",
        "9"
      ],
      [
        "Ġ8",
        "8"
      ],
      [
        "Ġ8",
        "2"
      ],
      [
        "34",
        "3"
      ],
      [
        "Ġ9",
        "1"
      ],
      [
        "20",
        "1"
      ],
      [
        "Ġ16",
        "0"
      ],
      [
        "C",
        "re"
      ],
      [
        "Ġ8",
        "7"
      ],
      [
        "24",
        "3"
      ],
      [
        "22",
        "7"
      ],
      [
        "Ġ",
        "with"
      ],
      [
        "ate",
        "d"
      ],
      [
        "3333",
        "33"
      ],
      [
        ".",
        "</"
      ],
      [
        "in",
        "t"
      ],
      [
        "Cre",
        "ated"
      ],
      [
        "Ġr",
        "df"
      ],
      [
        "24",
        "7"
      ],
      [
        "Ġ9",
        "5"
      ],
      [
        "Ġ",
        "g"
      ],
      [
        "23",
        "3"
      ],
      [
        "23",
        "6"
      ],
      [
        "c",
        "e"
      ],
      [
        "22",
        "1"
      ],
      [
        "25",
        "3"
      ],
      [
        "24",
[...]
