{
  "version": "1.0",
  "truncation": null,
  "padding": null,
  "added_tokens": [
    {
      "id": 0,
      "content": "<|endoftext|>",
      "single_word": false,
      "lstrip": false,
      "rstrip": false,
      "normalized": false,
      "special": true
    },
    {
      "id": 1,
      "content": "<unk>",
      "single_word": false,
      "lstrip": false,
      "rstrip": false,
      "normalized": false,
      "special": true
    }
  ],
  "normalizer": null,
  "pre_tokenizer": {
    "type": "ByteLevel",
    "add_prefix_space": false,
    "trim_offsets": true,
    "use_regex": true
  },
  "post_processor": null,
  "decoder": {
    "type": "ByteLevel",
    "add_prefix_space": true,
    "trim_offsets": true,
    "use_regex": true
  },
  "model": {
    "type": "BPE",
    "dropout": null,
    "unk_token": "<unk>",
    "continuing_subword_prefix": null,
    "end_of_word_suffix": null,
    "fuse_unk": false,
    "byte_fallback": false,
    "ignore_merges": false,
    "vocab": {
      "<|endoftext|>": 0,
      "<unk>": 1,
      "!": 2,
      "\"": 3,
      "#": 4,
      "$": 5,
      "%": 6,
      "&": 7,
      "'": 8,
      "(": 9,
      ")": 10,
      "*": 11,
      "+": 12,
      ",": 13,
      "-": 14,
      ".": 15,
      "/": 16,
      "0": 17,
      "1": 18,
      "2": 19,
      "3": 20,
      "4": 21,
      "5": 22,
      "6": 23,
      "7": 24,
      "8": 25,
      "9": 26,
      ":": 27,
      ";": 28,
      "<": 29,
      "=": 30,
      ">": 31,
      "?": 32,
      "@": 33,
      "A": 34,
      "B": 35,
      "C": 36,
      "D": 37,
      "E": 38,
      "F": 39,
      "G": 40,
      "H": 41,
      "I": 42,
      "J": 43,
      "K": 44,
      "L": 45,
      "M": 46,
      "N": 47,
      "O": 48,
      "P": 49,
      "Q": 50,
      "R": 51,
      "S": 52,
      "T": 53,
      "U": 54,
      "V": 55,
      "W": 56,
      "X": 57,
      "Y": 58,
      "Z": 59,
      "[": 60,
      "\\": 61,
      "]": 62,
      "_": 63,
      "`": 64,
      "a": 65,
      "b": 66,
      "c": 67,
      "d": 68,
      "e": 69,
      "f": 70,
      "g": 71,
      "h": 72,
      "i": 73,
      "j": 74,
      "k": 75,
      "l": 76,
      "m": 77,
      "n": 78,
      "o": 79,
      "p": 80,
      "q": 81,
      "r": 82,
      "s": 83,
      "t": 84,
      "u": 85,
      "v": 86,
      "w": 87,
      "x": 88,
      "y": 89,
      "z": 90,
      "{": 91,
      "}": 92,
      "¡": 93,
      "¢": 94,
      "£": 95,
      "¤": 96,
      "¥": 97,
      "¦": 98,
      "§": 99,
      "¨": 100,
      "©": 101,
      "ª": 102,
      "«": 103,
      "¬": 104,
      "®": 105,
      "¯": 106,
      "°": 107,
      "±": 108,
      "²": 109,
      "³": 110,
      "´": 111,
      "µ": 112,
      "¶": 113,
      "·": 114,
      "¸": 115,
      "¹": 116,
      "º": 117,
      "»": 118,
      "¼": 119,
      "½": 120,
      "¾": 121,
      "¿": 122,
      "Â": 123,
      "Ã": 124,
      "Å": 125,
      "Î": 126,
      "Ð": 127,
      "Ñ": 128,
      "Ù": 129,
      "â": 130,
      "ã": 131,
      "ä": 132,
      "å": 133,
      "æ": 134,
      "ç": 135,
      "è": 136,
      "é": 137,
      "ï": 138,
      "ð": 139,
      "ĉ": 140,
      "Ċ": 141,
      "Ġ": 142,
      "Ģ": 143,
      "ģ": 144,
      "Ĥ": 145,
      "ĥ": 146,
      "Ħ": 147,
      "ħ": 148,
      "Ĩ": 149,
      "ĩ": 150,
      "Ī": 151,
      "ī": 152,
      "Ĭ": 153,
      "ĭ": 154,
      "Į": 155,
      "į": 156,
      "İ": 157,
      "ı": 158,
      "Ĳ": 159,
      "ĳ": 160,
      "Ĵ": 161,
      "ĵ": 162,
      "Ķ": 163,
      "ķ": 164,
      "ĸ": 165,
      "Ĺ": 166,
      "ĺ": 167,
      "Ļ": 168,
      "ļ": 169,
      "Ľ": 170,
      "ľ": 171,
      "Ŀ": 172,
      "ŀ": 173,
      "Ł": 174,
      "ł": 175,
      "Ń": 176,
      "Ġ1": 177,
      "=\"": 178,
      "ĠL": 179,
      "ro": 180,
      "st": 181,
      "ke": 182,
      "roke": 183,
      "stroke": 184,
      "Ġstroke": 185,
      "th": 186,
      "00": 187,
      "Ġ2": 188,
      "ĠC": 189,
      "pa": 190,
      "il": 191,
      "fil": 192,
      "fill": 193,
      "Ġfill": 194,
      "Ġ0": 195,
      "ĠĠ": 196,
      "id": 197,
      "/>": 198,
      "\"/>": 199,
      "Ġ12": 200,
      "in": 201,
      "Ġ10": 202,
      "Ġ9": 203,
      "Ġ11": 204,
      "Ġ8": 205,
      "path": 206,
      "Ġd": 207,
      "Ġ13": 208,
      "12": 209,
      "Ġ14": 210,
      "Ġ7": 211,
      "Ġ15": 212,
      "idth": 213,
      "width": 214,
      "Ġ6": 215,
      "-.": 216,
      "Ġ16": 217,
      "Ġ3": 218,
      "10": 219,
      "on": 220,
      "Ġ5": 221,
      "Ġ4": 222,
      "11": 223,
      "13": 224,
      "la": 225,
      "Ġ17": 226,
      "vg": 227,
      "svg": 228,
      "it": 229,
      "14": 230,
      "non": 231,
      "16": 232,
      "none": 233,
      "15": 234,
      "pac": 235,
      "ht": 236,
      "Ġ18": 237,
      "ww": 238,
      "ity": 239,
      "pacity": 240,
      "opacity": 241,
      "ck": 242,
      "ing": 243,
      "17": 244,
      "=\".": 245,
      "lack": 246,
      "black": 247,
      "Ġfilling": 248,
      "</": 249,
      "px": 250,
      "18": 251,
      "Ġc": 252,
      "19": 253,
      "Ġx": 254,
      "Ġ19": 255,
      "or": 256,
      "200": 257,
      "\">": 258,
      "ns": 259,
      "lin": 260,
      "20": 261,
      "ĠĠĠĠ": 262,
      "ml": 263,
      "0000": 264,
      "Ġxml": 265,
      "le": 266,
      "800": 267,
      "Ġ24": 268,
      "=\"#": 269,
      "Ġ20": 270,
      "htt": 271,
      "http": 272,
      "//": 273,
      "://": 274,
      "org": 275,
      "Ġxmlns": 276,
      "Ġv": 277,
      "www": 278,
      "ig": 279,
      "Ġh": 280,
      "ight": 281,
      "eight": 282,
      "Ġheight": 283,
      "Ġwidth": 284,
      "23": 285,
      "line": 286,
      "22": 287,
      "ie": 288,
      "24": 289,
      "iew": 290,
      "2000": 291,
      "ox": 292,
      "Box": 293,
      "Ġview": 294,
      "ĠviewBox": 295,
      "rou": 296,
      "21": 297,
      "nd": 298,
      "Ġid": 299,
      "round": 300,
      "Ġ21": 301,
      "ĠĠĠ": 302,
      "25": 303,
      "Ġ-": 304,
      "er": 305,
      "Ġ<": 306,
      "27": 307,
      "ss": 308,
      "32": 309,
      "000000": 310,
      "28": 311,
      "26": 312,
      "29": 313,
      "Ġ22": 314,
      "33": 315,
      "lass": 316,
      "Ġclass": 317,
      ",-": 318,
      "ap": 319,
      "30": 320,
      "ĠM": 321,
      "\"/><": 322,
      "sty": 323,
      "style": 324,
      "36": 325,
      "oin": 326,
      "re": 327,
      "44": 328,
      "cap": 329,
      "\"/></": 330,
      "\"><": 331,
      "34": 332,
      "35": 333,
      "38": 334,
      "37": 335,
      ":#": 336,
      "linecap": 337,
      "39": 338,
      "ve": 339,
      "Ġy": 340,
      "48": 341,
      "join": 342,
      "linejoin": 343,
      "link": 344,
      "31": 345,
      "xlink": 346,
      "40": 347,
      "at": 348,
      "99": 349,
      "Ġ32": 350,
      "45": 351,
      "ZM": 352,
      "46": 353,
      "56": 354,
      "47": 355,
      "ra": 356,
      "Ġstyle": 357,
      "cl": 358,
      "Ġr": 359,
      "ĠĠĠĠĠĠĠ": 360,
      "ru": 361,
      "ct": 362,
      "de": 363,
      "49": 364,
      "42": 365,
      ",.": 366,
      "zm": 367,
      "od": 368,
      "ion": 369,
      "ar": 370,
      "me": 371,
      "50": 372,
      "55": 373,
      "41": 374,
      "Ġ.": 375,
      "cls": 376,
      "im": 377,
      "rans": 378,
      "rule": 379,
      "ol": 380,
      "57": 381,
      "43": 382,
      "Ġ23": 383,
      "ĠZ": 384,
      "trans": 385,
      "na": 386,
      "con": 387,
      "58": 388,
      "eve": 389,
      ";}": 390,
      "even": 391,
      "Ġ26": 392,
      "odd": 393,
      "evenodd": 394,
      "Ġ28": 395,
      "Ġ25": 396,
      "ers": 397,
      "ersion": 398,
      "66": 399,
      "1999": 400,
      "59": 401,
      "Ġversion": 402,
      "te": 403,
      "FF": 404,
      "Ġ</": 405,
      "Ġ27": 406,
      "64": 407,
      "itle": 408,
      "ff": 409,
      "52": 410,
      "title": 411,
      "zM": 412,
      "60": 413,
      "Ġ48": 414,
      "Ġ30": 415,
      "rect": 416,
      "54": 417,
      "Ġ29": 418,
      "ata": 419,
      "51": 420,
      "ser": 421,
      "53": 422,
      "68": 423,
      "name": 424,
      "ip": 425,
      "rc": 426,
      "orm": 427,
      "67": 428,
      "Ġ36": 429,
      "Ġdata": 430,
      "88": 431,
      "Ġ512": 432,
      "ĠĠĠĠĠĠĠĠĠĠĠ": 433,
      "ci": 434,
      "def": 435,
      "defs": 436,
      "pre": 437,
      "serve": 438,
      "preserve": 439,
      "yer": 440,
      "Ġcy": 441,
      "Ġcx": 442,
      "77": 443,
      "rcle": 444,
      "circle": 445,
      "icon": 446,
      "form": 447,
      "70": 448,
      "se": 449,
      "78": 450,
      "96": 451,
      "75": 452,
      "La": 453,
      "Ġ31": 454,
      "Zm": 455,
      "Ġ64": 456,
      "Layer": 457,
      "pace": 458,
      "61": 459,
      "pe": 460,
      "80": 461,
      "79": 462,
      "Ġ38": 463,
      "69": 464,
      "62": 465,
      "Ġl": 466,
      "space": 467,
      "transform": 468,
      "Ġ40": 469,
      "nt": 470,
      "Ġtransform": 471,
      "Ġ34": 472,
      "63": 473,
      "89": 474,
      "Ġ33": 475,
      "ary": 476,
      "Ġ35": 477,
      "mit": 478,
      "72": 479,
      "76": 480,
      "miter": 481,
      "256": 482,
      "Ġ39": 483,
      "ts": 484,
      "imit": 485,
      "limit": 486,
      "miterlimit": 487,
      "pol": 488,
      "poly": 489,
      "Ġ37": 490,
      "Ġ42": 491,
      "Ġp": 492,
      "65": 493,
      "late": 494,
      "olor": 495,
      "translate": 496,
      "dc": 497,
      "lip": 498,
      "oints": 499,
      "Ġpoints": 500,
      "Pa": 501,
      "71": 502,
      "73": 503,
      "Ġround": 504,
      "Ġ44": 505,
      "85": 506,
      "90": 507,
      "74": 508,
      "ĉĉ": 509,
      "Ġ41": 510,
      "128": 511,
      ");": 512,
      "Ġz": 513,
      "><": 514,
      "84": 515,
      "274": 516,
      "ĠĠĠĠĠĠĠĠĠĠĠĠĠĠĠ": 517,
      "gb": 518,
      "87": 519,
      "94": 520,
      "ty": 521,
      "ĠĠĠĠĠ": 522,
      "type": 523,
      "Path": 524,
      "Ġ43": 525,
      "Ġ50": 526,
      "pr": 527,
      "92": 528,
      "83": 529,
      "ble": 530,
      "86": 531,
      "prim": 532,
      "primary": 533,
      "Ġs": 534,
      "ch": 535,
      "82": 536,
      "Ġrgb": 537,
      "ba": 538,
      "81": 539,
      "93": 540,
      "Ġclip": 541,
      "xt": 542,
      "=\"_": 543,
      "Ġ45": 544,
      "text": 545,
      ";\"": 546,
      ")\"": 547,
      "color": 548,
      "al": 549,
      "95": 550,
      "91": 551,
      "gon": 552,
      "polygon": 553,
      "Ġ46": 554,
      "Ġm": 555,
      "ge": 556,
      "Ġ47": 557,
      "ink": 558,
      "if": 559,
      "Mid": 560,
      "Ġ49": 561,
      "op": 562,
      "cape": 563,
      "scape": 564,
      "inkscape": 565,
      "292": 566,
      "97": 567,
      "98": 568,
      "ne": 569,
      "Ġ256": 570,
      "om": 571,
      "512": 572,
      "ou": 573,
      "100": 574,
      "Ġ51": 575,
      "Ġ52": 576,
      "lat": 577,
      "ad": 578,
      "cc": 579,
      "Ġ56": 580,
      "Ġro": 581,
      "Ġtype": 582,
      "sc": 583,
      "ia": 584,
      "df": 585,
      "Ġ100": 586,
      "ati": 587,
      "ify": 588,
      "stop": 589,
      "Ġnone": 590,
      ")\">": 591,
      "css": 592,
      "iconify": 593,
      "112": 594,
      "ur": 595,
      "(-": 596,
      "ffff": 597,
      "ic": 598,
      "_\"": 599,
      "Ġ53": 600,
      "back": 601,
      "ground": 602,
      "FFFF": 603,
      "background": 604,
      "ena": 605,
      "enable": 606,
      "Ġinkscape": 607,
      "desc": 608,
      "new": 609,
      "ket": 610,
      "Ġrx": 611,
      "aria": 612,
      "ow": 613,
      "Ġ\"/>": 614,
      "104": 615,
      ";}</": 616,
      ">.": 617,
      "ate": 618,
      "192": 619,
      "Ġ54": 620,
      "Ġ60": 621,
      "Ġ55": 622,
      "114": 623,
      "113": 624,
      "106": 625,
      "ee": 626,
      "is": 627,
      "121": 628,
      "rad": 629,
      "roup": 630,
      "Ġ1024": 631,
      "ketch": 632,
      "img": 633,
      "Ġrole": 634,
      "com": 635,
      "ape": 636,
      "hape": 637,
      "cond": 638,
      "Ġenable": 639,
      "Ġ169": 640,
      "second": 641,
      "Group": 642,
      "Ġ57": 643,
      "ient": 644,
      "secondary": 645,
      "tru": 646,
      "102": 647,
      "Ġf": 648,
      "ze": 649,
      "true": 650,
      "--": 651,
      "mo": 652,
      "polyline": 653,
      "an": 654,
      "Ġ76": 655,
      "001": 656,
      "108": 657,
      "ĠS": 658,
      ";\"/>": 659,
      "Ġ58": 660,
      "144": 661,
      "3333": 662,
      "Ġ188": 663,
      "105": 664,
      "103": 665,
      "120": 666,
      ";\"/><": 667,
      "clip": 668,
      "spe": 669,
      "212": 670,
      "url": 671,
      "sh": 672,
      "208": 673,
      "Ġopacity": 674,
      "107": 675,
      "et": 676,
      "ect": 677,
      "09": 678,
      "radient": 679,
      "Ġ72": 680,
      "atio": 681,
      "spect": 682,
      "Ratio": 683,
      "Aspect": 684,
      "Ġpreserve": 685,
      "AspectRatio": 686,
      "ĠpreserveAspectRatio": 687,
      "=\"-": 688,
      "Ġ62": 689,
      "116": 690,
      "101": 691,
      "Ġ128": 692,
      "el": 693,
      "109": 694,
      "02": 695,
      "136": 696,
      "Ġaria": 697,
      "216": 698,
      "231": 699,
      "160": 700,
      "ite": 701,
      "></": 702,
      "Ġ59": 703,
      "124": 704,
      "176": 705,
      "111": 706,
      "241": 707,
      "118": 708,
      "115": 709,
      "ph": 710,
      ";}.": 711,
      "119": 712,
      "YMid": 713,
      "xMid": 714,
      "xMidYMid": 715,
      "Ġ61": 716,
      "125": 717,
      "den": 718,
      "ine": 719,
      "232": 720,
      "wh": 721,
      "idden": 722,
      "184": 723,
      "117": 724,
      "hidden": 725,
      "152": 726,
      "white": 727,
      "168": 728,
      "rdf": 729,
      "126": 730,
      "05": 731,
      "Icon": 732,
      "06": 733,
      "Shape": 734,
      "127": 735,
      "Ġ96": 736,
      "Flat": 737,
      "123": 738,
      "08": 739,
      "emo": 740,
      "110": 741,
      "zero": 742,
      "nonzero": 743,
      "emoj": 744,
      "122": 745,
      "224": 746,
      "ri": 747,
      "Ġme": 748,
      "07": 749,
      "off": 750,
      "Ġmeet": 751,
      "Ġ00": 752,
      "ly": 753,
      "132": 754,
      "lo": 755,
      "Ġ80": 756,
      "153": 757,
      "213": 758,
      "Ġ70": 759,
      "set": 760,
      "Ġ63": 761,
      "135": 762,
      "129": 763,
      "Ġ65": 764,
      "134": 765,
      "01": 766,
      "141": 767,
      "137": 768,
      "202": 769,
      "149": 770,
      "170": 771,
      "166": 772,
      "146": 773,
      "143": 774,
      "164": 775,
      "133": 776,
      "130": 777,
      "een": 778,
      "138": 779,
      "384": 780,
      "156": 781,
      "131": 782,
      "lipse": 783,
      "172": 784,
      "139": 785,
      "140": 786,
      "142": 787,
      "148": 788,
      "lyph": 789,
      "gle": 790,
      "Ġ85": 791,
      "145": 792,
      "glyph": 793,
      "Ġiconify": 794,
      "323": 795,
      "157": 796,
      "ormal": 797,
      "normal": 798,
      "158": 799,
      "174": 800,
      "linear": 801,
      "ffffff": 802,
      "002": 803,
      "188": 804,
      "173": 805,
      "ont": 806,
      "rce": 807,
      "ource": 808,
      "CC": 809,
      "angle": 810,
      "154": 811,
      "cre": 812,
      "2222": 813,
      "180": 814,
      "met": 815,
      "Ġry": 816,
      "162": 817,
      "offset": 818,
      "147": 819,
      "odi": 820,
      "odip": 821,
      "odipodi": 822,
      "204": 823,
      "159": 824,
      "167": 825,
      "Ġ71": 826,
      "Ġ66": 827,
      "178": 828,
      "to": 829,
      "03": 830,
      "Ġ73": 831,
      "448": 832,
      "out": 833,
      "169": 834,
      "Ġ68": 835,
      "228": 836,
      "04": 837,
      "182": 838,
      "FFFFFF": 839,
      "151": 840,
      "155": 841,
      "179": 842,
      "255": 843,
      "244": 844,
      "175": 845,
      "234": 846,
      "Ġ74": 847,
      "186": 848,
      "Ġ67": 849,
      "source": 850,
      "Gradient": 851,
      "177": 852,
      "165": 853,
      "si": 854,
      "196": 855,
      "207": 856,
      "248": 857,
      "171": 858,
      "tw": 859,
      "161": 860,
      "225": 861,
      "288": 862,
      "Rect": 863,
      "Rectangle": 864,
      ";\"/></": 865,
      "ma": 866,
      "Ġ69": 867,
      "mon": 868,
      "Ġ75": 869,
      "ĠColor": 870,
      "ellipse": 871,
      "444": 872,
      "181": 873,
      "197": 874,
      "223": 875,
      "163": 876,
      "ĠĠĠĠĠĠĠĠĠĠĠĠĠĠĠĠĠĠĠ": 877,
      "185": 878,
      "193": 879,
      "198": 880,
      "240": 881,
      "183": 882,
      "font": 883,
      "Ġ92": 884,
      "150": 885,
      "246": 886,
      "(#": 887,
      "352": 888,
      "320": 889,
      "195": 890,
      "Ġ81": 891,
      "214": 892,
      "rix": 893,
      "da": 894,
      "atrix": 895,
      "ĠĠĠĠĊ": 896,
      "Ġoffset": 897,
      "206": 898,
      "art": 899,
      "sk": 900,
      "191": 901,
      "187": 902,
      "219": 903,
      "254": 904,
      "217": 905,
      "344": 906,
      "215": 907,
      "emoji": 908,
      "220": 909,
      "Ġ01": 910,
      "Ġ79": 911,
      "sodipodi": 912,
      "222": 913,
      "205": 914,
      "194": 915,
      "Ġ84": 916,
      "203": 917,
      "matrix": 918,
      "Ġ78": 919,
      "211": 920,
      "209": 921,
      "434": 922,
      "333": 923,
      "ID": 924,
      "226": 925,
      "189": 926,
      "336": 927,
      "277": 928,
      "Line": 929,
      "wi": 930,
      "218": 931,
      "Ġ90": 932,
      "252": 933,
      "293": 934,
      "#\"": 935,
      "Ġ83": 936,
      "oc": 937,
      "ĠA": 938,
      "Icons": 939,
      "Ġ77": 940,
      "199": 941,
      "363": 942,
      "dow": 943,
      "with": 944,
      ")\"/>": 945,
      "DF": 946,
      "229": 947,
      "Ġflat": 948,
      "icons": 949,
      "ation": 950,
      "Ġ86": 951,
      "298": 952,
      "341": 953,
      "ĉĉĉ": 954,
      "Ġ192": 955,
      "328": 956,
      "Ġ89": 957,
      "Ġ88": 958,
      "Ġ82": 959,
      "343": 960,
      "Ġ91": 961,
      "201": 962,
      "Ġ160": 963,
      "Cre": 964,
      "Ġ87": 965,
      "243": 966,
      "227": 967,
      "Ġwith": 968,
      "ated": 969,
      "333333": 970,
      ".</": 971,
      "int": 972,
      "Created": 973,
      "Ġrdf": 974,
      "247": 975,
      "Ġ95": 976,
      "Ġg": 977,
      "233": 978,
      "236": 979,
      "ce": 980,
      "221": 981,
      "253": 982,
      "249": 983,
      "Ġ112": 984,
      "006": 985,
      "242": 986,
      "282": 987,
      "po": 988,
      "Ġ94": 989,
      "272": 990,
      "245": 991,
      "264": 992,
      "linearGradient": 993,
      "ed": 994,
      "MS": 995,
      "239": 996,
      "Ġsketch": 997,
      "ĠSketch": 998,
      "257": 999,
      "adata": 1000,
      "metadata": 1001,
      "Ġ93": 1002,
      "210": 1003,
      "262": 1004,
      "Ġ106": 1005,
      "237": 1006,
      "258": 1007,
      "St": 1008,
      "238": 1009,
      "tate": 1010,
      "dash": 1011,
      "368": 1012,
      "der": 1013,
      "312": 1014,
      "235": 1015,
      "375": 1016,
      "286": 1017,
      "ative": 1018,
      "304": 1019,
      "Ġ102": 1020,
      "Trans": 1021,
      "003": 1022,
      "251": 1023,
      "416": 1024,
      "266": 1025,
      "Ġ98": 1026,
      "be": 1027,
      "Ġstop": 1028,
      "289": 1029,
      "296": 1030,
      "/\"": 1031,
      "common": 1032,
      "297": 1033,
      "creative": 1034,
      "commons": 1035,
      "Ġ97": 1036,
      "creativecommons": 1037,
      "337": 1038,
      "707": 1039,
      "olid": 1040,
      "gu": 1041,
      "solid": 1042,
      "268": 1043,
      "rent": 1044,
      "287": 1045,
      "190": 1046,
      "250": 1047,
      "271": 1048,
      "purl": 1049,
      "vis": 1050,
      "Ġ104": 1051,
      "ĠV": 1052,
      "fa": 1053,
      "es": 1054,
      "338": 1055,
      "372": 1056,
      "285": 1057,
      "305": 1058,
      "ment": 1059,
      "one": 1060,
      "Ġb": 1061,
      "334": 1062,
      "Ġ120": 1063,
      "284": 1064,
      "263": 1065,
      "Ġ99": 1066,
      "373": 1067,
      "visi": 1068,
      "outline": 1069,
      "300": 1070,
      "Page": 1071,
      "265": 1072,
      "424": 1073,
      "259": 1074,
      "275": 1075,
      "326": 1076,
      "Ġ101": 1077,
      "316": 1078,
      "426": 1079,
      "273": 1080,
      "307": 1081,
      "Ġ103": 1082,
      "281": 1083,
      "atch": 1084,
      "261": 1085,
      "004": 1086,
      "396": 1087,
      "sa": 1088,
      "file": 1089,
      "005": 1090,
      "269": 1091,
      "362": 1092,
      "295": 1093,
      "365": 1094,
      "313": 1095,
      "Fil": 1096,
      "qu": 1097,
      "ork": 1098,
      "Ġ110": 1099,
      "_\">": 1100,
      "432": 1101,
      "279": 1102,
      "354": 1103,
      "364": 1104,
      "Ġ105": 1105,
      "303": 1106,
      "314": 1107,
      "win": 1108,
      "317": 1109,
      "366": 1110,
      "ML": 1111,
      "276": 1112,
      "ub": 1113,
      "XML": 1114,
      "ĠH": 1115,
      "XMLID": 1116,
      "ter": 1117,
      "329": 1118,
      "302": 1119,
      "283": 1120,
      "Ġ116": 1121,
      "267": 1122,
      "CE": 1123,
      "clipPath": 1124,
      "are": 1125,
      "332": 1126,
      "lar": 1127,
      "324": 1128,
      "376": 1129,
      "lu": 1130,
      "ray": 1131,
      "Ġ111": 1132,
      "visible": 1133,
      "230": 1134,
      "294": 1135,
      "308": 1136,
      "window": 1137,
      "Ġ113": 1138,
      "367": 1139,
      "358": 1140,
      "278": 1141,
      "base": 1142,
      "400": 1143,
      "371": 1144,
      "Ġ108": 1145,
      "311": 1146,
      "405": 1147,
      "378": 1148,
      "379": 1149,
      "299": 1150,
      "260": 1151,
      "Ġ109": 1152,
      "291": 1153,
      "377": 1154,
      "plo": 1155,
      "369": 1156,
      "Ġ114": 1157,
      "359": 1158,
      "327": 1159,
      "nit": 1160,
      "Ġ127": 1161,
      "318": 1162,
      "Work": 1163,
      "391": 1164,
      "Ġ122": 1165,
      "parent": 1166,
      "335": 1167,
      "Transparent": 1168,
      "007": 1169,
      "472": 1170,
      "346": 1171,
      "nits": 1172,
      "475": 1173,
      "447": 1174,
      "353": 1175,
      "lr": 1176,
      "494": 1177,
      "464": 1178,
      "gent": 1179,
      "315": 1180,
      "301": 1181,
      "306": 1182,
      "449": 1183,
      "342": 1184,
      "ade": 1185,
      "212121": 1186,
      "AA": 1187,
      "Ġ107": 1188,
      "325": 1189,
      "view": 1190,
      "ado": 1191,
      "331": 1192,
      "Ġline": 1193,
      "ca": 1194,
      "DD": 1195,
      "format": 1196,
      "385": 1197,
      "RDF": 1198,
      "Ġ144": 1199,
      "Ġa": 1200,
      "383": 1201,
      "406": 1202,
      "008": 1203,
      "394": 1204,
      "319": 1205,
      "339": 1206,
      "309": 1207,
      "360": 1208,
      "356": 1209,
      "374": 1210,
      "resource": 1211,
      "397": 1212,
      "446": 1213,
      "Uplo": 1214,
      "222222": 1215,
      "422": 1216,
      "423": 1217,
      "Ġ126": 1218,
      "Ġ115": 1219,
      "adow": 1220,
      "ot": 1221,
      "layer": 1222,
      "right": 1223,
      "Ġ130": 1224,
      "345": 1225,
      "Ġ117": 1226,
      "Ġ119": 1227,
      "322": 1228,
      "[#": 1229,
      "Ġ118": 1230,
      "382": 1231,
      "Ġto": 1232,
      "array": 1233,
      "dasharray": 1234,
      "age": 1235,
      "repo": 1236,
      "438": 1237,
      "aded": 1238,
      "355": 1239,
      "ice": 1240,
      "Uploaded": 1241,
      "Ġsvg": 1242,
      "Ġsvgrepo": 1243,
      "357": 1244,
      "user": 1245,
      "Ġclr": 1246,
      "280": 1247,
      "392": 1248,
      "mart": 1249,
      "387": 1250,
      "469": 1251,
      "386": 1252,
      "414": 1253,
      "408": 1254,
      "Ġ132": 1255,
      "Agent": 1256,
      "321": 1257,
      ");\"/><": 1258,
      "455": 1259,
      "Ġ131": 1260,
      "351": 1261,
      "Ġrotate": 1262,
      "Ġ121": 1263,
      "395": 1264,
      "quare": 1265,
      "Ġgradient": 1266,
      "393": 1267,
      "435": 1268,
      "348": 1269,
      "Pro": 1270,
      "bb": 1271,
      "twemoji": 1272,
      "399": 1273,
      "511": 1274,
      "361": 1275,
      "fe": 1276,
      "Ġ125": 1277,
      "480": 1278,
      "413": 1279,
      "Ġ124": 1280,
      "varia": 1281,
      "variant": 1282,
      "square": 1283,
      "cor": 1284,
      "465": 1285,
      "ul": 1286,
      "429": 1287,
      "fal": 1288,
      "ED": 1289,
      "388": 1290,
      "Ġ129": 1291,
      "AF": 1292,
      "270": 1293,
      "389": 1294,
      "340": 1295,
      "445": 1296,
      "Ġ140": 1297,
      "412": 1298,
      "454": 1299,
      "347": 1300,
      "443": 1301,
      ");\"/></": 1302,
      "Ġ136": 1303,
      "398": 1304,
      "436": 1305,
      "false": 1306,
      "Smart": 1307,
      "Watch": 1308,
      "349": 1309,
      "__": 1310,
      "Ġ123": 1311,
      "ax": 1312,
      "290": 1313,
      "708": 1314,
      "407": 1315,
      "sy": 1316,
      "ele": 1317,
      "ide": 1318,
      "441": 1319,
      "Ġ138": 1320,
      "381": 1321,
      "clr": 1322,
      "451": 1323,
      "am": 1324,
      "428": 1325,
      "323232": 1326,
      "ShapeGroup": 1327,
      "MSShapeGroup": 1328,
      "ione": 1329,
      "emojione": 1330,
      "Ġ133": 1331,
      "On": 1332,
      "serif": 1333,
      "Ġicon": 1334,
      "442": 1335,
      "404": 1336,
      "Ġ134": 1337,
      "Ġ135": 1338,
      "bo": 1339,
      "409": 1340,
      "ft": 1341,
      "Ġfor": 1342,
      "473": 1343,
      "418": 1344,
      "330": 1345,
      "row": 1346,
      "456": 1347,
      "503": 1348,
      "Ġ#": 1349,
      "417": 1350,
      "gr": 1351,
      "401": 1352,
      "403": 1353,
      "496": 1354,
      "425": 1355,
      "476": 1356,
      "433": 1357,
      "ments": 1358,
      "474": 1359,
      "662": 1360,
      "012": 1361,
      "Ġ142": 1362,
      "009": 1363,
      "Ġ147": 1364,
      "Ġ137": 1365,
      "411": 1366,
      "487": 1367,
      "au": 1368,
      "Ġ400": 1369,
      "457": 1370,
      "Ġ141": 1371,
      "Ġ200": 1372,
      "Ġ149": 1373,
      "310": 1374,
      "437": 1375,
      "ntax": 1376,
      "syntax": 1377,
      "elements": 1378,
      "505": 1379,
      "402": 1380,
      "458": 1381,
      "Units": 1382,
      "453": 1383,
      "Ġ139": 1384,
      "Ġ146": 1385,
      "479": 1386,
      "ver": 1387,
      "495": 1388,
      "image": 1389,
      "468": 1390,
      "380": 1391,
      "Space": 1392,
      "ĠĠĠĠĠĠĠĠ": 1393,
      "Use": 1394,
      "Ġ170": 1395,
      "userSpace": 1396,
      "OnUse": 1397,
      "userSpaceOnUse": 1398,
      "421": 1399,
      "lue": 1400,
      "Ġ143": 1401,
      "415": 1402,
      "419": 1403,
      "FFF": 1404,
      "EA": 1405,
      "485": 1406,
      "452": 1407,
      "015": 1408,
      "439": 1409,
      "576": 1410,
      "BD": 1411,
      "484": 1412,
      "Ġ153": 1413,
      "Ġ(": 1414,
      "ir": 1415,
      "020": 1416,
      "431": 1417,
      "cur": 1418,
      "nder": 1419,
      "up": 1420,
      "462": 1421,
      "459": 1422,
      "427": 1423,
      "ure": 1424,
      "Ġ152": 1425,
      "897": 1426,
      "ocu": 1427,
      "Stroke": 1428,
      "Ġ145": 1429,
      "Ġ213": 1430,
      "477": 1431,
      "466": 1432,
      "older": 1433,
      "016": 1434,
      "492": 1435,
      "Ġ148": 1436,
      "ard": 1437,
      "6666": 1438,
      "Ġ150": 1439,
      "846": 1440,
      "page": 1441,
      "paint": 1442,
      "440": 1443,
      "Ġ448": 1444,
      "Ġ224": 1445,
      "Ġ176": 1446,
      "370": 1447,
      "%\"": 1448,
      "467": 1449,
      "011": 1450,
      "av": 1451,
      "471": 1452,
      "488": 1453,
      "486": 1454,
      "ator": 1455,
      "499": 1456,
      "AB": 1457,
      "020202": 1458,
      "grid": 1459,
      "ale": 1460,
      "478": 1461,
      "ien": 1462,
      "483": 1463,
      "ab": 1464,
      "Pre": 1465,
      "Ġ154": 1466,
      "502": 1467,
      "461": 1468,
      "ĠLine": 1469,
      "ctor": 1470,
      "sketch": 1471,
      "_\"/>": 1472,
      "ign": 1473,
      "cf": 1474,
      "/><": 1475,
      "506": 1476,
      "render": 1477,
      "rendering": 1478,
      "left": 1479,
      "938": 1480,
      "EE": 1481,
      "invisible": 1482,
      "lice": 1483,
      "350": 1484,
      "Ġ151": 1485,
      "auto": 1486,
      "BC": 1487,
      "Ġ155": 1488,
      "533": 1489,
      "ĠĠĠĠĠĠ": 1490,
      "493": 1491,
      "Ġ164": 1492,
      "014": 1493,
      "Ġbase": 1494,
      "Profile": 1495,
      "ĠbaseProfile": 1496,
      "Ġ1000": 1497,
      "768": 1498,
      "CA": 1499,
      "mask": 1500,
      "Ġ248": 1501,
      "013": 1502,
      "664": 1503,
      "Ġ\"": 1504,
      "DE": 1505,
      "ĠgradientUnits": 1506,
      "482": 1507,
      "Ġ226": 1508,
      "463": 1509,
      "508": 1510,
      "757": 1511,
      "504": 1512,
      "iso": 1513,
      "450": 1514,
      "Ġ166": 1515,
      "Ġ{": 1516,
      "decor": 1517,
      "decoration": 1518,
      "481": 1519,
      "896": 1520,
      "498": 1521,
      "twee": 1522,
      "Ġ240": 1523,
      "Ġ168": 1524,
      "BF": 1525,
      "he": 1526,
      "390": 1527,
      "491": 1528,
      "552": 1529,
      "018": 1530,
      "flue": 1531,
      "497": 1532,
      "ðŁ": 1533,
      "=\"ðŁ": 1534,
      "fluent": 1535,
      "DC": 1536,
      "672": 1537,
      "420": 1538,
      "501": 1539,
      "489": 1540,
      "Ġ320": 1541,
      "554": 1542,
      "758": 1543,
      "fla": 1544,
      "Ġ208": 1545,
      "Ġ158": 1546,
      "di": 1547,
      "rgb": 1548,
      "555": 1549,
      "Ġ156": 1550,
      "otone": 1551,
      "Ġ157": 1552,
      "ha": 1553,
      "tion": 1554,
      "ature": 1555,
      "Ġ173": 1556,
      "808": 1557,
      "553": 1558,
      "Ġ172": 1559,
      "022": 1560,
      "430": 1561,
      "du": 1562,
      "dd": 1563,
      "Ġ384": 1564,
      "Ġ174": 1565,
      "Ġ180": 1566,
      "021": 1567,
      "guide": 1568,
      "Ġ190": 1569,
      "ill": 1570,
      "Ġ179": 1571,
      "017": 1572,
      "Ġ163": 1573,
      "600": 1574,
      "ict": 1575,
      "Ġ159": 1576,
      "656": 1577,
      "creator": 1578,
      "=\"\"/><": 1579,
      "410": 1580,
      "Light": 1581,
      "lt": 1582,
      "023": 1583,
      "717": 1584,
      "Ġ182": 1585,
      "ector": 1586,
      "mage": 1587,
      "604": 1588,
      "515": 1589,
      "&#": 1590,
      "date": 1591,
      "558": 1592,
      "radi": 1593,
      "792": 1594,
      "arrow": 1595,
      "Ġ161": 1596,
      "Image": 1597,
      "pla": 1598,
      "Ġ288": 1599,
      "um": 1600,
      "586": 1601,
      "Ġ165": 1602,
      "ocado": 1603,
      "avocado": 1604,
      "bad": 1605,
      "ndom": 1606,
      "688": 1607,
      "Ġ184": 1608,
      "licens": 1609,
      "og": 1610,
      "025": 1611,
      "badge": 1612,
      "bc": 1613,
      "032": 1614,
      "556": 1615,
      "Ġ175": 1616,
      "460": 1617,
      "fandom": 1618,
      "Ġ181": 1619,
      "ric": 1620,
      "507": 1621,
      "625": 1622,
      "gular": 1623,
      "027": 1624,
      "aler": 1625,
      "847": 1626,
      "Ġ162": 1627,
      "572": 1628,
      "ea": 1629,
      "Ġ167": 1630,
      "Ġ255": 1631,
      "ies": 1632,
      "Ġ211": 1633,
      "034": 1634,
      "953": 1635,
      "832": 1636,
      "ĠĠĠĠĠĠĠĠĠĠĠĠĠĠĠĠĠĠĠĠĠĠĠ": 1637,
      "528": 1638,
      "box": 1639,
      "BE": 1640,
      "Ġ210": 1641,
      "828": 1642,
      "Ġ171": 1643,
      "xml": 1644,
      "Ġ220": 1645,
      "1694": 1646,
      "hadow": 1647,
      "mity": 1648,
      "dcmity": 1649,
      "Still": 1650,
      "dcmitype": 1651,
      "StillImage": 1652,
      "BA": 1653,
      "028": 1654,
      "Ġ204": 1655,
      "metric": 1656,
      "]\">": 1657,
      "2929": 1658,
      "500": 1659,
      "ker": 1660,
      "EF": 1661,
      "019": 1662,
      "875": 1663,
      "by": 1664,
      "Ġ214": 1665,
      "ribb": 1666,
      "larity": 1667,
      "Ġ178": 1668,
      "Ġ177": 1669,
      "509": 1670,
      "513": 1671,
      "Ġ212": 1672,
      "Folder": 1673,
      "ribbble": 1674,
      "order": 1675,
      "999": 1676,
      "Min": 1677,
      "545": 1678,
      "Ġ216": 1679,
      "Ġ217": 1680,
      "Dribbble": 1681,
      "024": 1682,
      "dview": 1683,
      "namedview": 1684,
      "33363": 1685,
      "525": 1686,
      "]</": 1687,
      "jam": 1688,
      "var": 1689,
      "Ġ183": 1690,
      "about": 1691,
      "Ġ[#": 1692,
      "Preview": 1693,
      "-[#": 1694,
      "shadow": 1695,
      "us": 1696,
      "529": 1697,
      "1719": 1698,
      "035": 1699,
      "059": 1700,
      "859": 1701,
      "flats": 1702,
      "686": 1703,
      "hadows": 1704,
      "flatshadows": 1705,
      "ac": 1706,
      "Ġ219": 1707,
      "hair": 1708,
      "766": 1709,
      "954": 1710,
      "bel": 1711,
      "lation": 1712,
      "radial": 1713,
      "mar": 1714,
      "Ġq": 1715,
      "rip": 1716,
      "662113": 1717,
      "cub": 1718,
      "646": 1719,
      "781": 1720,
      "613": 1721,
      "cubies": 1722,
      "(--": 1723,
      "026": 1724,
      "FC": 1725,
      "mode": 1726,
      "535": 1727,
      "ull": 1728,
      "filled": 1729,
      "ak": 1730,
      "574": 1731,
      "Color": 1732,
      "Ġ206": 1733,
      "597": 1734,
      "037": 1735,
      "Ġ260": 1736,
      "608": 1737,
      "434343": 1738,
      "Ġ215": 1739,
      "Ġ1920": 1740,
      "677": 1741,
      "=\"\">": 1742,
      "033": 1743,
      "788": 1744,
      "Ġis": 1745,
      "Ġ185": 1746,
      "sable": 1747,
      "badged": 1748,
      "Ġfocu": 1749,
      "Ġfocusable": 1750,
      "Ġ191": 1751,
      "4477": 1752,
      "045": 1753,
      "049": 1754,
      "057": 1755,
      "546": 1756,
      "the": 1757,
      "ag": 1758,
      "563": 1759,
      "rotate": 1760,
      "gt": 1761,
      "SV": 1762,
      "Ġ186": 1763,
      "Ġ218": 1764,
      "562": 1765,
      "044": 1766,
      "SVG": 1767,
      "play": 1768,
      "ition": 1769,
      "=\"&": 1770,
      "592": 1771,
      "Ġ209": 1772,
      "029": 1773,
      "657": 1774,
      "height": 1775,
      "ram": 1776,
      "8954": 1777,
      "596": 1778,
      "1119": 1779,
      "094": 1780,
      "Ġ}": 1781,
      "544": 1782,
      "490": 1783,
      "678": 1784,
      "789": 1785,
      "522": 1786,
      "Ġ-.": 1787,
      "043": 1788,
      "963": 1789,
      "ther": 1790,
      "Ġ225": 1791,
      "Ġ202": 1792,
      "Ġ253": 1793,
      "031": 1794,
      "El": 1795,
      "skin": 1796,
      "584": 1797,
      "Ġsi": 1798,
      "566": 1799,
      "Files": 1800,
      "845": 1801,
      "label": 1802,
      "734": 1803,
      "676": 1804,
      "Ġ223": 1805,
      "Ġ205": 1806,
      "low": 1807,
      "sition": 1808,
      "551": 1809,
      "ut": 1810,
      "down": 1811,
      "ĠQ": 1812,
      "Ġ198": 1813,
      "Ġ234": 1814,
      "Ġ207": 1815,
      "598": 1816,
      "812": 1817,
      "816": 1818,
      "pen": 1819,
      "ription": 1820,
      "Th": 1821,
      "848": 1822,
      "518": 1823,
      "description": 1824,
      "895": 1825,
      "no": 1826,
      "038": 1827,
      "042": 1828,
      "mi": 1829,
      "regular": 1830,
      "547": 1831,
      "ĠRectangle": 1832,
      "666": 1833,
      "536": 1834,
      "578": 1835,
      "706": 1836,
      "713": 1837,
      "624": 1838,
      "514": 1839,
      "ank": 1840,
      "564": 1841,
      "685": 1842,
      "036": 1843,
      "579": 1844,
      "078": 1845,
      "Ġ196": 1846,
      "Ellipse": 1847,
      "Ġ201": 1848,
      "ner": 1849,
      "Ġthe": 1850,
      "Ġ246": 1851,
      "063": 1852,
      "rights": 1853,
      "SVGID": 1854,
      "047": 1855,
      "838": 1856,
      "667": 1857,
      "This": 1858,
      "516": 1859,
      "Ġ197": 1860,
      "ĉĉĉĉ": 1861,
      "tk": 1862,
      "ĠClarity": 1863,
      "Ġtheme": 1864,
      "594": 1865,
      "ĠJ": 1866,
      "Ġvector": 1867,
      "Ġgtk": 1868,
      "pict": 1869,
      "Ġ195": 1870,
      "ĠĠĠĠĠĠĠĠĠ": 1871,
      "Ġshape": 1872,
      "eb": 1873,
      "vector": 1874,
      "Jak": 1875,
      "Ġ189": 1876,
      "iewic": 1877,
      "ankiewic": 1878,
      "ĠJankiewic": 1879,
      "Jakub": 1880,
      "ĠJankiewicz": 1881,
      "064": 1882,
      "682": 1883,
      "Ġ230": 1884,
      "ute": 1885,
      "Ġ252": 1886,
      "542": 1887,
      "Ġ254": 1888,
      "669": 1889,
      "Ġ352": 1890,
      "704": 1891,
      "531": 1892,
      "Ġ241": 1893,
      "fff": 1894,
      "Ġ250": 1895,
      "Ġ232": 1896,
      "Ġ300": 1897,
      "Ġ199": 1898,
      "668": 1899,
      "Ġ249": 1900,
      "568": 1901,
      "517": 1902,
      "Ġ222": 1903,
      "055": 1904,
      "Ġ194": 1905,
      "684": 1906,
      "058": 1907,
      "062": 1908,
      "052": 1909,
      "ogram": 1910,
      "618": 1911,
      "654": 1912,
      "705": 1913,
      "543": 1914,
      "636": 1915,
      "Ġ221": 1916,
      "Ġ187": 1917,
      "894": 1918,
      "shape": 1919,
      "524": 1920,
      "bi": 1921,
      "Ġ272": 1922,
      "727": 1923,
      "flow": 1924,
      "led": 1925,
      "orient": 1926,
      "111918": 1927,
      "602": 1928,
      "Ġ251": 1929,
      "orientation": 1930,
      "571": 1931,
      "pictogram": 1932,
      "046": 1933,
      "ted": 1934,
      "671": 1935,
      "658": 1936,
      "784": 1937,
      "Ġ229": 1938,
      "direct": 1939,
      "725": 1940,
      ")\"/><": 1941,
      "BB": 1942,
      "EC": 1943,
      "623": 1944,
      "che": 1945,
      "Ġ247": 1946,
      "627": 1947,
      "652": 1948,
      "FA": 1949,
      "822": 1950,
      "Ġ193": 1951,
      "538": 1952,
      "673": 1953,
      "ian": 1954,
      "575": 1955,
      "521": 1956,
      "Ġ203": 1957,
      "over": 1958,
      "Ġ245": 1959,
      "470": 1960,
      "Ġ298": 1961,
      "595": 1962,
      "635": 1963,
      "Ġ231": 1964,
      "radialGradient": 1965,
      "915": 1966,
      "998": 1967,
      "733": 1968,
      "523": 1969,
      "alerted": 1970,
      "Ġ244": 1971,
      "pacing": 1972,
      "674": 1973,
      "full": 1974,
      "Ġ228": 1975,
      "Ġ258": 1976,
      "748": 1977,
      "Fill": 1978,
      "744": 1979,
      "527": 1980,
      "éĿ": 1981,
      "567": 1982,
      "084": 1983,
      "994": 1984,
      "mix": 1985,
      "588": 1986,
      "Ġbi": 1987,
      "984": 1988,
      "Ġ336": 1989,
      "702": 1990,
      "048": 1991,
      ";\">": 1992,
      "é¡": 1993,
      "Ġ235": 1994,
      "éĿ¢": 1995,
      "µéĿ¢": 1996,
      "é¡µéĿ¢": 1997,
      "039": 1998,
      "Ġ257": 1999,
      "628": 2000,
      "637": 2001,
      "Ġ236": 2002,
      "Ġ239": 2003,
      "585": 2004,
      "monotone": 2005,
      "09244": 2006,
      "isplay": 2007,
      "Ġ264": 2008,
      "737": 2009,
      "607": 2010,
      "961": 2011,
      "Ġ304": 2012,
      "Cute": 2013,
      "Ming": 2014,
      "791": 2015,
      "MingCute": 2016,
      "557": 2017,
      "853": 2018,
      "569": 2019,
      "041": 2020,
      "548": 2021,
      "833": 2022,
      "534": 2023,
      "743": 2024,
      "583": 2025,
      "ĠIcon": 2026,
      "Ġ000": 2027,
      "573": 2028,
      "906": 2029,
      "532": 2030,
      "937": 2031,
      "eff": 2032,
      "½¢": 2033,
      "905": 2034,
      "å½¢": 2035,
      "736": 2036,
      "648": 2037,
      "617": 2038,
      "overflow": 2039,
      "Title": 2040,
      "IconTitle": 2041,
      "Ġ262": 2042,
      "088": 2043,
      "top": 2044,
      "819": 2045,
      "Ġ341": 2046,
      "Ġcolor": 2047,
      "510": 2048,
      "796": 2049,
      "net": 2050,
      "067": 2051,
      "056": 2052,
      "Ġ243": 2053,
      "077": 2054,
      "iny": 2055,
      "992": 2056,
      "Ġsodipodi": 2057,
      "Ġ242": 2058,
      "vi": 2059,
      "754": 2060,
      "806": 2061,
      "direction": 2062,
      "614": 2063,
      "582": 2064,
      "519": 2065,
      "adobe": 2066,
      "537": 2067,
      "687": 2068,
      "Ġ237": 2069,
      "726": 2070,
      "885": 2071,
      "729": 2072,
      "imi": 2073,
      "638": 2074,
      "655": 2075,
      "606": 2076,
      "CF": 2077,
      "675": 2078,
      "082": 2079,
      "644": 2080,
      "ier": 2081,
      "694": 2082,
      "Ġ238": 2083,
      "Ġ372": 2084,
      "797": 2085,
      "074": 2086,
      "765": 2087,
      "Ġ227": 2088,
      "777": 2089,
      "693": 2090,
      "793": 2091,
      "913": 2092,
      "587": 2093,
      "782": 2094,
      "640": 2095,
      "cale": 2096,
      "Ġ233": 2097,
      "Ġ259": 2098,
      "854": 2099,
      "ti": 2100,
      "864": 2101,
      "en": 2102,
      "718": 2103,
      "board": 2104,
      "526": 2105,
      "719": 2106,
      "Ġ292": 2107,
      "076": 2108,
      "995": 2109,
      "098": 2110,
      "857": 2111,
      ");\"/>": 2112,
      "Ġ296": 2113,
      "787": 2114,
      "imize": 2115,
      "577": 2116,
      "609": 2117,
      "786": 2118,
      "Ġbox": 2119,
      "066": 2120,
      "633": 2121,
      "996": 2122,
      "55228": 2123,
      "837": 2124,
      "603": 2125,
      "807": 2126,
      "683": 2127,
      "051": 2128,
      "inter": 2129,
      "085": 2130,
      "weight": 2131,
      "Ġ368": 2132,
      "703": 2133,
      "665": 2134,
      "626": 2135,
      "987": 2136,
      "bf": 2137,
      "632": 2138,
      "988": 2139,
      "orge": 2140,
      "DT": 2141,
      "forge": 2142,
      "td": 2143,
      "Ġ960": 2144,
      "FFC": 2145,
      "namespace": 2146,
      "sourceforge": 2147,
      "dtd": 2148,
      "689": 2149,
      "DTD": 2150,
      "namespaces": 2151,
      "767": 2152,
      "612": 2153,
      "open": 2154,
      "ionicons": 2155,
      "isometric": 2156,
      "959": 2157,
      "061": 2158,
      "539": 2159,
      "776": 2160,
      "per": 2161,
      "Ġ1200": 2162,
      "089": 2163,
      "794": 2164,
      "615": 2165,
      "lock": 2166,
      "629": 2167,
      "561": 2168,
      "align": 2169,
      "Ġ266": 2170,
      "dashoffset": 2171,
      "054": 2172,
      "698": 2173,
      "605": 2174,
      "805": 2175,
      "093": 2176,
      "716": 2177,
      "565": 2178,
      "559": 2179,
      "çĬ": 2180,
      "å½¢çĬ": 2181,
      "å½¢çĬ¶": 2182,
      "FFA": 2183,
      "053": 2184,
      "849": 2185,
      "666666": 2186,
      "642": 2187,
      "979": 2188,
      "bil": 2189,
      "075": 2190,
      "732": 2191,
      "Ġ416": 2192,
      "Ġsh": 2193,
      "start": 2194,
      "958": 2195,
      "duct": 2196,
      "Ġ281": 2197,
      "634": 2198,
      "663": 2199,
      "778": 2200,
      "086": 2201,
      "917": 2202,
      "072": 2203,
      "813": 2204,
      "696": 2205,
      "591": 2206,
      "Ġ289": 2207,
      "695": 2208,
      "Ġ263": 2209,
      "Ġ265": 2210,
      "Ġ284": 2211,
      "Ġ329": 2212,
      "ound": 2213,
      "Com": 2214,
      "779": 2215,
      "639": 2216,
      "Ġ293": 2217,
      "771": 2218,
      "Ġ277": 2219,
      "3853": 2220,
      "983": 2221,
      "Ġshow": 2222,
      "549": 2223,
      "825": 2224,
      "Ġ280": 2225,
      "649": 2226,
      "728": 2227,
      "738": 2228,
      "969": 2229,
      "ey": 2230,
      "į-": 2231,
      "Ķį-": 2232,
      "692": 2233,
      "=\"ðŁĶį-": 2234,
      "AD": 2235,
      "975": 2236,
      "FFE": 2237,
      "691": 2238,
      "945": 2239,
      "977": 2240,
      "621": 2241,
      "087": 2242,
      "İ¨": 2243,
      "593": 2244,
      "phone": 2245,
      "=\"ðŁİ¨": 2246,
      "tiny": 2247,
      "902": 2248,
      "764": 2249,
      "752": 2250,
      "947": 2251,
      "746": 2252,
      "957": 2253,
      "641": 2254,
      "714": 2255,
      "ask": 2256,
      "effect": 2257,
      "Ġ286": 2258,
      "916": 2259,
      "li": 2260,
      "Ġ282": 2261,
      "spacing": 2262,
      "844": 2263,
      "721": 2264,
      "Ġ010": 2265,
      "Ġ290": 2266,
      "Ġ294": 2267,
      "616": 2268,
      "Ġ297": 2269,
      "993": 2270,
      "Ġ261": 2271,
      "747": 2272,
      "889": 2273,
      "cea": 2274,
      "873": 2275,
      "858": 2276,
      "968": 2277,
      "065": 2278,
      "647": 2279,
      "876": 2280,
      "068": 2281,
      "735": 2282,
      "541": 2283,
      "645": 2284,
      "4477153": 2285,
      "827": 2286,
      "622": 2287,
      "653": 2288,
      "935": 2289,
      "783": 2290,
      "709": 2291,
      "643": 2292,
      "loc": 2293,
      "Ġ328": 2294,
      "cod": 2295,
      "Ġ291": 2296,
      "ting": 2297,
      "tien": 2298,
      "756": 2299,
      "749": 2300,
      "802": 2301,
      "966": 2302,
      "883": 2303,
      "LayerGroup": 2304,
      "MSLayerGroup": 2305,
      "Transform": 2306,
      "coding": 2307,
      "069": 2308,
      "092": 2309,
      "ĠgradientTransform": 2310,
      "hem": 2311,
      "912": 2312,
      "619": 2313,
      "bohem": 2314,
      "iancoding": 2315,
      "bohemiancoding": 2316,
      "=\"ðŁİ¨-": 2317,
      "083": 2318,
      "FFB": 2319,
      "AAB": 2320,
      "898": 2321,
      "licenses": 2322,
      "FFD": 2323,
      "Ġ326": 2324,
      "363853": 2325,
      "785": 2326,
      "Ġ302": 2327,
      "offee": 2328,
      "096": 2329,
      "Ġ287": 2330,
      "887": 2331,
      "conne": 2332,
      "868": 2333,
      "MSPage": 2334,
      "611": 2335,
      "908": 2336,
      "030": 2337,
      "Ġ268": 2338,
      "927": 2339,
      "877": 2340,
      "as": 2341,
      "Ġ500": 2342,
      "855": 2343,
      "alt": 2344,
      "928": 2345,
      "814": 2346,
      "aa": 2347,
      "601": 2348,
      "Ġ295": 2349,
      "Ġ340": 2350,
      "581": 2351,
      "697": 2352,
      "918": 2353,
      "824": 2354,
      "866": 2355,
      "display": 2356,
      "949": 2357,
      "Ġ271": 2358,
      "Ġ366": 2359,
      "893": 2360,
      "Ġ312": 2361,
      "699": 2362,
      "upstroke": 2363,
      "Ġ338": 2364,
      "803": 2365,
      ";&#": 2366,
      "coffee": 2367,
      "dr": 2368,
      "inline": 2369,
      "load": 2370,
      "960": 2371,
      "867": 2372,
      "755": 2373,
      "Ġ331": 2374,
      "891": 2375,
      "val": 2376,
      "ked": 2377,
      "fea": 2378,
      "865": 2379,
      "952": 2380,
      "852": 2381,
      "cy": 2382,
      "817": 2383,
      "839": 2384,
      "osition": 2385,
      "843": 2386,
      "751": 2387,
      "feather": 2388,
      "mil": 2389,
      "888": 2390,
      "097": 2391,
      "599": 2392,
      "Ġ327": 2393,
      "ref": 2394,
      "vij": 2395,
      "em": 2396,
      "Ġ307": 2397,
      "CCCC": 2398,
      "659": 2399,
      "Ġ333": 2400,
      "Ġ324": 2401,
      "units": 2402,
      "Ġ299": 2403,
      "589": 2404,
      "809": 2405,
      "pro": 2406,
      "use": 2407,
      "775": 2408,
      "795": 2409,
      "753": 2410,
      "834": 2411,
      "%\">": 2412,
      "742": 2413,
      "073": 2414,
      "Ġ301": 2415,
      "081": 2416,
      "oom": 2417,
      "879": 2418,
      "doc": 2419,
      "909": 2420,
      "Oval": 2421,
      "ject": 2422,
      "Ġ330": 2423,
      "934": 2424,
      "881": 2425,
      "Ġ344": 2426,
      "ok": 2427,
      "cccc": 2428,
      "Ġ285": 2429,
      "712": 2430,
      "Ġ332": 2431,
      "3636": 2432,
      "679": 2433,
      "CCD": 2434,
      "ta": 2435,
      "Ġ270": 2436,
      "811": 2437,
      "040000": 2438,
      "723": 2439,
      "Ġ275": 2440,
      "Ġ279": 2441,
      "3737": 2442,
      "1000": 2443,
      "724": 2444,
      "Ġ640": 2445,
      "Ġ334": 2446,
      "Product": 2447,
      "EB": 2448,
      "904": 2449,
      "4347": 2450,
      "826": 2451,
      "hatch": 2452,
      "631": 2453,
      "955": 2454,
      "version": 2455,
      "light": 2456,
      "Ġ274": 2457,
      "939": 2458,
      "zoom": 2459,
      "bility": 2460,
      "715": 2461,
      "774": 2462,
      "Ġ276": 2463,
      "Ġ273": 2464,
      "762": 2465,
      "841": 2466,
      "997": 2467,
      "892": 2468,
      "fx": 2469,
      "Ġ269": 2470,
      "fxemoji": 2471,
      "956": 2472,
      "661": 2473,
      "docname": 2474,
      "baseline": 2475,
      "878": 2476,
      "874": 2477,
      "Ġ267": 2478,
      "836": 2479,
      "978": 2480,
      "Ġorientation": 2481,
      "Ġposition": 2482,
      "722": 2483,
      "924": 2484,
      "Ġ283": 2485,
      "De": 2486,
      "772": 2487,
      ";-": 2488,
      "903": 2489,
      "license": 2490,
      "un": 2491,
      "isolation": 2492,
      "773": 2493,
      "079": 2494,
      "823": 2495,
      "intig": 2496,
      "Ġ480": 2497,
      "3238": 2498,
      "884": 2499,
      "946": 2500,
      "nal": 2501,
      "739": 2502,
      "985": 2503,
      "FFDC": 2504,
      "Ġ303": 2505,
      "798": 2506,
      "oud": 2507,
      "923": 2508,
      "931": 2509,
      "Ġ364": 2510,
      "745": 2511,
      "263238": 2512,
      "801": 2513,
      "Ġ314": 2514,
      "851": 2515,
      "799": 2516,
      "Ġ311": 2517,
      "936": 2518,
      "967": 2519,
      "Ġ362": 2520,
      "973": 2521,
      "RG": 2522,
      "731": 2523,
      "YMin": 2524,
      "xMin": 2525,
      "Ġjam": 2526,
      "962": 2527,
      "xMinYMin": 2528,
      "095": 2529,
      "4444": 2530,
      "804": 2531,
      "Ġmask": 2532,
      "Ġ335": 2533,
      "Ġ337": 2534,
      "connector": 2535,
      "Sh": 2536,
      "very": 2537,
      "835": 2538,
      "863": 2539,
      "current": 2540,
      "Ġ339": 2541,
      "701": 2542,
      "ocument": 2543,
      "Ġ376": 2544,
      "Ġscale": 2545,
      "af": 2546,
      "914": 2547,
      "9999": 2548,
      "Ġ373": 2549,
      "Ġ278": 2550,
      "651": 2551,
      "944": 2552,
      "filter": 2553,
      "locked": 2554,
      "815": 2555,
      "829": 2556,
      "872": 2557,
      "943": 2558,
      "932": 2559,
      "aph": 2560,
      "eli": 2561,
      "Ġoverflow": 2562,
      "Ġ310": 2563,
      "/\"/>": 2564,
      "842": 2565,
      "famil": 2566,
      "duotone": 2567,
      "Ġ315": 2568,
      "901": 2569,
      "71717": 2570,
      "family": 2571,
      "933": 2572,
      "818": 2573,
      "let": 2574,
      "965": 2575,
      "292929": 2576,
      "Deli": 2577,
      "948": 2578,
      "Ġ316": 2579,
      "setting": 2580,
      "763": 2581,
      "bd": 2582,
      "Ġ426": 2583,
      "759": 2584,
      "976": 2585,
      "Delivery": 2586,
      "942": 2587,
      "max": 2588,
      "091": 2589,
      "Re": 2590,
      "aging": 2591,
      "991": 2592,
      "882": 2593,
      "Pack": 2594,
      "vature": 2595,
      "clo": 2596,
      "886": 2597,
      "curvature": 2598,
      "kit": 2599,
      "Ġ313": 2600,
      "Ġ308": 2601,
      "ood": 2602,
      "681": 2603,
      "Packaging": 2604,
      "741": 2605,
      "856": 2606,
      "maximize": 2607,
      "blend": 2608,
      "pageshadow": 2609,
      "vijf": 2610,
      "986": 2611,
      "907": 2612,
      "href": 2613,
      "Ġ325": 2614,
      "Ġxlink": 2615,
      "RGB": 2616,
      "941": 2617,
      "polation": 2618,
      "interpolation": 2619,
      "nce": 2620,
      "atter": 2621,
      "urn": 2622,
      "Ġfont": 2623,
      "3905": 2624,
      "DECE": 2625,
      "769": 2626,
      "982": 2627,
      "do": 2628,
      "974": 2629,
      "099": 2630,
      "document": 2631,
      "Ġ369": 2632,
      "drie": 2633,
      "teor": 2634,
      "meteor": 2635,
      "929": 2636,
      "bu": 2637,
      "marker": 2638,
      "settings": 2639,
      "Ġ342": 2640,
      "869": 2641,
      "dent": 2642,
      "922": 2643,
      "66757": 2644,
      "808184": 2645,
      "Ġ318": 2646,
      "Ġ378": 2647,
      "ĠĠĠĠĠĠĠĠĠĠĠĠ": 2648,
      "926": 2649,
      "folder": 2650,
      "cx": 2651,
      "Ġborder": 2652,
      "711": 2653,
      "862": 2654,
      "ort": 2655,
      "igh": 2656,
      "FD": 2657,
      "Ġ379": 2658,
      "res": 2659,
      "Ar": 2660,
      "attery": 2661,
      "Ġ343": 2662,
      "Ġ306": 2663,
      "2010": 2664,
      "861": 2665,
      "Ġpage": 2666,
      "Ġ345": 2667,
      "Ġ374": 2668,
      "Ca": 2669,
      "vier": 2670,
      "Ġ319": 2671,
      "071": 2672,
      "ropacity": 2673,
      "orde": 2674,
      "Ġborde": 2675,
      "pageopacity": 2676,
      "Ġbordercolor": 2677,
      "Ġborderopacity": 2678,
      "fc": 2679,
      "Ġshowgrid": 2680,
      "maximized": 2681,
      "Ġpagecolor": 2682,
      "Ġ317": 2683,
      "pin": 2684,
      "zeven": 2685,
      "5522847": 2686,
      "871": 2687,
      "Ġ323": 2688,
      "Filled": 2689,
      "Ġ576": 2690,
      "Ġ365": 2691,
      "761": 2692,
      "cloud": 2693,
      "520": 2694,
      "828282": 2695,
      "Ġ511": 2696,
      "ffe": 2697,
      "des": 2698,
      "Ġ309": 2699,
      "8954305": 2700,
      "821": 2701,
      "stone": 2702,
      "ore": 2703,
      "size": 2704,
      "Ġ321": 2705,
      "911": 2706,
      "opy": 2707,
      "972": 2708,
      "Ġ405": 2709,
      "face": 2710,
      "1920": 2711,
      "Ġ371": 2712,
      "ignal": 2713,
      "989": 2714,
      "indent": 2715,
      "Ġ377": 2716,
      "list": 2717,
      "app": 2718,
      "1919": 2719,
      "rance": 2720,
      "Ġ381": 2721,
      "Ġ322": 2722,
      "sn": 2723,
      "Ġ305": 2724,
      "831": 2725,
      "951": 2726,
      "Ġ360": 2727,
      "964": 2728,
      "ĠB": 2729,
      "bar": 2730,
      "uch": 2731,
      "tern": 2732,
      "check": 2733,
      "rink": 2734,
      "utt": 2735,
      "ulti": 2736,
      "DA": 2737,
      "Ġ382": 2738,
      "925": 2739,
      "ll": 2740,
      "sktop": 2741,
      "cff": 2742,
      "ob": 2743,
      "Ġ464": 2744,
      "Ġ346": 2745,
      "Ġ370": 2746,
      "num": 2747,
      "Ġ375": 2748,
      "Ġ432": 2749,
      "bean": 2750,
      "ical": 2751,
      "min": 2752,
      "Ġ380": 2753,
      "Capa": 2754,
      "Ġ383": 2755,
      "Ġ392": 2756,
      "Ġ348": 2757,
      "add": 2758,
      "High": 2759,
      "fd": 2760,
      "bbox": 2761,
      "540": 2762,
      "geo": 2763,
      "sion": 2764,
      "981": 2765,
      "CD": 2766,
      "med": 2767,
      "sand": 2768,
      "geometric": 2769,
      "Se": 2770,
      "cision": 2771,
      "ĠĠĠĊ": 2772,
      "Precision": 2773,
      "geometricPrecision": 2774,
      "co": 2775,
      "evel": 2776,
      "sans": 2777,
      "Ġ347": 2778,
      "lerance": 2779,
      "turn": 2780,
      "Ġ353": 2781,
      "ĉĉĊ": 2782,
      "Food": 2783,
      "ex": 2784,
      "labelled": 2785,
      "labelledby": 2786,
      "ĉĉĉĉĉ": 2787,
      "wor": 2788,
      "Ġ367": 2789,
      "Ġ496": 2790,
      "Source": 2791,
      "bine": 2792,
      "object": 2793,
      "Ġ359": 2794,
      "Combine": 2795,
      "Combined": 2796,
      "angles": 2797,
      "610": 2798,
      "(.": 2799,
      "stem": 2800,
      "linesand": 2801,
      "linesandangles": 2802,
      "971": 2803,
      "Ġ358": 2804,
      "gradient": 2805,
      "wintig": 2806,
      "ates": 2807,
      "899": 2808,
      "plu": 2809,
      "ree": 2810,
      "Drink": 2811,
      "ides": 2812,
      "FFAC": 2813,
      "ntwintig": 2814,
      "ott": 2815,
      "book": 2816,
      "Sy": 2817,
      "lic": 2818,
      "acht": 2819,
      "530": 2820,
      "919": 2821,
      "Ex": 2822,
      "oon": 2823,
      "FCE": 2824,
      "FFCC": 2825,
      "ger": 2826,
      "3939": 2827,
      "zes": 2828,
      "Desktop": 2829,
      "560": 2830,
      "butt": 2831,
      "group": 2832,
      "arch": 2833,
      "Ġ363": 2834,
      "caps": 2835,
      "5959": 2836,
      "bevel": 2837,
      "_-": 2838,
      "Signal": 2839,
      "2318": 2840,
      "Ġ390": 2841,
      "eric": 2842,
      "Ġ/": 2843,
      "DB": 2844,
      "1310": 2845,
      "snap": 2846,
      "block": 2847,
      "2857": 2848,
      "Ġ349": 2849,
      "921": 2850,
      "lig": 2851,
      "CEE": 2852,
      "ory": 2853,
      "Ġserif": 2854,
      "Ġ361": 2855,
      "nter": 2856,
      "Ġ356": 2857,
      "Ġ408": 2858,
      "acc": 2859,
      "Ġ509": 2860,
      "print": 2861,
      "position": 2862,
      "numeric": 2863,
      "padd": 2864,
      "padding": 2865,
      "700": 2866,
      "altern": 2867,
      "shar": 2868,
      "3905243": 2869,
      "arker": 2870,
      "Ġ490": 2871,
      "atures": 2872,
      "Ġ354": 2873,
      "Ġ440": 2874,
      "570": 2875,
      "port": 2876,
      "ffce": 2877,
      "feature": 2878,
      "ligatures": 2879,
      "alternates": 2880,
      "sharp": 2881,
      "ward": 2882,
      "Ġ350": 2883,
      "Ġ351": 2884,
      "ae": 2885,
      "Gr": 2886,
      "BFBF": 2887,
      "ction": 2888,
      "scien": 2889,
      "corn": 2890,
      "iction": 2891,
      "fiction": 2892,
      "ĉĊ": 2893,
      "Ġ395": 2894,
      "letter": 2895,
      "word": 2896,
      "ho": 2897,
      "Ġmarker": 2898,
      "Ġmarkers": 2899,
      "data": 2900,
      "Ġ357": 2901,
      "Ġ412": 2902,
      "ndfiction": 2903,
      "own": 2904,
      "ceandfiction": 2905,
      "scienceandfiction": 2906,
      "tra": 2907,
      "Ġ430": 2908,
      "394240": 2909,
      "slic": 2910,
      "Ġ435": 2911,
      "est": 2912,
      "Ġ768": 2913,
      "810": 2914,
      "sign": 2915,
      "curity": 2916,
      "visibility": 2917,
      "corners": 2918,
      "sharpcorners": 2919,
      "Ġ407": 2920,
      "Ġ469": 2921,
      "Ġ404": 2922,
      "fcea": 2923,
      "Ġ355": 2924,
      "plus": 2925,
      "minus": 2926,
      "pinner": 2927,
      "Bound": 2928,
      "era": 2929,
      "iv": 2930,
      "ication": 2931,
      "CB": 2932,
      "alert": 2933,
      "4157": 2934,
      "720": 2935,
      "Ġ472": 2936,
      "Ġ409": 2937,
      "4289": 2938,
      "Ġ492": 2939,
      "groupmode": 2940,
      "880": 2941,
      "231815": 2942,
      "Highlight": 2943,
      "Set": 2944,
      "Ġ387": 2945,
      "mixed": 2946,
      "ottom": 2947,
      "Ġ396": 2948,
      "Ġ388": 2949,
      "pha": 2950,
      "FB": 2951,
      "Ġ385": 2952,
      "Off": 2953,
      "str": 2954,
      "FE": 2955,
      "xy": 2956,
      "900": 2957,
      "Down": 2958,
      "go": 2959,
      "Ġ447": 2960,
      "Ġ441": 2961,
      "men": 2962,
      "_);\"/>": 2963,
      "all": 2964,
      "Ġ420": 2965,
      "Ġ439": 2966,
      "Ġ394": 2967,
      "blue": 2968,
      "Ġ386": 2969,
      "Ġ488": 2970,
      "790": 2971,
      "xygrid": 2972,
      "Ġ428": 2973,
      ")\"/></": 2974,
      "System": 2975,
      "Ġ402": 2976,
      "Ġ393": 2977,
      "1025": 2978,
      "web": 2979,
      "ters": 2980,
      "1525": 2981,
      "requ": 2982,
      "hairHighlight": 2983,
      "hairHighlights": 2984,
      "Ġ410": 2985,
      "580": 2986,
      "Shop": 2987,
      "Ġ431": 2988,
      "File": 2989,
      "ron": 2990,
      "clipboard": 2991,
      "Ġ414": 2992,
      "680": 2993,
      "Ġtranslate": 2994,
      "ef": 2995,
      "gy": 2996,
      "Ġ796": 2997,
      "Ġ434": 2998,
      "Ġ446": 2999,
      "Ġunits": 3000,
      "Ġ418": 3001,
      "blueprint": 3002,
      "Pen": 3003,
      "3436": 3004,
      "eather": 3005,
      "filters": 3006,
      "sf": 3007,
      "Ġ436": 3008,
      "Ġ456": 3009,
      "Ġ1034": 3010,
      "Ġ415": 3011,
      "840": 3012,
      "chart": 3013,
      "Ġ438": 3014,
      "60352": 3015,
      "Ġ403": 3016,
      "gray": 3017,
      "amb": 3018,
      "Ġ487": 3019,
      "sRGB": 3020,
      "1200": 3021,
      "alf": 3022,
      "ift": 3023,
      "cam": 3024,
      "Ġ011": 3025,
      "Ġ429": 3026,
      "ler": 3027,
      "Ġ896": 3028,
      "Ġ473": 3029,
      "slice": 3030,
      "ror": 3031,
      "Ġ399": 3032,
      "Map": 3033,
      "Arrow": 3034,
      "Ġ389": 3035,
      "Bounds": 3036,
      "Ġin": 3037,
      "SourceBounds": 3038,
      "slices": 3039,
      "sfw": 3040,
      "sliceSourceBounds": 3041,
      "590": 3042,
      "ult": 3043,
      "Vector": 3044,
      "Ġ425": 3045,
      "mits": 3046,
      "permits": 3047,
      "Ġ421": 3048,
      "Ġimage": 3049,
      "head": 3050,
      "For": 3051,
      "ndar": 3052,
      "Ġ391": 3053,
      "650": 3054,
      "chor": 3055,
      "AEE": 3056,
      "requi": 3057,
      "Ġ460": 3058,
      "373737": 3059,
      "Ġ422": 3060,
      "7777": 3061,
      "ual": 3062,
      "Ġ413": 3063,
      "requires": 3064,
      "Battery": 3065,
      "anchor": 3066,
      "ACEE": 3067,
      "000": 3068,
      "363636": 3069,
      "¯å": 3070,
      "Ġ411": 3071,
      "Ġ451": 3072,
      "4285": 3073,
      "·¯å": 3074,
      "¾Ħ": 3075,
      "è·¯å": 3076,
      "tolerance": 3077,
      "mark": 3078,
      "è·¯å¾Ħ": 3079,
      "ping": 3080,
      "Ġ494": 3081,
      "Ado": 3082,
      "=\"\"/></": 3083,
      "Ġ489": 3084,
      "Adobe": 3085,
      "cb": 3086,
      "620": 3087,
      "Ġ442": 3088,
      "eye": 3089,
      "clock": 3090,
      "4208": 3091,
      "gin": 3092,
      "Ġ401": 3093,
      "eta": 3094,
      ")_": 3095,
      "Ġ704": 3096,
      "Ġ417": 3097,
      "Ġ457": 3098,
      "ffdd": 3099,
      "heart": 3100,
      "Ġ437": 3101,
      "Ġ443": 3102,
      "mou": 3103,
      "pan": 3104,
      "Ġ424": 3105,
      "Ġ398": 3106,
      "menu": 3107,
      "Ġ433": 3108,
      "Ġicons": 3109,
      "Ġ444": 3110,
      "Ġ454": 3111,
      "cfce": 3112,
      "Shopicon": 3113,
      "tens": 3114,
      "Security": 3115,
      "Bas": 3116,
      "EAE": 3117,
      "444444": 3118,
      "Ġ467": 3119,
      "ideo": 3120,
      "Basket": 3121,
      "stre": 3122,
      "Ġ495": 3123,
      "ffc": 3124,
      "ĠBeta": 3125,
      "Graph": 3126,
      "chev": 3127,
      "ish": 3128,
      "Ġ445": 3129,
      "guides": 3130,
      "nergy": 3131,
      "Ġ397": 3132,
      "AE": 3133,
      "Ġ466": 3134,
      "and": 3135,
      "Extens": 3136,
      "db": 3137,
      "ĠĠĊ": 3138,
      "Ġ406": 3139,
      "Ġ800": 3140,
      "graph": 3141,
      "44771525": 3142,
      "ave": 3143,
      "icom": 3144,
      "8080": 3145,
      "Energy": 3146,
      "_);": 3147,
      "eft": 3148,
      "ignore": 3149,
      "icomoon": 3150,
      "wr": 3151,
      "0200": 3152,
      "Ġ471": 3153,
      "2328": 3154,
      "Ġ486": 3155,
      "55228475": 3156,
      "Lo": 3157,
      "Ġ497": 3158,
      "mail": 3159,
      "AC": 3160,
      "usic": 3161,
      "sub": 3162,
      "tch": 3163,
      "ulate": 3164,
      "Ġ453": 3165,
      "Ġ1800": 3166,
      "37474": 3167,
      "Download": 3168,
      "630": 3169,
      "Ġ001": 3170,
      "1219": 3171,
      "BCD": 3172,
      "Ġ470": 3173,
      "umulate": 3174,
      "accumulate": 3175,
      "rop": 3176,
      "igin": 3177,
      "Ġ544": 3178,
      "margin": 3179,
      "oth": 3180,
      "2327": 3181,
      "ibility": 3182,
      "Ġ481": 3183,
      "Ġ832": 3184,
      "4145": 3185,
      "750": 3186,
      "Ġ533": 3187,
      "Ġ423": 3188,
      "Ġ478": 3189,
      "660": 3190,
      "entwintig": 3191,
      "Ġtext": 3192,
      "Ġ482": 3193,
      "Ġ450": 3194,
      "tb": 3195,
      "550": 3196,
      "ext": 3197,
      "dce": 3198,
      "copy": 3199,
      "Ġglyph": 3200,
      "Ġ449": 3201,
      "Ġ455": 3202,
      "aalf": 3203,
      "Ġ475": 3204,
      "twaalf": 3205,
      "ack": 3206,
      "ear": 3207,
      "0020": 3208,
      "690": 3209,
      "opt": 3210,
      "eto": 3211,
      "dit": 3212,
      "Ġ847": 3213,
      "414547": 3214,
      "mem": 3215,
      "4040": 3216,
      "Regular": 3217,
      "abe": 3218,
      "ning": 3219,
      "Ġ600": 3220,
      "Ġ510": 3221,
      "iz": 3222,
      "Ġ419": 3223,
      "Ġ458": 3224,
      "4747": 3225,
      "Ġshowguides": 3226,
      "CCCCCC": 3227,
      "memory": 3228,
      "ple": 3229,
      "ved": 3230,
      "ĉĠ": 3231,
      "lay": 3232,
      "Maps": 3233,
      "stretch": 3234,
      "writ": 3235,
      "Ġ452": 3236,
      "calendar": 3237,
      "puch": 3238,
      "ipuch": 3239,
      "puchipuch": 3240,
      "puchipuchi": 3241,
      "Ġmulti": 3242,
      "Left": 3243,
      "air": 3244,
      "gen": 3245,
      "AFAF": 3246,
      "BEC": 3247,
      "blocks": 3248,
      "camera": 3249,
      "old": 3250,
      "scale": 3251,
      "bdc": 3252,
      "Ġ502": 3253,
      "linearRGB": 3254,
      "medi": 3255,
      "6768": 3256,
      "code": 3257,
      "writing": 3258,
      "ess": 3259,
      "4545": 3260,
      "Ġfit": 3261,
      "Ch": 3262,
      "ouble": 3263,
      "chevron": 3264,
      "fo": 3265,
      "mp": 3266,
      "Ġ750": 3267,
      "1428": 3268,
      "080": 3269,
      "Ġ468": 3270,
      "Ġ476": 3271,
      "orite": 3272,
      "Ġ484": 3273,
      "sketchy": 3274,
      "ld": 3275,
      "ntblocks": 3276,
      "shop": 3277,
      "bentblocks": 3278,
      "battery": 3279,
      "Ġ465": 3280,
      "rush": 3281,
      "medium": 3282,
      "shift": 3283,
      "Ġ474": 3284,
      "optimize": 3285,
      "/\">": 3286,
      "Ġ012": 3287,
      "Ġ508": 3288,
      "CCF": 3289,
      "Out": 3290,
      "can": 3291,
      "card": 3292,
      "double": 3293,
      "FCEA": 3294,
      "iado": 3295,
      "alpha": 3296,
      "afiado": 3297,
      "ambur": 3298,
      "Ġ427": 3299,
      "Ġ461": 3300,
      "red": 3301,
      "negent": 3302,
      "negentien": 3303,
      "010": 3304,
      "730": 3305,
      "Qual": 3306,
      "ist": 3307,
      "Ġ479": 3308,
      "2020": 3309,
      "202327": 3310,
      "igns": 3311,
      "0310": 3312,
      "optimizeQual": 3313,
      "optimizeQuality": 3314,
      "2626": 3315,
      "ball": 3316,
      "table": 3317,
      "designs": 3318,
      "1024": 3319,
      "6797": 3320,
      "bag": 3321,
      "Ġ493": 3322,
      "ste": 3323,
      "hor": 3324,
      "Share": 3325,
      "Ġ504": 3326,
      "llu": 3327,
      "ltr": 3328,
      "Ġ846": 3329,
      "strator": 3330,
      "Illu": 3331,
      "670": 3332,
      "tical": 3333,
      "Ġ462": 3334,
      "4900": 3335,
      "result": 3336,
      "Ap": 3337,
      "lash": 3338,
      "conta": 3339,
      "Ġ483": 3340,
      "Ġ501": 3341,
      "Illustrator": 3342,
      "Clarity": 3343,
      "uter": 3344,
      "Ġresult": 3345,
      "Ġ491": 3346,
      "search": 3347,
      "AdobeIllustrator": 3348,
      "830": 3349,
      "ON": 3350,
      "191919": 3351,
      "Graphs": 3352,
      "Extensibility": 3353,
      "970": 3354,
      "DBD": 3355,
      "Save": 3356,
      "ec": 3357,
      "icro": 3358,
      "820": 3359,
      "860": 3360,
      "ant": 3361,
      "Ġ459": 3362,
      "676883": 3363,
      "1111": 3364,
      "1313": 3365,
      "Ġ485": 3366,
      "cart": 3367,
      "gis": 3368,
      "Ġ477": 3369,
      "nse": 3370,
      "870": 3371,
      "ool": 3372,
      "ga": 3373,
      "poin": 3374,
      "Ġdisplay": 3375,
      "Ġ463": 3376,
      "Ġ498": 3377,
      "1366": 3378,
      "3935": 3379,
      "our": 3380,
      "ribu": 3381,
      "ribution": 3382,
      "time": 3383,
      "740": 3384,
      "Ġ554": 3385,
      "love": 3386,
      "node": 3387,
      "6859": 3388,
      "edit": 3389,
      "9268": 3390,
      "Bright": 3391,
      "Lice": 3392,
      "sp": 3393,
      "9939": 3394,
      "License": 3395,
      "760": 3396,
      "bound": 3397,
      "1010": 3398,
      "780": 3399,
      "Tra": 3400,
      "Outline": 3401,
      "00049": 3402,
      "drop": 3403,
      "smart": 3404,
      "Ġ524": 3405,
      "ĠmaskUnits": 3406,
      "4121": 3407,
      "Ġ746": 3408,
      "glass": 3409,
      "1429": 3410,
      "Spinner": 3411,
      "Ġ520": 3412,
      "EAD": 3413,
      "EAEA": 3414,
      "Brightest": 3415,
      "1931": 3416,
      "lect": 3417,
      "types": 3418,
      "850": 3419,
      "car": 3420,
      "fu": 3421,
      "arning": 3422,
      "media": 3423,
      "around": 3424,
      "dom": 3425,
      "4478": 3426,
      "Ġ597": 3427,
      "dertien": 3428,
      "999999": 3429,
      "ffb": 3430,
      "770": 3431,
      "roll": 3432,
      "1098": 3433,
      "ark": 3434,
      "ans": 3435,
      "CFCE": 3436,
      "mid": 3437,
      "key": 3438,
      "rol": 3439,
      "Ġ499": 3440,
      "ats": 3441,
      "EFE": 3442,
      "close": 3443,
      "ode": 3444,
      "1729": 3445,
      "Ġfeather": 3446,
      "twintig": 3447,
      "download": 3448,
      "Free": 3449,
      "Ġ2050": 3450,
      "note": 3451,
      "393939": 3452,
      "1091": 3453,
      "loading": 3454,
      "nodetypes": 3455,
      "Copy": 3456,
      "ive": 3457,
      "nodes": 3458,
      "fef": 3459,
      "hand": 3460,
      "Ð¾": 3461,
      "Ġwhite": 3462,
      "Ġ780": 3463,
      "EBB": 3464,
      "Ð¡": 3465,
      "center": 3466,
      "Ð¾Ð": 3467,
      "9266": 3468,
      "pers": 3469,
      "Ð»": 3470,
      "8888": 3471,
      "so": 3472,
      "ç»": 3473,
      "chat": 3474,
      "Ð¡Ð»": 3475,
      "Ð¾Ð¹": 3476,
      "Ð¡Ð»Ð¾Ð¹": 3477,
      "vertical": 3478,
      "fed": 3479,
      "video": 3480,
      "iner": 3481,
      "inant": 3482,
      "1280": 3483,
      "ding": 3484,
      "47495": 3485,
      "595959": 3486,
      "980": 3487,
      "Ġor": 3488,
      "344952": 3489,
      "shopping": 3490,
      "dominant": 3491,
      "star": 3492,
      "Ġ672": 3493,
      "negen": 3494,
      ":.": 3495,
      "Ġ506": 3496,
      "Ġ608": 3497,
      "FFFAEE": 3498,
      "Row": 3499,
      "music": 3500,
      "select": 3501,
      "Ġ528": 3502,
      "rain": 3503,
      "EDA": 3504,
      "Ġ725": 3505,
      "Ġ592": 3506,
      "Ġspacing": 3507,
      "ĠĠĠĠĠĠĠĠĠĠĠĠĠ": 3508,
      "Ġ526": 3509,
      "FFDD": 3510,
      "710": 3511,
      "Add": 3512,
      "Ġfilter": 3513,
      "0095": 3514,
      "Ġ513": 3515,
      "1712": 3516,
      "ontal": 3517,
      "979797": 3518,
      "izontal": 3519,
      "CAF": 3520,
      "rid": 3521,
      "Ġ507": 3522,
      "AEB": 3523,
      "act": 3524,
      "4644": 3525,
      "1103": 3526,
      "ffd": 3527,
      "Ġ505": 3528,
      "mag": 3529,
      "amburger": 3530,
      "gre": 3531,
      "subject": 3532,
      "IC": 3533,
      "hamburger": 3534,
      "sun": 3535,
      "Ġ518": 3536,
      "Web": 3537,
      "Ġ618": 3538,
      "Ġ002": 3539,
      "emp": 3540,
      "proved": 3541,
      "BFBFBF": 3542,
      "ail": 3543,
      "cht": 3544,
      "paper": 3545,
      "Ġ1028": 3546,
      "meter": 3547,
      "flag": 3548,
      "bottom": 3549,
      "Ġ682": 3550,
      "3535": 3551,
      "Ġsket": 3552,
      "home": 3553,
      "080341": 3554,
      "chtool": 3555,
      "Ġsketchtool": 3556,
      "1089": 3557,
      "Ġ2019": 3558,
      "ume": 3559,
      "cccccccc": 3560,
      "142858": 3561,
      "ãĥ": 3562,
      "User": 3563,
      "map": 3564,
      "å±": 3565,
      "Ġapp": 3566,
      "1414": 3567,
      "ater": 3568,
      "elf": 3569,
      "Ġ560": 3570,
      "2941": 3571,
      "535358": 3572,
      "Art": 3573,
      "zeventien": 3574,
      "container": 3575,
      "Ġapply": 3576,
      "5041": 3577,
      "ai": 3578,
      "ope": 3579,
      "uplo": 3580,
      "5555": 3581,
      "mouth": 3582,
      "selected": 3583,
      "Ġ736": 3584,
      "Ġ584": 3585,
      "13725": 3586,
      "94989": 3587,
      "upload": 3588,
      "wa": 3589,
      "Ġ532": 3590,
      "Ġ588": 3591,
      "olume": 3592,
      "6667": 3593,
      "Ġ503": 3594,
      "move": 3595,
      "788287": 3596,
      "._": 3597,
      "iness": 3598,
      "curve": 3599,
      "usiness": 3600,
      "EBC": 3601,
      "vice": 3602,
      "Ġ522": 3603,
      "press": 3604,
      "Approved": 3605,
      "Full": 3606,
      "Or": 3607,
      "1139": 3608,
      "EEC": 3609,
      "6399": 3610,
      "FDC": 3611,
      "spinner": 3612,
      "logo": 3613,
      "beans": 3614,
      "irt": 3615,
      "Artboard": 3616,
      "cle": 3617,
      "ick": 3618,
      "1016": 3619,
      "ertien": 3620,
      "veertien": 3621,
      "9480": 3622,
      "Bo": 3623,
      "dashing": 3624,
      "57939": 3625,
      "ICON": 3626,
      "Edit": 3627,
      "ase": 3628,
      "875334": 3629,
      "1028": 3630,
      "horizontal": 3631,
      "Origin": 3632,
      "Ġ548": 3633,
      "67757": 3634,
      "radio": 3635,
      "716558": 3636,
      "slash": 3637,
      "warning": 3638,
      "ps": 3639,
      "Ġbottom": 3640,
      "Gu": 3641,
      "ccc": 3642,
      "In": 3643,
      "ĠIcons": 3644,
      "1138": 3645,
      "515151": 3646,
      "bile": 3647,
      "3358": 3648,
      "ForWeb": 3649,
      "LeftOrigin": 3650,
      "SaveForWeb": 3651,
      "icrophone": 3652,
      "ĠbottomLeftOrigin": 3653,
      "1092": 3654,
      "121923": 3655,
      "7450": 3656,
      "He": 3657,
      "Right": 3658,
      "pand": 3659,
      "1096": 3660,
      "4652": 3661,
      "1173": 3662,
      "col": 3663,
      "Ġ525": 3664,
      "Ġ578": 3665,
      "BAA": 3666,
      "Ġ677": 3667,
      "twork": 3668,
      "EDB": 3669,
      "Med": 3670,
      "66353": 3671,
      "mun": 3672,
      "1131": 3673,
      "ifier": 3674,
      "pointer": 3675,
      "ling": 3676,
      "Ġ661": 3677,
      "ower": 3678,
      "Ġgu": 3679,
      "Ġobject": 3680,
      "0434": 3681,
      "EDED": 3682,
      "eaea": 3683,
      "545454": 3684,
      "eyes": 3685,
      "010101": 3686,
      "Bl": 3687,
      "DCE": 3688,
      "for": 3689,
      "Ġ\">": 3690,
      "ideto": 3691,
      "Ġ585": 3692,
      "4037": 3693,
      "Ġgrid": 3694,
      "Ġguideto": 3695,
      "Ġobjecttolerance": 3696,
      "Ġgridtolerance": 3697,
      "Ġguidetolerance": 3698,
      "ross": 3699,
      "1242": 3700,
      "27323": 3701,
      "ople": 3702,
      "664131": 3703,
      "product": 3704,
      "Matrix": 3705,
      "Ġ538": 3706,
      "3529": 3707,
      "ident": 3708,
      "rows": 3709,
      "Lock": 3710,
      "Cam": 3711,
      "Ge": 3712,
      "su": 3713,
      "watch": 3714,
      "Ġ810": 3715,
      "error": 3716,
      "27261": 3717,
      "ned": 3718,
      "5000": 3719,
      "medical": 3720,
      "efc": 3721,
      "1639": 3722,
      "ield": 3723,
      "Blur": 3724,
      "910": 3725,
      "bre": 3726,
      "bol": 3727,
      "pub": 3728,
      "side": 3729,
      "Ġt": 3730,
      "1132": 3731,
      "1133": 3732,
      "7866": 3733,
      "4249": 3734,
      "8686": 3735,
      "1337": 3736,
      "2925": 3737,
      "bas": 3738,
      "EDBD": 3739,
      "avorite": 3740,
      "eyeb": 3741,
      ");}": 3742,
      "940": 3743,
      "_);}": 3744,
      "Ġ527": 3745,
      "moon": 3746,
      "2236": 3747,
      "91674": 3748,
      "Ġ621": 3749,
      "isolate": 3750,
      "magic": 3751,
      "dis": 3752,
      "Ġ700": 3753,
      "1011": 3754,
      "1097": 3755,
      "Ġ536": 3756,
      "Ġ587": 3757,
      "ç»Ħ": 3758,
      "ICONS": 3759,
      "ãĤ": 3760,
      "pass": 3761,
      "ilding": 3762,
      "Ġ516": 3763,
      "Ġ596": 3764,
      "Ġ575": 3765,
      "5152": 3766,
      "¼ĸ": 3767,
      "ç¼ĸ": 3768,
      "Ġ530": 3769,
      "Ġ572": 3770,
      "ç¼ĸç»Ħ": 3771,
      "ede": 3772,
      "man": 3773,
      "Ġ574": 3774,
      "1338": 3775,
      "890": 3776,
      "464455": 3777,
      "Guides": 3778,
      "brush": 3779,
      "0050": 3780,
      "0041": 3781,
      "info": 3782,
      "Ġ820": 3783,
      "1056": 3784,
      "Ġ547": 3785,
      "Ġ570": 3786,
      "4099": 3787,
      "1001": 3788,
      "tions": 3789,
      "FDFFFF": 3790,
      "isher": 3791,
      "game": 3792,
      "Gener": 3793,
      "Back": 3794,
      "not": 3795,
      "Ġ819": 3796,
      "Ġ720": 3797,
      "Ġ583": 3798,
      "28571429": 3799,
      "And": 3800,
      "ADE": 3801,
      "Favorite": 3802,
      "No": 3803,
      "rier": 3804,
      "cont": 3805,
      ");}</": 3806,
      "agon": 3807,
      "bul": 3808,
      "eba": 3809,
      "1463": 3810,
      "5757": 3811,
      "LI": 3812,
      "PX": 3813,
      "her": 3814,
      "pdf": 3815,
      "3554": 3816,
      "creen": 3817,
      "Al": 3818,
      "cross": 3819,
      "Ġ537": 3820,
      "1171": 3821,
      "28572": 3822,
      "9680": 3823,
      "åĽ": 3824,
      "1818": 3825,
      "00001": 3826,
      "publ": 3827,
      "cil": 3828,
      "ew": 3829,
      "1052": 3830,
      "Ġ521": 3831,
      "Ġ529": 3832,
      "Ġ580": 3833,
      "remove": 3834,
      "1009": 3835,
      "barrier": 3836,
      "vers": 3837,
      "1211": 3838,
      "1875": 3839,
      "990": 3840,
      "ification": 3841,
      "AFA": 3842,
      "General": 3843,
      "ire": 3844,
      "ĠFile": 3845,
      "Ġ612": 3846,
      "Ġ568": 3847,
      "4646": 3848,
      "6856": 3849,
      "markers": 3850,
      "munication": 3851,
      "publisher": 3852,
      "070": 3853,
      "multi": 3854,
      "Ġ550": 3855,
      "Ġ589": 3856,
      "bebe": 3857,
      "Viv": 3858,
      "ry": 3859,
      "1095": 3860,
      "Ġ517": 3861,
      "Ġ534": 3862,
      "Ġ543": 3863,
      "1717": 3864,
      "4842": 3865,
      "6645": 3866,
      "1123": 3867,
      "mobile": 3868,
      "trash": 3869,
      "808080": 3870,
      "identifier": 3871,
      "åĽ¾": 3872,
      "SLI": 3873,
      "Ġ624": 3874,
      "CES": 3875,
      "SLICES": 3876,
      "040": 3877,
      "050": 3878,
      "950": 3879,
      "`\"/>": 3880,
      "Ġ864": 3881,
      "1015": 3882,
      "like": 3883,
      "export": 3884,
      "Vivid": 3885,
      "cel": 3886,
      "cog": 3887,
      "sw": 3888,
      "ue": 3889,
      "1045": 3890,
      "Ġ531": 3891,
      "ifi": 3892,
      "eyebrows": 3893,
      "-\"": 3894,
      "930": 3895,
      "Not": 3896,
      "border": 3897,
      "volume": 3898,
      "1013": 3899,
      "Ġ573": 3900,
      "44336": 3901,
      "Ġ874": 3902,
      "Ġ535": 3903,
      "Ġ598": 3904,
      "location": 3905,
      "EAA": 3906,
      "cut": 3907,
      "tag": 3908,
      "Ġ546": 3909,
      "Ġ564": 3910,
      "Ġ590": 3911,
      "1319": 3912,
      "share": 3913,
      "ECE": 3914,
      "ah": 3915,
      "Ġ540": 3916,
      "2048": 3917,
      "4893": 3918,
      "7344": 3919,
      "oct": 3920,
      "Ġ789": 3921,
      "1094": 3922,
      "1093": 3923,
      "2323": 3924,
      "89664": 3925,
      "ance": 3926,
      "Ġ519": 3927,
      "2041": 3928,
      "network": 3929,
      "terti": 3930,
      "EEE": 3931,
      "tertiary": 3932,
      "ecom": 3933,
      "1137": 3934,
      "forward": 3935,
      "jp": 3936,
      "1216": 3937,
      "Ġ581": 3938,
      "CCE": 3939,
      "production": 3940,
      "4142": 3941,
      "_\"/><": 3942,
      "Ġ610": 3943,
      "Ġ563": 3944,
      "1535": 3945,
      "920": 3946,
      "rt": 3947,
      "ĠG": 3948,
      "Ġ708": 3949,
      "Ġ577": 3950,
      "Ġ586": 3951,
      "comp": 3952,
      "EBE": 3953,
      "FEF": 3954,
      "ber": 3955,
      "nch": 3956,
      "Ġ632": 3957,
      "1018": 3958,
      "Ġ539": 3959,
      "3291": 3960,
      "57142858": 3961,
      "58360": 3962,
      "FFAF": 3963,
      "41416": 3964,
      "03838": 3965,
      "magicoon": 3966,
      "Ġevenodd": 3967,
      "Ġ523": 3968,
      "1129": 3969,
      "wind": 3970,
      "Dark": 3971,
      "glo": 3972,
      "site": 3973,
      "uk": 3974,
      "1297": 3975,
      "Ġ693": 3976,
      "1087": 3977,
      "Lager": 3978,
      "1008": 3979,
      "vas": 3980,
      "Ġst": 3981,
      "Ġ828": 3982,
      "1099": 3983,
      "Ġ542": 3984,
      "Ġ565": 3985,
      "030708": 3986,
      "octagon": 3987,
      "FCC": 3988,
      "Mess": 3989,
      "aw": 3990,
      "able": 3991,
      "acf": 3992,
      "free": 3993,
      "Ġ625": 3994,
      "Ġ514": 3995,
      "Ġ541": 3996,
      "142857": 3997,
      "5522": 3998,
      "Ġ853": 3999,
      "Ġ645": 4000,
      "1039": 4001,
      "Ġ599": 4002,
      "1320": 4003,
      "1578": 4004,
      "lete": 4005,
      "705041": 4006,
      "bookmark": 4007,
      "Book": 4008,
      "wal": 4009,
      "ĠR": 4010,
      "1279": 4011,
      "Ġ614": 4012,
      "Ġ622": 4013,
      "canvas": 4014,
      "cu": 4015,
      "dia": 4016,
      "1213": 4017,
      "Ġ716": 4018,
      "Ġ611": 4019,
      "1066": 4020,
      "1068": 4021,
      "lap": 4022,
      "3954": 4023,
      "5690": 4024,
      "delete": 4025,
      "dae": 4026,
      "Love": 4027,
      "layout": 4028,
      "herit": 4029,
      "Ġ558": 4030,
      "Ġ582": 4031,
      "1177": 4032,
      "1128": 4033,
      "2197": 4034,
      "5176": 4035,
      "bow": 4036,
      "Ġ734": 4037,
      "Ġ637": 4038,
      "2954": 4039,
      "1124": 4040,
      "Message": 4041,
      "(-.": 4042,
      "ggle": 4043,
      "zado": 4044,
      "Ġ591": 4045,
      "1565": 4046,
      "people": 4047,
      "caf": 4048,
      "Offset": 4049,
      "777777": 4050,
      "Trazado": 4051,
      "1105": 4052,
      "Bu": 4053,
      "zuk": 4054,
      "Ġ728": 4055,
      "1035": 4056,
      "Ġ571": 4057,
      "igo": 4058,
      "news": 4059,
      "ange": 4060,
      "Upload": 4061,
      "basket": 4062,
      "Outer": 4063,
      "ain": 4064,
      "action": 4065,
      "ng": 4066,
      "0002": 4067,
      "Ġ0132": 4068,
      "inherit": 4069,
      "Ġ856": 4070,
      "1048": 4071,
      "tele": 4072,
      "lood": 4073,
      "toggle": 4074,
      "panfu": 4075,
      "barrierfree": 4076,
      "ecomo": 4077,
      "zukigo": 4078,
      "0384": 4079,
      "At": 4080,
      "ecf": 4081,
      "Ġ840": 4082,
      "Ġ710": 4083,
      "bra": 4084,
      "pie": 4085,
      "Ġemp": 4086,
      "Ġ647": 4087,
      "1051": 4088,
      "Ġ562": 4089,
      "nding": 4090,
      "4640": 4091,
      "67625": 4092,
      "money": 4093,
      "EDEAE": 4094,
      "390524": 4095
    },
    "merges": [
      [
        "Ġ",
        "1"
      ],
      [
        "=",
        "\""
      ],
      [
        "Ġ",
        "L"
      ],
      [
        "r",
        "o"
      ],
      [
        "s",
        "t"
      ],
      [
        "k",
        "e"
      ],
      [
        "ro",
        "ke"
      ],
      [
        "st",
        "roke"
      ],
      [
        "Ġ",
        "stroke"
      ],
      [
        "t",
        "h"
      ],
      [
        "0",
        "0"
      ],
      [
        "Ġ",
        "2"
      ],
      [
        "Ġ",
        "C"
      ],
      [
        "p",
        "a"
      ],
      [
        "i",
        "l"
      ],
      [
        "f",
        "il"
      ],
      [
        "fil",
        "l"
      ],
      [
        "Ġ",
        "fill"
      ],
      [
        "Ġ",
        "0"
      ],
      [
        "Ġ",
        "Ġ"
      ],
      [
        "i",
        "d"
      ],
      [
        "/",
        ">"
      ],
      [
        "\"",
        "/>"
      ],
      [
        "Ġ1",
        "2"
      ],
      [
        "i",
        "n"
      ],
      [
        "Ġ1",
        "0"
      ],
      [
        "Ġ",
        "9"
      ],
      [
        "Ġ1",
        "1"
      ],
      [
        "Ġ",
        "8"
      ],
      [
        "pa",
        "th"
      ],
      [
        "Ġ",
        "d"
      ],
      [
        "Ġ1",
        "3"
      ],
      [
        "1",
        "2"
      ],
      [
        "Ġ1",
        "4"
      ],
      [
        "Ġ",
        "7"
      ],
      [
        "Ġ1",
        "5"
      ],
      [
        "id",
        "th"
      ],
      [
        "w",
        "idth"
      ],
      [
        "Ġ",
        "6"
      ],
      [
        "-",
        "."
      ],
      [
        "Ġ1",
        "6"
      ],
      [
        "Ġ",
        "3"
      ],
      [
        "1",
        "0"
      ],
      [
        "o",
        "n"
      ],
      [
        "Ġ",
        "5"
      ],
      [
        "Ġ",
        "4"
      ],
      [
        "1",
        "1"
      ],
      [
        "1",
        "3"
      ],
      [
        "l",
        "a"
      ],
      [
        "Ġ1",
        "7"
      ],
      [
        "v",
        "g"
      ],
      [
        "s",
        "vg"
      ],
      [
        "i",
        "t"
      ],
      [
        "1",
        "4"
      ],
      [
        "n",
        "on"
      ],
      [
        "1",
        "6"
      ],
      [
        "non",
        "e"
      ],
      [
        "1",
        "5"
      ],
      [
        "pa",
        "c"
      ],
      [
        "h",
        "t"
      ],
      [
        "Ġ1",
        "8"
      ],
      [
        "w",
        "w"
      ],
      [
        "it",
        "y"
      ],
      [
        "pac",
        "ity"
      ],
      [
        "o",
        "pacity"
      ],
      [
        "c",
        "k"
      ],
      [
        "in",
        "g"
      ],
      [
        "1",
        "7"
      ],
      [
        "=\"",
        "."
      ],
      [
        "la",
        "ck"
      ],
      [
        "b",
        "lack"
      ],
      [
        "Ġfill",
        "ing"
      ],
      [
        "<",
        "/"
      ],
      [
        "p",
        "x"
      ],
      [
        "1",
        "8"
      ],
      [
        "Ġ",
        "c"
      ],
      [
        "1",
        "9"
      ],
      [
        "Ġ",
        "x"
      ],
      [
        "Ġ1",
        "9"
      ],
      [
        "o",
        "r"
      ],
      [
        "2",
        "00"
      ],
      [
        "\"",
        ">"
      ],
      [
        "n",
        "s"
      ],
      [
        "l",
        "in"
      ],
      [
        "2",
        "0"
      ],
      [
        "ĠĠ",
        "ĠĠ"
      ],
      [
        "m",
        "l"
      ],
      [
        "00",
        "00"
      ],
      [
        "Ġx",
        "ml"
      ],
      [
        "l",
        "e"
      ],
      [
        "8",
        "00"
      ],
      [
        "Ġ2",
        "4"
      ],
      [
        "=\"",
        "#"
      ],
      [
        "Ġ2",
        "0"
      ],
      [
        "ht",
        "t"
      ],
      [
        "htt",
        "p"
      ],
      [
        "/",
        "/"
      ],
      [
        ":",
        "//"
      ],
      [
        "or",
        "g"
      ],
      [
        "Ġxml",
        "ns"
      ],
      [
        "Ġ",
        "v"
      ],
      [
        "ww",
        "w"
      ],
      [
        "i",
        "g"
      ],
      [
        "Ġ",
        "h"
      ],
      [
        "ig",
        "ht"
      ],
      [
        "e",
        "ight"
      ],
      [
        "Ġh",
        "eight"
      ],
      [
        "Ġ",
        "width"
      ],
      [
        "2",
        "3"
      ],
      [
        "lin",
        "e"
      ],
      [
        "2",
        "2"
      ],
      [
        "i",
        "e"
      ],
      [
        "2",
        "4"
      ],
      [
        "ie",
        "w"
      ],
      [
        "200",
        "0"
      ],
      [
        "o",
        "x"
      ],
      [
        "B",
        "ox"
      ],
      [
        "Ġv",
        "iew"
      ],
      [
        "Ġview",
        "Box"
      ],
      [
        "ro",
        "u"
      ],
      [
        "2",
        "1"
      ],
      [
        "n",
        "d"
      ],
      [
        "Ġ",
        "id"
      ],
      [
        "rou",
        "nd"
      ],
      [
        "Ġ2",
        "1"
      ],
      [
        "ĠĠ",
        "Ġ"
      ],
      [
        "2",
        "5"
      ],
      [
        "Ġ",
        "-"
      ],
      [
        "e",
        "r"
      ],
      [
        "Ġ",
        "<"
      ],
      [
        "2",
        "7"
      ],
      [
        "s",
        "s"
      ],
      [
        "3",
        "2"
      ],
      [
        "0000",
        "00"
      ],
      [
        "2",
        "8"
      ],
      [
        "2",
        "6"
      ],
      [
        "2",
        "9"
      ],
      [
        "Ġ2",
        "2"
      ],
      [
        "3",
        "3"
      ],
      [
        "la",
        "ss"
      ],
      [
        "Ġc",
        "lass"
      ],
      [
        ",",
        "-"
      ],
      [
        "a",
        "p"
      ],
      [
        "3",
        "0"
      ],
      [
        "Ġ",
        "M"
      ],
      [
        "\"/>",
        "<"
      ],
      [
        "st",
        "y"
      ],
      [
        "sty",
        "le"
      ],
      [
        "3",
        "6"
      ],
      [
        "o",
        "in"
      ],
      [
        "r",
        "e"
      ],
      [
        "4",
        "4"
      ],
      [
        "c",
        "ap"
      ],
      [
        "\"/>",
        "</"
      ],
      [
        "\">",
        "<"
      ],
      [
        "3",
        "4"
      ],
      [
        "3",
        "5"
      ],
      [
        "3",
        "8"
      ],
      [
        "3",
        "7"
      ],
      [
        ":",
        "#"
      ],
      [
        "line",
        "cap"
      ],
      [
        "3",
        "9"
      ],
      [
        "v",
        "e"
      ],
      [
        "Ġ",
        "y"
      ],
      [
        "4",
        "8"
      ],
      [
        "j",
        "oin"
      ],
      [
        "line",
        "join"
      ],
      [
        "lin",
        "k"
      ],
      [
        "3",
        "1"
      ],
      [
        "x",
        "link"
      ],
      [
        "4",
        "0"
      ],
      [
        "a",
        "t"
      ],
      [
        "9",
        "9"
      ],
      [
        "Ġ3",
        "2"
      ],
      [
        "4",
        "5"
      ],
      [
        "Z",
        "M"
      ],
      [
        "4",
        "6"
      ],
      [
        "5",
        "6"
      ],
      [
        "4",
        "7"
      ],
      [
        "r",
        "a"
      ],
      [
        "Ġ",
        "style"
      ],
      [
        "c",
        "l"
      ],
      [
        "Ġ",
        "r"
      ],
      [
        "ĠĠĠĠ",
        "ĠĠĠ"
      ],
      [
        "r",
        "u"
      ],
      [
        "c",
        "t"
      ],
      [
        "d",
        "e"
      ],
      [
        "4",
        "9"
      ],
      [
        "4",
        "2"
      ],
      [
        ",",
        "."
      ],
      [
        "z",
        "m"
      ],
      [
        "o",
        "d"
      ],
      [
        "i",
        "on"
      ],
      [
        "a",
        "r"
      ],
      [
        "m",
        "e"
      ],
      [
        "5",
        "0"
      ],
      [
        "5",
        "5"
      ],
      [
        "4",
        "1"
      ],
      [
        "Ġ",
        "."
      ],
      [
        "cl",
        "s"
      ],
      [
        "i",
        "m"
      ],
      [
        "ra",
        "ns"
      ],
      [
        "ru",
        "le"
      ],
      [
        "o",
        "l"
      ],
      [
        "5",
        "7"
      ],
      [
        "4",
        "3"
      ],
      [
        "Ġ2",
        "3"
      ],
      [
        "Ġ",
        "Z"
      ],
      [
        "t",
        "rans"
      ],
      [
        "n",
        "a"
      ],
      [
        "c",
        "on"
      ],
      [
        "5",
        "8"
      ],
      [
        "e",
        "ve"
      ],
      [
        ";",
        "}"
      ],
      [
        "eve",
        "n"
      ],
      [
        "Ġ2",
        "6"
      ],
      [
        "od",
        "d"
      ],
      [
        "even",
        "odd"
      ],
      [
        "Ġ2",
        "8"
      ],
      [
        "Ġ2",
        "5"
      ],
      [
        "er",
        "s"
      ],
      [
        "ers",
        "ion"
      ],
      [
        "6",
        "6"
      ],
      [
        "19",
        "99"
      ],
      [
        "5",
        "9"
      ],
      [
        "Ġv",
        "ersion"
      ],
      [
        "t",
        "e"
      ],
      [
        "F",
        "F"
      ],
      [
        "Ġ",
        "</"
      ],
      [
        "Ġ2",
        "7"
      ],
      [
        "6",
        "4"
      ],
      [
        "it",
        "le"
      ],
      [
        "f",
        "f"
      ],
      [
        "5",
        "2"
      ],
      [
        "t",
        "itle"
      ],
      [
        "z",
        "M"
      ],
      [
        "6",
        "0"
      ],
      [
        "Ġ4",
        "8"
      ],
      [
        "Ġ3",
        "0"
      ],
      [
        "re",
        "ct"
      ],
      [
        "5",
        "4"
      ],
      [
        "Ġ2",
        "9"
      ],
      [
        "at",
        "a"
      ],
      [
        "5",
        "1"
      ],
      [
        "s",
        "er"
      ],
      [
        "5",
        "3"
      ],
      [
        "6",
        "8"
      ],
      [
        "na",
        "me"
      ],
      [
        "i",
        "p"
      ],
      [
        "r",
        "c"
      ],
      [
        "or",
        "m"
      ],
      [
        "6",
        "7"
      ],
      [
        "Ġ3",
        "6"
      ],
      [
        "Ġd",
        "ata"
      ],
      [
        "8",
        "8"
      ],
      [
        "Ġ5",
        "12"
      ],
      [
        "ĠĠĠĠ",
        "ĠĠĠĠĠĠĠ"
      ],
      [
        "c",
        "i"
      ],
      [
        "de",
        "f"
      ],
      [
        "def",
        "s"
      ],
      [
        "p",
        "re"
      ],
      [
        "ser",
        "ve"
      ],
      [
        "pre",
        "serve"
      ],
      [
        "y",
        "er"
      ],
      [
        "Ġc",
        "y"
      ],
      [
        "Ġc",
        "x"
      ],
      [
        "7",
        "7"
      ],
      [
        "rc",
        "le"
      ],
      [
        "ci",
        "rcle"
      ],
      [
        "i",
        "con"
      ],
      [
        "f",
        "orm"
      ],
      [
        "7",
        "0"
      ],
      [
        "s",
        "e"
      ],
      [
        "7",
        "8"
      ],
      [
        "9",
        "6"
      ],
      [
        "7",
        "5"
      ],
      [
        "L",
        "a"
      ],
      [
        "Ġ3",
        "1"
      ],
      [
        "Z",
        "m"
      ],
      [
        "Ġ6",
        "4"
      ],
      [
        "La",
        "yer"
      ],
      [
        "pac",
        "e"
      ],
      [
        "6",
        "1"
      ],
      [
        "p",
        "e"
      ],
      [
        "8",
        "0"
      ],
      [
        "7",
        "9"
      ],
      [
        "Ġ3",
        "8"
      ],
      [
        "6",
        "9"
      ],
      [
        "6",
        "2"
      ],
      [
        "Ġ",
        "l"
      ],
      [
        "s",
        "pace"
      ],
      [
        "trans",
        "form"
      ],
      [
        "Ġ4",
        "0"
      ],
      [
        "n",
        "t"
      ],
      [
        "Ġ",
        "transform"
      ],
      [
        "Ġ3",
        "4"
      ],
      [
        "6",
        "3"
      ],
      [
        "8",
        "9"
      ],
      [
        "Ġ3",
        "3"
      ],
      [
        "ar",
        "y"
      ],
      [
        "Ġ3",
        "5"
      ],
      [
        "m",
        "it"
      ],
      [
        "7",
        "2"
      ],
      [
        "7",
        "6"
      ],
      [
        "mit",
        "er"
      ],
      [
        "25",
        "6"
      ],
      [
        "Ġ3",
        "9"
      ],
      [
        "t",
        "s"
      ],
      [
        "im",
        "it"
      ],
      [
        "l",
        "imit"
      ],
      [
        "miter",
        "limit"
      ],
      [
        "p",
        "ol"
      ],
      [
        "pol",
        "y"
      ],
      [
        "Ġ3",
        "7"
      ],
      [
        "Ġ4",
        "2"
      ],
      [
        "Ġ",
        "p"
      ],
      [
        "6",
        "5"
      ],
      [
        "la",
        "te"
      ],
      [
        "ol",
        "or"
      ],
      [
        "trans",
        "late"
      ],
      [
        "d",
        "c"
      ],
      [
        "l",
        "ip"
      ],
      [
        "oin",
        "ts"
      ],
      [
        "Ġp",
        "oints"
      ],
      [
        "P",
        "a"
      ],
      [
        "7",
        "1"
      ],
      [
        "7",
        "3"
      ],
      [
        "Ġ",
        "round"
      ],
      [
        "Ġ4",
        "4"
      ],
      [
        "8",
        "5"
      ],
      [
        "9",
        "0"
      ],
      [
        "7",
        "4"
      ],
      [
        "ĉ",
        "ĉ"
      ],
      [
        "Ġ4",
        "1"
      ],
      [
        "12",
        "8"
      ],
      [
        ")",
        ";"
      ],
      [
        "Ġ",
        "z"
      ],
      [
        ">",
        "<"
      ],
      [
        "8",
        "4"
      ],
      [
        "27",
        "4"
      ],
      [
        "ĠĠĠĠ",
        "ĠĠĠĠĠĠĠĠĠĠĠ"
      ],
      [
        "g",
        "b"
      ],
      [
        "8",
        "7"
      ],
      [
        "9",
        "4"
      ],
      [
        "t",
        "y"
      ],
      [
        "ĠĠĠĠ",
        "Ġ"
      ],
      [
        "ty",
        "pe"
      ],
      [
        "Pa",
        "th"
      ],
      [
        "Ġ4",
        "3"
      ],
      [
        "Ġ5",
        "0"
      ],
      [
        "p",
        "r"
      ],
      [
        "9",
        "2"
      ],
      [
        "8",
        "3"
      ],
      [
        "b",
        "le"
      ],
      [
        "8",
        "6"
      ],
      [
        "pr",
        "im"
      ],
      [
        "prim",
        "ary"
      ],
      [
        "Ġ",
        "s"
      ],
      [
        "c",
        "h"
      ],
      [
        "8",
        "2"
      ],
      [
        "Ġr",
        "gb"
      ],
      [
        "b",
        "a"
      ],
      [
        "8",
        "1"
      ],
      [
        "9",
        "3"
      ],
      [
        "Ġc",
        "lip"
      ],
      [
        "x",
        "t"
      ],
      [
        "=\"",
        "_"
      ],
      [
        "Ġ4",
        "5"
      ],
      [
        "te",
        "xt"
      ],
      [
        ";",
        "\""
      ],
      [
        ")",
        "\""
      ],
      [
        "c",
        "olor"
      ],
      [
        "a",
        "l"
      ],
      [
        "9",
        "5"
      ],
      [
        "9",
        "1"
      ],
      [
        "g",
        "on"
      ],
      [
        "poly",
        "gon"
      ],
      [
        "Ġ4",
        "6"
      ],
      [
        "Ġ",
        "m"
      ],
      [
        "g",
        "e"
      ],
      [
        "Ġ4",
        "7"
      ],
      [
        "in",
        "k"
      ],
      [
        "i",
        "f"
      ],
      [
        "M",
        "id"
      ],
      [
        "Ġ4",
        "9"
      ],
      [
        "o",
        "p"
      ],
      [
        "cap",
        "e"
      ],
      [
        "s",
        "cape"
      ],
      [
        "ink",
        "scape"
      ],
      [
        "29",
        "2"
      ],
      [
        "9",
        "7"
      ],
      [
        "9",
        "8"
      ],
      [
        "n",
        "e"
      ],
      [
        "Ġ2",
        "56"
      ],
      [
        "o",
        "m"
      ],
      [
        "5",
        "12"
      ],
      [
        "o",
        "u"
      ],
      [
        "1",
        "00"
      ],
      [
        "Ġ5",
        "1"
      ],
      [
        "Ġ5",
        "2"
      ],
      [
        "la",
        "t"
      ],
      [
        "a",
        "d"
      ],
      [
        "c",
        "c"
      ],
      [
        "Ġ5",
        "6"
      ],
      [
        "Ġ",
        "ro"
      ],
      [
        "Ġ",
        "type"
      ],
      [
        "s",
        "c"
      ],
      [
        "i",
        "a"
      ],
      [
        "d",
        "f"
      ],
      [
        "Ġ1",
        "00"
      ],
      [
        "at",
        "i"
      ],
      [
        "if",
        "y"
      ],
      [
        "st",
        "op"
      ],
      [
        "Ġ",
        "none"
      ],
      [
        ")",
        "\">"
      ],
      [
        "c",
        "ss"
      ],
      [
        "icon",
        "ify"
      ],
      [
        "1",
        "12"
      ],
      [
        "u",
        "r"
      ],
      [
        "(",
        "-"
      ],
      [
        "ff",
        "ff"
      ],
      [
        "i",
        "c"
      ],
      [
        "_",
        "\""
      ],
      [
        "Ġ5",
        "3"
      ],
      [
        "ba",
        "ck"
      ],
      [
        "g",
        "round"
      ],
      [
        "FF",
        "FF"
      ],
      [
        "back",
        "ground"
      ],
      [
        "e",
        "na"
      ],
      [
        "ena",
        "ble"
      ],
      [
        "Ġ",
        "inkscape"
      ],
      [
        "de",
        "sc"
      ],
      [
        "ne",
        "w"
      ],
      [
        "ke",
        "t"
      ],
      [
        "Ġr",
        "x"
      ],
      [
        "ar",
        "ia"
      ],
      [
        "o",
        "w"
      ],
      [
        "Ġ",
        "\"/>"
      ],
      [
        "10",
        "4"
      ],
      [
        ";}",
        "</"
      ],
      [
        ">",
        "."
      ],
      [
        "at",
        "e"
      ],
      [
        "19",
        "2"
      ],
      [
        "Ġ5",
        "4"
      ],
      [
        "Ġ6",
        "0"
      ],
      [
        "Ġ5",
        "5"
      ],
      [
        "11",
        "4"
      ],
      [
        "11",
        "3"
      ],
      [
        "10",
        "6"
      ],
      [
        "e",
        "e"
      ],
      [
        "i",
        "s"
      ],
      [
        "12",
        "1"
      ],
      [
        "ra",
        "d"
      ],
      [
        "rou",
        "p"
      ],
      [
        "Ġ10",
        "24"
      ],
      [
        "ket",
        "ch"
      ],
      [
        "im",
        "g"
      ],
      [
        "Ġro",
        "le"
      ],
      [
        "c",
        "om"
      ],
      [
        "ap",
        "e"
      ],
      [
        "h",
        "ape"
      ],
      [
        "con",
        "d"
      ],
      [
        "Ġ",
        "enable"
      ],
      [
        "Ġ16",
        "9"
      ],
      [
        "se",
        "cond"
      ],
      [
        "G",
        "roup"
      ],
      [
        "Ġ5",
        "7"
      ],
      [
        "ie",
        "nt"
      ],
      [
        "second",
        "ary"
      ],
      [
        "t",
        "ru"
      ],
      [
        "10",
        "2"
      ],
      [
        "Ġ",
        "f"
      ],
      [
        "z",
        "e"
      ],
      [
        "tru",
        "e"
      ],
      [
        "-",
        "-"
      ],
      [
        "m",
        "o"
      ],
      [
        "poly",
        "line"
      ],
      [
        "a",
        "n"
      ],
      [
        "Ġ7",
        "6"
      ],
      [
        "00",
        "1"
      ],
      [
        "10",
        "8"
      ],
      [
        "Ġ",
        "S"
      ],
      [
        ";",
        "\"/>"
      ],
      [
        "Ġ5",
        "8"
      ],
      [
        "14",
        "4"
      ],
      [
        "33",
        "33"
      ],
      [
        "Ġ18",
        "8"
      ],
      [
        "10",
        "5"
      ],
      [
        "10",
        "3"
      ],
      [
        "12",
        "0"
      ],
      [
        ";",
        "\"/><"
      ],
      [
        "cl",
        "ip"
      ],
      [
        "s",
        "pe"
      ],
      [
        "2",
        "12"
      ],
      [
        "ur",
        "l"
      ],
      [
        "s",
        "h"
      ],
      [
        "20",
        "8"
      ],
      [
        "Ġ",
        "opacity"
      ],
      [
        "10",
        "7"
      ],
      [
        "e",
        "t"
      ],
      [
        "e",
        "ct"
      ],
      [
        "0",
        "9"
      ],
      [
        "rad",
        "ient"
      ],
      [
        "Ġ7",
        "2"
      ],
      [
        "ati",
        "o"
      ],
      [
        "spe",
        "ct"
      ],
      [
        "R",
        "atio"
      ],
      [
        "A",
        "spect"
      ],
      [
        "Ġ",
        "preserve"
      ],
      [
        "Aspect",
        "Ratio"
      ],
      [
        "Ġpreserve",
        "AspectRatio"
      ],
      [
        "=\"",
        "-"
      ],
      [
        "Ġ6",
        "2"
      ],
      [
        "11",
        "6"
      ],
      [
        "10",
        "1"
      ],
      [
        "Ġ12",
        "8"
      ],
      [
        "e",
        "l"
      ],
      [
        "10",
        "9"
      ],
      [
        "0",
        "2"
      ],
      [
        "13",
        "6"
      ],
      [
        "Ġ",
        "aria"
      ],
      [
        "2",
        "16"
      ],
      [
        "23",
        "1"
      ],
      [
        "16",
        "0"
      ],
      [
        "it",
        "e"
      ],
      [
        ">",
        "</"
      ],
      [
        "Ġ5",
        "9"
      ],
      [
        "12",
        "4"
      ],
      [
        "17",
        "6"
      ],
      [
        "11",
        "1"
      ],
      [
        "24",
        "1"
      ],
      [
        "11",
        "8"
      ],
      [
        "11",
        "5"
      ],
      [
        "p",
        "h"
      ],
      [
        ";}",
        "."
      ],
      [
        "11",
        "9"
      ],
      [
        "Y",
        "Mid"
      ],
      [
        "x",
        "Mid"
      ],
      [
        "xMid",
        "YMid"
      ],
      [
        "Ġ6",
        "1"
      ],
      [
        "12",
        "5"
      ],
      [
        "de",
        "n"
      ],
      [
        "in",
        "e"
      ],
      [
        "23",
        "2"
      ],
      [
        "w",
        "h"
      ],
      [
        "id",
        "den"
      ],
      [
        "18",
        "4"
      ],
      [
        "11",
        "7"
      ],
      [
        "h",
        "idden"
      ],
      [
        "15",
        "2"
      ],
      [
        "wh",
        "ite"
      ],
      [
        "16",
        "8"
      ],
      [
        "r",
        "df"
      ],
      [
        "12",
        "6"
      ],
      [
        "0",
        "5"
      ],
      [
        "I",
        "con"
      ],
      [
        "0",
        "6"
      ],
      [
        "S",
        "hape"
      ],
      [
        "12",
        "7"
      ],
      [
        "Ġ9",
        "6"
      ],
      [
        "F",
        "lat"
      ],
      [
        "12",
        "3"
      ],
      [
        "0",
        "8"
      ],
      [
        "e",
        "mo"
      ],
      [
        "1",
        "10"
      ],
      [
        "ze",
        "ro"
      ],
      [
        "non",
        "zero"
      ],
      [
        "emo",
        "j"
      ],
      [
        "12",
        "2"
      ],
      [
        "22",
        "4"
      ],
      [
        "r",
        "i"
      ],
      [
        "Ġ",
        "me"
      ],
      [
        "0",
        "7"
      ],
      [
        "o",
        "ff"
      ],
      [
        "Ġme",
        "et"
      ],
      [
        "Ġ",
        "00"
      ],
      [
        "l",
        "y"
      ],
      [
        "13",
        "2"
      ],
      [
        "l",
        "o"
      ],
      [
        "Ġ8",
        "0"
      ],
      [
        "15",
        "3"
      ],
      [
        "2",
        "13"
      ],
      [
        "Ġ7",
        "0"
      ],
      [
        "se",
        "t"
      ],
      [
        "Ġ6",
        "3"
      ],
      [
        "13",
        "5"
      ],
      [
        "12",
        "9"
      ],
      [
        "Ġ6",
        "5"
      ],
      [
        "13",
        "4"
      ],
      [
        "0",
        "1"
      ],
      [
        "14",
        "1"
      ],
      [
        "13",
        "7"
      ],
      [
        "20",
        "2"
      ],
      [
        "14",
        "9"
      ],
      [
        "17",
        "0"
      ],
      [
        "16",
        "6"
      ],
      [
        "14",
        "6"
      ],
      [
        "14",
        "3"
      ],
      [
        "16",
        "4"
      ],
      [
        "13",
        "3"
      ],
      [
        "13",
        "0"
      ],
      [
        "ee",
        "n"
      ],
      [
        "13",
        "8"
      ],
      [
        "38",
        "4"
      ],
      [
        "15",
        "6"
      ],
      [
        "13",
        "1"
      ],
      [
        "lip",
        "se"
      ],
      [
        "17",
        "2"
      ],
      [
        "13",
        "9"
      ],
      [
        "14",
        "0"
      ],
      [
        "14",
        "2"
      ],
      [
        "14",
        "8"
      ],
      [
        "ly",
        "ph"
      ],
      [
        "g",
        "le"
      ],
      [
        "Ġ8",
        "5"
      ],
      [
        "14",
        "5"
      ],
      [
        "g",
        "lyph"
      ],
      [
        "Ġ",
        "iconify"
      ],
      [
        "3",
        "23"
      ],
      [
        "15",
        "7"
      ],
      [
        "orm",
        "al"
      ],
      [
        "n",
        "ormal"
      ],
      [
        "15",
        "8"
      ],
      [
        "17",
        "4"
      ],
      [
        "line",
        "ar"
      ],
      [
        "ffff",
        "ff"
      ],
      [
        "00",
        "2"
      ],
      [
        "18",
        "8"
      ],
      [
        "17",
        "3"
      ],
      [
        "on",
        "t"
      ],
      [
        "rc",
        "e"
      ],
      [
        "ou",
        "rce"
      ],
      [
        "C",
        "C"
      ],
      [
        "an",
        "gle"
      ],
      [
        "15",
        "4"
      ],
      [
        "c",
        "re"
      ],
      [
        "22",
        "22"
      ],
      [
        "18",
        "0"
      ],
      [
        "me",
        "t"
      ],
      [
        "Ġr",
        "y"
      ],
      [
        "16",
        "2"
      ],
      [
        "off",
        "set"
      ],
      [
        "14",
        "7"
      ],
      [
        "od",
        "i"
      ],
      [
        "od",
        "ip"
      ],
      [
        "odip",
        "odi"
      ],
      [
        "20",
        "4"
      ],
      [
        "15",
        "9"
      ],
      [
        "16",
        "7"
      ],
      [
        "Ġ7",
        "1"
      ],
      [
        "Ġ6",
        "6"
      ],
      [
        "17",
        "8"
      ],
      [
        "t",
        "o"
      ],
      [
        "0",
        "3"
      ],
      [
        "Ġ7",
        "3"
      ],
      [
        "44",
        "8"
      ],
      [
        "ou",
        "t"
      ],
      [
        "16",
        "9"
      ],
      [
        "Ġ6",
        "8"
      ],
      [
        "22",
        "8"
      ],
      [
        "0",
        "4"
      ],
      [
        "18",
        "2"
      ],
      [
        "FFFF",
        "FF"
      ],
      [
        "15",
        "1"
      ],
      [
        "15",
        "5"
      ],
      [
        "17",
        "9"
      ],
      [
        "25",
        "5"
      ],
      [
        "24",
        "4"
      ],
      [
        "17",
        "5"
      ],
      [
        "23",
        "4"
      ],
      [
        "Ġ7",
        "4"
      ],
      [
        "18",
        "6"
      ],
      [
        "Ġ6",
        "7"
      ],
      [
        "s",
        "ource"
      ],
      [
        "G",
        "radient"
      ],
      [
        "17",
        "7"
      ],
      [
        "16",
        "5"
      ],
      [
        "s",
        "i"
      ],
      [
        "19",
        "6"
      ],
      [
        "20",
        "7"
      ],
      [
        "24",
        "8"
      ],
      [
        "17",
        "1"
      ],
      [
        "t",
        "w"
      ],
      [
        "16",
        "1"
      ],
      [
        "22",
        "5"
      ],
      [
        "28",
        "8"
      ],
      [
        "R",
        "ect"
      ],
      [
        "Rect",
        "angle"
      ],
      [
        ";",
        "\"/></"
      ],
      [
        "m",
        "a"
      ],
      [
        "Ġ6",
        "9"
      ],
      [
        "m",
        "on"
      ],
      [
        "Ġ7",
        "5"
      ],
      [
        "ĠC",
        "olor"
      ],
      [
        "el",
        "lipse"
      ],
      [
        "44",
        "4"
      ],
      [
        "18",
        "1"
      ],
      [
        "19",
        "7"
      ],
      [
        "2",
        "23"
      ],
      [
        "16",
        "3"
      ],
      [
        "ĠĠĠĠ",
        "ĠĠĠĠĠĠĠĠĠĠĠĠĠĠĠ"
      ],
      [
        "18",
        "5"
      ],
      [
        "19",
        "3"
      ],
      [
        "19",
        "8"
      ],
      [
        "24",
        "0"
      ],
      [
        "18",
        "3"
      ],
      [
        "f",
        "ont"
      ],
      [
        "Ġ9",
        "2"
      ],
      [
        "15",
        "0"
      ],
      [
        "24",
        "6"
      ],
      [
        "(",
        "#"
      ],
      [
        "35",
        "2"
      ],
      [
        "3",
        "20"
      ],
      [
        "19",
        "5"
      ],
      [
        "Ġ8",
        "1"
      ],
      [
        "2",
        "14"
      ],
      [
        "ri",
        "x"
      ],
      [
        "d",
        "a"
      ],
      [
        "at",
        "rix"
      ],
      [
        "ĠĠĠĠ",
        "Ċ"
      ],
      [
        "Ġ",
        "offset"
      ],
      [
        "20",
        "6"
      ],
      [
        "ar",
        "t"
      ],
      [
        "s",
        "k"
      ],
      [
        "19",
        "1"
      ],
      [
        "18",
        "7"
      ],
      [
        "2",
        "19"
      ],
      [
        "25",
        "4"
      ],
      [
        "2",
        "17"
      ],
      [
        "3",
        "44"
      ],
      [
        "2",
        "15"
      ],
      [
        "emoj",
        "i"
      ],
      [
        "2",
        "20"
      ],
      [
        "Ġ0",
        "1"
      ],
      [
        "Ġ7",
        "9"
      ],
      [
        "s",
        "odipodi"
      ],
      [
        "22",
        "2"
      ],
      [
        "20",
        "5"
      ],
      [
        "19",
        "4"
      ],
      [
        "Ġ8",
        "4"
      ],
      [
        "20",
        "3"
      ],
      [
        "m",
        "atrix"
      ],
      [
        "Ġ7",
        "8"
      ],
      [
        "2",
        "11"
      ],
      [
        "20",
        "9"
      ],
      [
        "4",
        "34"
      ],
      [
        "33",
        "3"
      ],
      [
        "I",
        "D"
      ],
      [
        "22",
        "6"
      ],
      [
        "18",
        "9"
      ],
      [
        "33",
        "6"
      ],
      [
        "27",
        "7"
      ],
      [
        "L",
        "ine"
      ],
      [
        "w",
        "i"
      ],
      [
        "2",
        "18"
      ],
      [
        "Ġ9",
        "0"
      ],
      [
        "25",
        "2"
      ],
      [
        "29",
        "3"
      ],
      [
        "#",
        "\""
      ],
      [
        "Ġ8",
        "3"
      ],
      [
        "o",
        "c"
      ],
      [
        "Ġ",
        "A"
      ],
      [
        "Icon",
        "s"
      ],
      [
        "Ġ7",
        "7"
      ],
      [
        "19",
        "9"
      ],
      [
        "36",
        "3"
      ],
      [
        "d",
        "ow"
      ],
      [
        "wi",
        "th"
      ],
      [
        ")",
        "\"/>"
      ],
      [
        "D",
        "F"
      ],
      [
        "22",
        "9"
      ],
      [
        "Ġf",
        "lat"
      ],
      [
        "icon",
        "s"
      ],
      [
        "at",
        "ion"
      ],
      [
        "Ġ8",
        "6"
      ],
      [
        "29",
        "8"
      ],
      [
        "34",
        "1"
      ],
      [
        "ĉĉ",
        "ĉ"
      ],
      [
        "Ġ19",
        "2"
      ],
      [
        "32",
        "8"
      ],
      [
        "Ġ8",
        "9"
      ],
      [
        "Ġ8",
        "8"
      ],
      [
        "Ġ8",
        "2"
      ],
      [
        "34",
        "3"
      ],
      [
        "Ġ9",
        "1"
      ],
      [
        "20",
        "1"
      ],
      [
        "Ġ16",
        "0"
      ],
      [
        "C",
        "re"
      ],
      [
        "Ġ8",
        "7"
      ],
      [
        "24",
        "3"
      ],
      [
        "22",
        "7"
      ],
      [
        "Ġ",
        "with"
      ],
      [
        "ate",
        "d"
      ],
      [
        "3333",
        "33"
      ],
      [
        ".",
        "</"
      ],
      [
        "in",
        "t"
      ],
      [
        "Cre",
        "ated"
      ],
      [
        "Ġr",
        "df"
      ],
      [
        "24",
        "7"
      ],
      [
        "Ġ9",
        "5"
      ],
      [
        "Ġ",
        "g"
      ],
      [
        "23",
        "3"
      ],
      [
        "23",
        "6"
      ],
      [
        "c",
        "e"
      ],
      [
        "22",
        "1"
      ],
      [
        "25",
        "3"
      ],
      [
        "24",
        "9"
      ],
      [
        "Ġ11",
        "2"
      ],
      [
        "00",
        "6"
      ],
      [
        "24",
        "2"
      ],
      [
        "28",
        "2"
      ],
      [
        "p",
        "o"
      ],
      [
        "Ġ9",
        "4"
      ],
      [
        "27",
        "2"
      ],
      [
        "24",
        "5"
      ],
      [
        "26",
        "4"
      ],
      [
        "linear",
        "Gradient"
      ],
      [
        "e",
        "d"
      ],
      [
        "M",
        "S"
      ],
      [
        "23",
        "9"
      ],
      [
        "Ġs",
        "ketch"
      ],
      [
        "ĠS",
        "ketch"
      ],
      [
        "25",
        "7"
      ],
      [
        "ad",
        "ata"
      ],
      [
        "met",
        "adata"
      ],
      [
        "Ġ9",
        "3"
      ],
      [
        "2",
        "10"
      ],
      [
        "26",
        "2"
      ],
      [
        "Ġ10",
        "6"
      ],
      [
        "23",
        "7"
      ],
      [
        "25",
        "8"
      ],
      [
        "S",
        "t"
      ],
      [
        "23",
        "8"
      ],
      [
        "t",
        "ate"
      ],
      [
        "da",
        "sh"
      ],
      [
        "36",
        "8"
      ],
      [
        "d",
        "er"
      ],
      [
        "3",
        "12"
      ],
      [
        "23",
        "5"
      ],
      [
        "37",
        "5"
      ],
      [
        "28",
        "6"
      ],
      [
        "ati",
        "ve"
      ],
      [
        "30",
        "4"
      ],
      [
        "Ġ10",
        "2"
      ],
      [
        "T",
        "rans"
      ],
      [
        "00",
        "3"
      ],
      [
        "25",
        "1"
      ],
      [
        "4",
        "16"
      ],
      [
        "26",
        "6"
      ],
      [
        "Ġ9",
        "8"
      ],
      [
        "b",
        "e"
      ],
      [
        "Ġ",
        "stop"
      ],
      [
        "28",
        "9"
      ],
      [
        "29",
        "6"
      ],
      [
        "/",
        "\""
      ],
      [
        "com",
        "mon"
      ],
      [
        "29",
        "7"
      ],
      [
        "cre",
        "ative"
      ],
      [
        "common",
        "s"
      ],
      [
        "Ġ9",
        "7"
      ],
      [
        "creative",
        "commons"
      ],
      [
        "33",
        "7"
      ],
      [
        "70",
        "7"
      ],
      [
        "ol",
        "id"
      ],
      [
        "g",
        "u"
      ],
      [
        "s",
        "olid"
      ],
      [
        "26",
        "8"
      ],
      [
        "re",
        "nt"
      ],
      [
        "28",
        "7"
      ],
      [
        "19",
        "0"
      ],
      [
        "25",
        "0"
      ],
      [
        "27",
        "1"
      ],
      [
        "p",
        "url"
      ],
      [
        "v",
        "is"
      ],
      [
        "Ġ10",
        "4"
      ],
      [
        "Ġ",
        "V"
      ],
      [
        "f",
        "a"
      ],
      [
        "e",
        "s"
      ],
      [
        "33",
        "8"
      ],
      [
        "37",
        "2"
      ],
      [
        "28",
        "5"
      ],
      [
        "30",
        "5"
      ],
      [
        "me",
        "nt"
      ],
      [
        "on",
        "e"
      ],
      [
        "Ġ",
        "b"
      ],
      [
        "33",
        "4"
      ],
      [
        "Ġ12",
        "0"
      ],
      [
        "28",
        "4"
      ],
      [
        "26",
        "3"
      ],
      [
        "Ġ9",
        "9"
      ],
      [
        "37",
        "3"
      ],
      [
        "vis",
        "i"
      ],
      [
        "out",
        "line"
      ],
      [
        "3",
        "00"
      ],
      [
        "Pa",
        "ge"
      ],
      [
        "26",
        "5"
      ],
      [
        "4",
        "24"
      ],
      [
        "25",
        "9"
      ],
      [
        "27",
        "5"
      ],
      [
        "32",
        "6"
      ],
      [
        "Ġ10",
        "1"
      ],
      [
        "3",
        "16"
      ],
      [
        "4",
        "26"
      ],
      [
        "27",
        "3"
      ],
      [
        "30",
        "7"
      ],
      [
        "Ġ10",
        "3"
      ],
      [
        "28",
        "1"
      ],
      [
        "at",
        "ch"
      ],
      [
        "26",
        "1"
      ],
      [
        "00",
        "4"
      ],
      [
        "39",
        "6"
      ],
      [
        "s",
        "a"
      ],
      [
        "fil",
        "e"
      ],
      [
        "00",
        "5"
      ],
      [
        "26",
        "9"
      ],
      [
        "36",
        "2"
      ],
      [
        "29",
        "5"
      ],
      [
        "36",
        "5"
      ],
      [
        "3",
        "13"
      ],
      [
        "F",
        "il"
      ],
      [
        "q",
        "u"
      ],
      [
        "or",
        "k"
      ],
      [
        "Ġ11",
        "0"
      ],
      [
        "_",
        "\">"
      ],
      [
        "4",
        "32"
      ],
      [
        "27",
        "9"
      ],
      [
        "35",
        "4"
      ],
      [
        "36",
        "4"
      ],
      [
        "Ġ10",
        "5"
      ],
      [
        "30",
        "3"
      ],
      [
        "3",
        "14"
      ],
      [
        "w",
        "in"
      ],
      [
        "3",
        "17"
      ],
      [
        "36",
        "6"
      ],
      [
        "M",
        "L"
      ],
      [
        "27",
        "6"
      ],
      [
        "u",
        "b"
      ],
      [
        "X",
        "ML"
      ],
      [
        "Ġ",
        "H"
      ],
      [
        "XML",
        "ID"
      ],
      [
        "t",
        "er"
      ],
      [
        "32",
        "9"
      ],
      [
        "30",
        "2"
      ],
      [
        "28",
        "3"
      ],
      [
        "Ġ11",
        "6"
      ],
      [
        "26",
        "7"
      ],
      [
        "C",
        "E"
      ],
      [
        "clip",
        "Path"
      ],
      [
        "a",
        "re"
      ],
      [
        "3",
        "32"
      ],
      [
        "la",
        "r"
      ],
      [
        "3",
        "24"
      ],
      [
        "37",
        "6"
      ],
      [
        "l",
        "u"
      ],
      [
        "ra",
        "y"
      ],
      [
        "Ġ11",
        "1"
      ],
      [
        "visi",
        "ble"
      ],
      [
        "23",
        "0"
      ],
      [
        "29",
        "4"
      ],
      [
        "30",
        "8"
      ],
      [
        "win",
        "dow"
      ],
      [
        "Ġ11",
        "3"
      ],
      [
        "36",
        "7"
      ],
      [
        "35",
        "8"
      ],
      [
        "27",
        "8"
      ],
      [
        "ba",
        "se"
      ],
      [
        "4",
        "00"
      ],
      [
        "37",
        "1"
      ],
      [
        "Ġ10",
        "8"
      ],
      [
        "3",
        "11"
      ],
      [
        "40",
        "5"
      ],
      [
        "37",
        "8"
      ],
      [
        "37",
        "9"
      ],
      [
        "29",
        "9"
      ],
      [
        "26",
        "0"
      ],
      [
        "Ġ10",
        "9"
      ],
      [
        "29",
        "1"
      ],
      [
        "37",
        "7"
      ],
      [
        "p",
        "lo"
      ],
      [
        "36",
        "9"
      ],
      [
        "Ġ11",
        "4"
      ],
      [
        "35",
        "9"
      ],
      [
        "3",
        "27"
      ],
      [
        "n",
        "it"
      ],
      [
        "Ġ12",
        "7"
      ],
      [
        "3",
        "18"
      ],
      [
        "W",
        "ork"
      ],
      [
        "39",
        "1"
      ],
      [
        "Ġ12",
        "2"
      ],
      [
        "pa",
        "rent"
      ],
      [
        "33",
        "5"
      ],
      [
        "Trans",
        "parent"
      ],
      [
        "00",
        "7"
      ],
      [
        "47",
        "2"
      ],
      [
        "34",
        "6"
      ],
      [
        "nit",
        "s"
      ],
      [
        "47",
        "5"
      ],
      [
        "44",
        "7"
      ],
      [
        "35",
        "3"
      ],
      [
        "l",
        "r"
      ],
      [
        "49",
        "4"
      ],
      [
        "46",
        "4"
      ],
      [
        "ge",
        "nt"
      ],
      [
        "3",
        "15"
      ],
      [
        "30",
        "1"
      ],
      [
        "30",
        "6"
      ],
      [
        "44",
        "9"
      ],
      [
        "34",
        "2"
      ],
      [
        "a",
        "de"
      ],
      [
        "212",
        "121"
      ],
      [
        "A",
        "A"
      ],
      [
        "Ġ10",
        "7"
      ],
      [
        "3",
        "25"
      ],
      [
        "v",
        "iew"
      ],
      [
        "ad",
        "o"
      ],
      [
        "33",
        "1"
      ],
      [
        "Ġ",
        "line"
      ],
      [
        "c",
        "a"
      ],
      [
        "D",
        "D"
      ],
      [
        "form",
        "at"
      ],
      [
        "38",
        "5"
      ],
      [
        "R",
        "DF"
      ],
      [
        "Ġ14",
        "4"
      ],
      [
        "Ġ",
        "a"
      ],
      [
        "38",
        "3"
      ],
      [
        "40",
        "6"
      ],
      [
        "00",
        "8"
      ],
      [
        "39",
        "4"
      ],
      [
        "3",
        "19"
      ],
      [
        "33",
        "9"
      ],
      [
        "30",
        "9"
      ],
      [
        "36",
        "0"
      ],
      [
        "35",
        "6"
      ],
      [
        "37",
        "4"
      ],
      [
        "re",
        "source"
      ],
      [
        "39",
        "7"
      ],
      [
        "44",
        "6"
      ],
      [
        "U",
        "plo"
      ],
      [
        "2222",
        "22"
      ],
      [
        "4",
        "22"
      ],
      [
        "4",
        "23"
      ],
      [
        "Ġ12",
        "6"
      ],
      [
        "Ġ11",
        "5"
      ],
      [
        "ad",
        "ow"
      ],
      [
        "o",
        "t"
      ],
      [
        "la",
        "yer"
      ],
      [
        "r",
        "ight"
      ],
      [
        "Ġ13",
        "0"
      ],
      [
        "34",
        "5"
      ],
      [
        "Ġ11",
        "7"
      ],
      [
        "Ġ11",
        "9"
      ],
      [
        "3",
        "22"
      ],
      [
        "[",
        "#"
      ],
      [
        "Ġ11",
        "8"
      ],
      [
        "38",
        "2"
      ],
      [
        "Ġ",
        "to"
      ],
      [
        "ar",
        "ray"
      ],
      [
        "dash",
        "array"
      ],
      [
        "a",
        "ge"
      ],
      [
        "re",
        "po"
      ],
      [
        "4",
        "38"
      ],
      [
        "ade",
        "d"
      ],
      [
        "35",
        "5"
      ],
      [
        "ic",
        "e"
      ],
      [
        "Uplo",
        "aded"
      ],
      [
        "Ġ",
        "svg"
      ],
      [
        "Ġsvg",
        "repo"
      ],
      [
        "35",
        "7"
      ],
      [
        "u",
        "ser"
      ],
      [
        "Ġc",
        "lr"
      ],
      [
        "28",
        "0"
      ],
      [
        "39",
        "2"
      ],
      [
        "m",
        "art"
      ],
      [
        "38",
        "7"
      ],
      [
        "46",
        "9"
      ],
      [
        "38",
        "6"
      ],
      [
        "4",
        "14"
      ],
      [
        "40",
        "8"
      ],
      [
        "Ġ13",
        "2"
      ],
      [
        "A",
        "gent"
      ],
      [
        "3",
        "21"
      ],
      [
        ");",
        "\"/><"
      ],
      [
        "45",
        "5"
      ],
      [
        "Ġ13",
        "1"
      ],
      [
        "35",
        "1"
      ],
      [
        "Ġro",
        "tate"
      ],
      [
        "Ġ12",
        "1"
      ],
      [
        "39",
        "5"
      ],
      [
        "qu",
        "are"
      ],
      [
        "Ġg",
        "radient"
      ],
      [
        "39",
        "3"
      ],
      [
        "4",
        "35"
      ],
      [
        "34",
        "8"
      ],
      [
        "P",
        "ro"
      ],
      [
        "b",
        "b"
      ],
      [
        "tw",
        "emoji"
      ],
      [
        "39",
        "9"
      ],
      [
        "5",
        "11"
      ],
      [
        "36",
        "1"
      ],
      [
        "f",
        "e"
      ],
      [
        "Ġ12",
        "5"
      ],
      [
        "48",
        "0"
      ],
      [
        "4",
        "13"
      ],
      [
        "Ġ12",
        "4"
      ],
      [
        "v",
        "aria"
      ],
      [
        "varia",
        "nt"
      ],
      [
        "s",
        "quare"
      ],
      [
        "c",
        "or"
      ],
      [
        "46",
        "5"
      ],
      [
        "u",
        "l"
      ],
      [
        "4",
        "29"
      ],
      [
        "f",
        "al"
      ],
      [
        "E",
        "D"
      ],
      [
        "38",
        "8"
      ],
      [
        "Ġ12",
        "9"
      ],
      [
        "A",
        "F"
      ],
      [
        "27",
        "0"
      ],
      [
        "38",
        "9"
      ],
      [
        "34",
        "0"
      ],
      [
        "44",
        "5"
      ],
      [
        "Ġ14",
        "0"
      ],
      [
        "4",
        "12"
      ],
      [
        "45",
        "4"
      ],
      [
        "34",
        "7"
      ],
      [
        "44",
        "3"
      ],
      [
        ");",
        "\"/></"
      ],
      [
        "Ġ13",
        "6"
      ],
      [
        "39",
        "8"
      ],
      [
        "4",
        "36"
      ],
      [
        "fal",
        "se"
      ],
      [
        "S",
        "mart"
      ],
      [
        "W",
        "atch"
      ],
      [
        "34",
        "9"
      ],
      [
        "_",
        "_"
      ],
      [
        "Ġ12",
        "3"
      ],
      [
        "a",
        "x"
      ],
      [
        "29",
        "0"
      ],
      [
        "70",
        "8"
      ],
      [
        "40",
        "7"
      ],
      [
        "s",
        "y"
      ],
      [
        "e",
        "le"
      ],
      [
        "id",
        "e"
      ],
      [
        "44",
        "1"
      ],
      [
        "Ġ13",
        "8"
      ],
      [
        "38",
        "1"
      ],
      [
        "cl",
        "r"
      ],
      [
        "45",
        "1"
      ],
      [
        "a",
        "m"
      ],
      [
        "4",
        "28"
      ],
      [
        "323",
        "232"
      ],
      [
        "Shape",
        "Group"
      ],
      [
        "MS",
        "ShapeGroup"
      ],
      [
        "ion",
        "e"
      ],
      [
        "emoj",
        "ione"
      ],
      [
        "Ġ13",
        "3"
      ],
      [
        "O",
        "n"
      ],
      [
        "ser",
        "if"
      ],
      [
        "Ġ",
        "icon"
      ],
      [
        "44",
        "2"
      ],
      [
        "40",
        "4"
      ],
      [
        "Ġ13",
        "4"
      ],
      [
        "Ġ13",
        "5"
      ],
      [
        "b",
        "o"
      ],
      [
        "40",
        "9"
      ],
      [
        "f",
        "t"
      ],
      [
        "Ġf",
        "or"
      ],
      [
        "47",
        "3"
      ],
      [
        "4",
        "18"
      ],
      [
        "33",
        "0"
      ],
      [
        "ro",
        "w"
      ],
      [
        "45",
        "6"
      ],
      [
        "50",
        "3"
      ],
      [
        "Ġ",
        "#"
      ],
      [
        "4",
        "17"
      ],
      [
        "g",
        "r"
      ],
      [
        "40",
        "1"
      ],
      [
        "40",
        "3"
      ],
      [
        "49",
        "6"
      ],
      [
        "4",
        "25"
      ],
      [
        "47",
        "6"
      ],
      [
        "4",
        "33"
      ],
      [
        "ment",
        "s"
      ],
      [
        "47",
        "4"
      ],
      [
        "66",
        "2"
      ],
      [
        "0",
        "12"
      ],
      [
        "Ġ14",
        "2"
      ],
      [
        "00",
        "9"
      ],
      [
        "Ġ14",
        "7"
      ],
      [
        "Ġ13",
        "7"
      ],
      [
        "4",
        "11"
      ],
      [
        "48",
        "7"
      ],
      [
        "a",
        "u"
      ],
      [
        "Ġ4",
        "00"
      ],
      [
        "45",
        "7"
      ],
      [
        "Ġ14",
        "1"
      ],
      [
        "Ġ2",
        "00"
      ],
      [
        "Ġ14",
        "9"
      ],
      [
        "3",
        "10"
      ],
      [
        "4",
        "37"
      ],
      [
        "nt",
        "ax"
      ],
      [
        "sy",
        "ntax"
      ],
      [
        "ele",
        "ments"
      ],
      [
        "50",
        "5"
      ],
      [
        "40",
        "2"
      ],
      [
        "45",
        "8"
      ],
      [
        "U",
        "nits"
      ],
      [
        "45",
        "3"
      ],
      [
        "Ġ13",
        "9"
      ],
      [
        "Ġ14",
        "6"
      ],
      [
        "47",
        "9"
      ],
      [
        "v",
        "er"
      ],
      [
        "49",
        "5"
      ],
      [
        "im",
        "age"
      ],
      [
        "46",
        "8"
      ],
      [
        "38",
        "0"
      ],
      [
        "S",
        "pace"
      ],
      [
        "ĠĠĠĠ",
        "ĠĠĠĠ"
      ],
      [
        "U",
        "se"
      ],
      [
        "Ġ17",
        "0"
      ],
      [
        "user",
        "Space"
      ],
      [
        "On",
        "Use"
      ],
      [
        "userSpace",
        "OnUse"
      ],
      [
        "4",
        "21"
      ],
      [
        "lu",
        "e"
      ],
      [
        "Ġ14",
        "3"
      ],
      [
        "4",
        "15"
      ],
      [
        "4",
        "19"
      ],
      [
        "FF",
        "F"
      ],
      [
        "E",
        "A"
      ],
      [
        "48",
        "5"
      ],
      [
        "45",
        "2"
      ],
      [
        "0",
        "15"
      ],
      [
        "4",
        "39"
      ],
      [
        "57",
        "6"
      ],
      [
        "B",
        "D"
      ],
      [
        "48",
        "4"
      ],
      [
        "Ġ15",
        "3"
      ],
      [
        "Ġ",
        "("
      ],
      [
        "i",
        "r"
      ],
      [
        "0",
        "20"
      ],
      [
        "4",
        "31"
      ],
      [
        "c",
        "ur"
      ],
      [
        "nd",
        "er"
      ],
      [
        "u",
        "p"
      ],
      [
        "46",
        "2"
      ],
      [
        "45",
        "9"
      ],
      [
        "4",
        "27"
      ],
      [
        "u",
        "re"
      ],
      [
        "Ġ15",
        "2"
      ],
      [
        "89",
        "7"
      ],
      [
        "oc",
        "u"
      ],
      [
        "St",
        "roke"
      ],
      [
        "Ġ14",
        "5"
      ],
      [
        "Ġ2",
        "13"
      ],
      [
        "47",
        "7"
      ],
      [
        "46",
        "6"
      ],
      [
        "ol",
        "der"
      ],
      [
        "0",
        "16"
      ],
      [
        "49",
        "2"
      ],
      [
        "Ġ14",
        "8"
      ],
      [
        "ar",
        "d"
      ],
      [
        "66",
        "66"
      ],
      [
        "Ġ15",
        "0"
      ],
      [
        "8",
        "46"
      ],
      [
        "pa",
        "ge"
      ],
      [
        "pa",
        "int"
      ],
      [
        "44",
        "0"
      ],
      [
        "Ġ4",
        "48"
      ],
      [
        "Ġ2",
        "24"
      ],
      [
        "Ġ17",
        "6"
      ],
      [
        "37",
        "0"
      ],
      [
        "%",
        "\""
      ],
      [
        "46",
        "7"
      ],
      [
        "0",
        "11"
      ],
      [
        "a",
        "v"
      ],
      [
        "47",
        "1"
      ],
      [
        "48",
        "8"
      ],
      [
        "48",
        "6"
      ],
      [
        "at",
        "or"
      ],
      [
        "4",
        "99"
      ],
      [
        "A",
        "B"
      ],
      [
        "020",
        "202"
      ],
      [
        "gr",
        "id"
      ],
      [
        "a",
        "le"
      ],
      [
        "47",
        "8"
      ],
      [
        "ie",
        "n"
      ],
      [
        "48",
        "3"
      ],
      [
        "a",
        "b"
      ],
      [
        "P",
        "re"
      ],
      [
        "Ġ15",
        "4"
      ],
      [
        "50",
        "2"
      ],
      [
        "46",
        "1"
      ],
      [
        "ĠL",
        "ine"
      ],
      [
        "ct",
        "or"
      ],
      [
        "s",
        "ketch"
      ],
      [
        "_",
        "\"/>"
      ],
      [
        "ig",
        "n"
      ],
      [
        "c",
        "f"
      ],
      [
        "/>",
        "<"
      ],
      [
        "50",
        "6"
      ],
      [
        "re",
        "nder"
      ],
      [
        "render",
        "ing"
      ],
      [
        "le",
        "ft"
      ],
      [
        "9",
        "38"
      ],
      [
        "E",
        "E"
      ],
      [
        "in",
        "visible"
      ],
      [
        "l",
        "ice"
      ],
      [
        "35",
        "0"
      ],
      [
        "Ġ15",
        "1"
      ],
      [
        "au",
        "to"
      ],
      [
        "B",
        "C"
      ],
      [
        "Ġ15",
        "5"
      ],
      [
        "5",
        "33"
      ],
      [
        "ĠĠĠĠ",
        "ĠĠ"
      ],
      [
        "49",
        "3"
      ],
      [
        "Ġ16",
        "4"
      ],
      [
        "0",
        "14"
      ],
      [
        "Ġ",
        "base"
      ],
      [
        "Pro",
        "file"
      ],
      [
        "Ġbase",
        "Profile"
      ],
      [
        "Ġ100",
        "0"
      ],
      [
        "7",
        "68"
      ],
      [
        "C",
        "A"
      ],
      [
        "ma",
        "sk"
      ],
      [
        "Ġ24",
        "8"
      ],
      [
        "0",
        "13"
      ],
      [
        "66",
        "4"
      ],
      [
        "Ġ",
        "\""
      ],
      [
        "D",
        "E"
      ],
      [
        "Ġgradient",
        "Units"
      ],
      [
        "48",
        "2"
      ],
      [
        "Ġ2",
        "26"
      ],
      [
        "46",
        "3"
      ],
      [
        "50",
        "8"
      ],
      [
        "7",
        "57"
      ],
      [
        "50",
        "4"
      ],
      [
        "is",
        "o"
      ],
      [
        "45",
        "0"
      ],
      [
        "Ġ16",
        "6"
      ],
      [
        "Ġ",
        "{"
      ],
      [
        "de",
        "cor"
      ],
      [
        "decor",
        "ation"
      ],
      [
        "48",
        "1"
      ],
      [
        "8",
        "96"
      ],
      [
        "49",
        "8"
      ],
      [
        "tw",
        "ee"
      ],
      [
        "Ġ24",
        "0"
      ],
      [
        "Ġ16",
        "8"
      ],
      [
        "B",
        "F"
      ],
      [
        "h",
        "e"
      ],
      [
        "39",
        "0"
      ],
      [
        "49",
        "1"
      ],
      [
        "55",
        "2"
      ],
      [
        "0",
        "18"
      ],
      [
        "f",
        "lue"
      ],
      [
        "49",
        "7"
      ],
      [
        "ð",
        "Ł"
      ],
      [
        "=\"",
        "ðŁ"
      ],
      [
        "flue",
        "nt"
      ],
      [
        "D",
        "C"
      ],
      [
        "67",
        "2"
      ],
      [
        "4",
        "20"
      ],
      [
        "50",
        "1"
      ],
      [
        "48",
        "9"
      ],
      [
        "Ġ3",
        "20"
      ],
      [
        "55",
        "4"
      ],
      [
        "7",
        "58"
      ],
      [
        "f",
        "la"
      ],
      [
        "Ġ20",
        "8"
      ],
      [
        "Ġ15",
        "8"
      ],
      [
        "d",
        "i"
      ],
      [
        "r",
        "gb"
      ],
      [
        "55",
        "5"
      ],
      [
        "Ġ15",
        "6"
      ],
      [
        "ot",
        "one"
      ],
      [
        "Ġ15",
        "7"
      ],
      [
        "h",
        "a"
      ],
      [
        "t",
        "ion"
      ],
      [
        "at",
        "ure"
      ],
      [
        "Ġ17",
        "3"
      ],
      [
        "80",
        "8"
      ],
      [
        "55",
        "3"
      ],
      [
        "Ġ17",
        "2"
      ],
      [
        "0",
        "22"
      ],
      [
        "4",
        "30"
      ],
      [
        "d",
        "u"
      ],
      [
        "d",
        "d"
      ],
      [
        "Ġ38",
        "4"
      ],
      [
        "Ġ17",
        "4"
      ],
      [
        "Ġ18",
        "0"
      ],
      [
        "0",
        "21"
      ],
      [
        "gu",
        "ide"
      ],
      [
        "Ġ19",
        "0"
      ],
      [
        "il",
        "l"
      ],
      [
        "Ġ17",
        "9"
      ],
      [
        "0",
        "17"
      ],
      [
        "Ġ16",
        "3"
      ],
      [
        "6",
        "00"
      ],
      [
        "i",
        "ct"
      ],
      [
        "Ġ15",
        "9"
      ],
      [
        "6",
        "56"
      ],
      [
        "cre",
        "ator"
      ],
      [
        "=\"",
        "\"/><"
      ],
      [
        "4",
        "10"
      ],
      [
        "L",
        "ight"
      ],
      [
        "l",
        "t"
      ],
      [
        "0",
        "23"
      ],
      [
        "7",
        "17"
      ],
      [
        "Ġ18",
        "2"
      ],
      [
        "ect",
        "or"
      ],
      [
        "ma",
        "ge"
      ],
      [
        "60",
        "4"
      ],
      [
        "5",
        "15"
      ],
      [
        "&",
        "#"
      ],
      [
        "d",
        "ate"
      ],
      [
        "55",
        "8"
      ],
      [
        "rad",
        "i"
      ],
      [
        "79",
        "2"
      ],
      [
        "ar",
        "row"
      ],
      [
        "Ġ16",
        "1"
      ],
      [
        "I",
        "mage"
      ],
      [
        "p",
        "la"
      ],
      [
        "Ġ28",
        "8"
      ],
      [
        "u",
        "m"
      ],
      [
        "58",
        "6"
      ],
      [
        "Ġ16",
        "5"
      ],
      [
        "oc",
        "ado"
      ],
      [
        "av",
        "ocado"
      ],
      [
        "ba",
        "d"
      ],
      [
        "nd",
        "om"
      ],
      [
        "68",
        "8"
      ],
      [
        "Ġ18",
        "4"
      ],
      [
        "lice",
        "ns"
      ],
      [
        "o",
        "g"
      ],
      [
        "0",
        "25"
      ],
      [
        "bad",
        "ge"
      ],
      [
        "b",
        "c"
      ],
      [
        "0",
        "32"
      ],
      [
        "5",
        "56"
      ],
      [
        "Ġ17",
        "5"
      ],
      [
        "46",
        "0"
      ],
      [
        "fa",
        "ndom"
      ],
      [
        "Ġ18",
        "1"
      ],
      [
        "r",
        "ic"
      ],
      [
        "50",
        "7"
      ],
      [
        "6",
        "25"
      ],
      [
        "gu",
        "lar"
      ],
      [
        "0",
        "27"
      ],
      [
        "ale",
        "r"
      ],
      [
        "8",
        "47"
      ],
      [
        "Ġ16",
        "2"
      ],
      [
        "57",
        "2"
      ],
      [
        "e",
        "a"
      ],
      [
        "Ġ16",
        "7"
      ],
      [
        "Ġ2",
        "55"
      ],
      [
        "ie",
        "s"
      ],
      [
        "Ġ2",
        "11"
      ],
      [
        "0",
        "34"
      ],
      [
        "9",
        "53"
      ],
      [
        "8",
        "32"
      ],
      [
        "ĠĠĠĠ",
        "ĠĠĠĠĠĠĠĠĠĠĠĠĠĠĠĠĠĠĠ"
      ],
      [
        "5",
        "28"
      ],
      [
        "b",
        "ox"
      ],
      [
        "B",
        "E"
      ],
      [
        "Ġ2",
        "10"
      ],
      [
        "8",
        "28"
      ],
      [
        "Ġ17",
        "1"
      ],
      [
        "x",
        "ml"
      ],
      [
        "Ġ2",
        "20"
      ],
      [
        "16",
        "94"
      ],
      [
        "h",
        "adow"
      ],
      [
        "m",
        "ity"
      ],
      [
        "dc",
        "mity"
      ],
      [
        "St",
        "ill"
      ],
      [
        "dcmity",
        "pe"
      ],
      [
        "Still",
        "Image"
      ],
      [
        "B",
        "A"
      ],
      [
        "0",
        "28"
      ],
      [
        "Ġ20",
        "4"
      ],
      [
        "met",
        "ric"
      ],
      [
        "]",
        "\">"
      ],
      [
        "29",
        "29"
      ],
      [
        "5",
        "00"
      ],
      [
        "ke",
        "r"
      ],
      [
        "E",
        "F"
      ],
      [
        "0",
        "19"
      ],
      [
        "8",
        "75"
      ],
      [
        "b",
        "y"
      ],
      [
        "Ġ2",
        "14"
      ],
      [
        "ri",
        "bb"
      ],
      [
        "lar",
        "ity"
      ],
      [
        "Ġ17",
        "8"
      ],
      [
        "Ġ17",
        "7"
      ],
      [
        "50",
        "9"
      ],
      [
        "5",
        "13"
      ],
      [
        "Ġ2",
        "12"
      ],
      [
        "F",
        "older"
      ],
      [
        "ribb",
        "ble"
      ],
      [
        "or",
        "der"
      ],
      [
        "99",
        "9"
      ],
      [
        "M",
        "in"
      ],
      [
        "5",
        "45"
      ],
      [
        "Ġ2",
        "16"
      ],
      [
        "Ġ2",
        "17"
      ],
      [
        "D",
        "ribbble"
      ],
      [
        "0",
        "24"
      ],
      [
        "d",
        "view"
      ],
      [
        "name",
        "dview"
      ],
      [
        "33",
        "363"
      ],
      [
        "5",
        "25"
      ],
      [
        "]",
        "</"
      ],
      [
        "j",
        "am"
      ],
      [
        "v",
        "ar"
      ],
      [
        "Ġ18",
        "3"
      ],
      [
        "ab",
        "out"
      ],
      [
        "Ġ",
        "[#"
      ],
      [
        "Pre",
        "view"
      ],
      [
        "-",
        "[#"
      ],
      [
        "sh",
        "adow"
      ],
      [
        "u",
        "s"
      ],
      [
        "5",
        "29"
      ],
      [
        "17",
        "19"
      ],
      [
        "0",
        "35"
      ],
      [
        "0",
        "59"
      ],
      [
        "8",
        "59"
      ],
      [
        "fla",
        "ts"
      ],
      [
        "68",
        "6"
      ],
      [
        "hadow",
        "s"
      ],
      [
        "flats",
        "hadows"
      ],
      [
        "a",
        "c"
      ],
      [
        "Ġ2",
        "19"
      ],
      [
        "ha",
        "ir"
      ],
      [
        "7",
        "66"
      ],
      [
        "9",
        "54"
      ],
      [
        "b",
        "el"
      ],
      [
        "lat",
        "ion"
      ],
      [
        "radi",
        "al"
      ],
      [
        "m",
        "ar"
      ],
      [
        "Ġ",
        "q"
      ],
      [
        "r",
        "ip"
      ],
      [
        "662",
        "113"
      ],
      [
        "c",
        "ub"
      ],
      [
        "6",
        "46"
      ],
      [
        "78",
        "1"
      ],
      [
        "6",
        "13"
      ],
      [
        "cub",
        "ies"
      ],
      [
        "(-",
        "-"
      ],
      [
        "0",
        "26"
      ],
      [
        "F",
        "C"
      ],
      [
        "mo",
        "de"
      ],
      [
        "5",
        "35"
      ],
      [
        "ul",
        "l"
      ],
      [
        "fill",
        "ed"
      ],
      [
        "a",
        "k"
      ],
      [
        "57",
        "4"
      ],
      [
        "C",
        "olor"
      ],
      [
        "Ġ20",
        "6"
      ],
      [
        "59",
        "7"
      ],
      [
        "0",
        "37"
      ],
      [
        "Ġ26",
        "0"
      ],
      [
        "60",
        "8"
      ],
      [
        "434",
        "343"
      ],
      [
        "Ġ2",
        "15"
      ],
      [
        "Ġ19",
        "20"
      ],
      [
        "67",
        "7"
      ],
      [
        "=\"",
        "\">"
      ],
      [
        "0",
        "33"
      ],
      [
        "7",
        "88"
      ],
      [
        "Ġ",
        "is"
      ],
      [
        "Ġ18",
        "5"
      ],
      [
        "sa",
        "ble"
      ],
      [
        "badge",
        "d"
      ],
      [
        "Ġf",
        "ocu"
      ],
      [
        "Ġfocu",
        "sable"
      ],
      [
        "Ġ19",
        "1"
      ],
      [
        "44",
        "77"
      ],
      [
        "0",
        "45"
      ],
      [
        "0",
        "49"
      ],
      [
        "0",
        "57"
      ],
      [
        "5",
        "46"
      ],
      [
        "th",
        "e"
      ],
      [
        "a",
        "g"
      ],
      [
        "56",
        "3"
      ],
      [
        "ro",
        "tate"
      ],
      [
        "g",
        "t"
      ],
      [
        "S",
        "V"
      ],
      [
        "Ġ18",
        "6"
      ],
      [
        "Ġ2",
        "18"
      ],
      [
        "56",
        "2"
      ],
      [
        "0",
        "44"
      ],
      [
        "SV",
        "G"
      ],
      [
        "pla",
        "y"
      ],
      [
        "it",
        "ion"
      ],
      [
        "=\"",
        "&"
      ],
      [
        "59",
        "2"
      ],
      [
        "Ġ20",
        "9"
      ],
      [
        "0",
        "29"
      ],
      [
        "6",
        "57"
      ],
      [
        "h",
        "eight"
      ],
      [
        "ra",
        "m"
      ],
      [
        "89",
        "54"
      ],
      [
        "59",
        "6"
      ],
      [
        "11",
        "19"
      ],
      [
        "0",
        "94"
      ],
      [
        "Ġ",
        "}"
      ],
      [
        "5",
        "44"
      ],
      [
        "49",
        "0"
      ],
      [
        "67",
        "8"
      ],
      [
        "78",
        "9"
      ],
      [
        "5",
        "22"
      ],
      [
        "Ġ",
        "-."
      ],
      [
        "0",
        "43"
      ],
      [
        "96",
        "3"
      ],
      [
        "th",
        "er"
      ],
      [
        "Ġ2",
        "25"
      ],
      [
        "Ġ20",
        "2"
      ],
      [
        "Ġ25",
        "3"
      ],
      [
        "0",
        "31"
      ],
      [
        "E",
        "l"
      ],
      [
        "sk",
        "in"
      ],
      [
        "58",
        "4"
      ],
      [
        "Ġs",
        "i"
      ],
      [
        "56",
        "6"
      ],
      [
        "Fil",
        "es"
      ],
      [
        "8",
        "45"
      ],
      [
        "la",
        "bel"
      ],
      [
        "7",
        "34"
      ],
      [
        "67",
        "6"
      ],
      [
        "Ġ2",
        "23"
      ],
      [
        "Ġ20",
        "5"
      ],
      [
        "l",
        "ow"
      ],
      [
        "s",
        "ition"
      ],
      [
        "55",
        "1"
      ],
      [
        "u",
        "t"
      ],
      [
        "dow",
        "n"
      ],
      [
        "Ġ",
        "Q"
      ],
      [
        "Ġ19",
        "8"
      ],
      [
        "Ġ2",
        "34"
      ],
      [
        "Ġ20",
        "7"
      ],
      [
        "59",
        "8"
      ],
      [
        "8",
        "12"
      ],
      [
        "8",
        "16"
      ],
      [
        "pe",
        "n"
      ],
      [
        "rip",
        "tion"
      ],
      [
        "T",
        "h"
      ],
      [
        "8",
        "48"
      ],
      [
        "5",
        "18"
      ],
      [
        "desc",
        "ription"
      ],
      [
        "89",
        "5"
      ],
      [
        "n",
        "o"
      ],
      [
        "0",
        "38"
      ],
      [
        "0",
        "42"
      ],
      [
        "m",
        "i"
      ],
      [
        "re",
        "gular"
      ],
      [
        "5",
        "47"
      ],
      [
        "Ġ",
        "Rectangle"
      ],
      [
        "66",
        "6"
      ],
      [
        "5",
        "36"
      ],
      [
        "57",
        "8"
      ],
      [
        "70",
        "6"
      ],
      [
        "7",
        "13"
      ],
      [
        "6",
        "24"
      ],
      [
        "5",
        "14"
      ],
      [
        "an",
        "k"
      ],
      [
        "56",
        "4"
      ],
      [
        "68",
        "5"
      ],
      [
        "0",
        "36"
      ],
      [
        "57",
        "9"
      ],
      [
        "0",
        "78"
      ],
      [
        "Ġ19",
        "6"
      ],
      [
        "El",
        "lipse"
      ],
      [
        "Ġ20",
        "1"
      ],
      [
        "n",
        "er"
      ],
      [
        "Ġ",
        "the"
      ],
      [
        "Ġ24",
        "6"
      ],
      [
        "0",
        "63"
      ],
      [
        "right",
        "s"
      ],
      [
        "SVG",
        "ID"
      ],
      [
        "0",
        "47"
      ],
      [
        "8",
        "38"
      ],
      [
        "66",
        "7"
      ],
      [
        "Th",
        "is"
      ],
      [
        "5",
        "16"
      ],
      [
        "Ġ19",
        "7"
      ],
      [
        "ĉĉ",
        "ĉĉ"
      ],
      [
        "t",
        "k"
      ],
      [
        "ĠC",
        "larity"
      ],
      [
        "Ġthe",
        "me"
      ],
      [
        "59",
        "4"
      ],
      [
        "Ġ",
        "J"
      ],
      [
        "Ġv",
        "ector"
      ],
      [
        "Ġg",
        "tk"
      ],
      [
        "p",
        "ict"
      ],
      [
        "Ġ19",
        "5"
      ],
      [
        "ĠĠĠĠ",
        "ĠĠĠĠĠ"
      ],
      [
        "Ġs",
        "hape"
      ],
      [
        "e",
        "b"
      ],
      [
        "ve",
        "ctor"
      ],
      [
        "J",
        "ak"
      ],
      [
        "Ġ18",
        "9"
      ],
      [
        "iew",
        "ic"
      ],
      [
        "ank",
        "iewic"
      ],
      [
        "ĠJ",
        "ankiewic"
      ],
      [
        "Jak",
        "ub"
      ],
      [
        "ĠJankiewic",
        "z"
      ],
      [
        "0",
        "64"
      ],
      [
        "68",
        "2"
      ],
      [
        "Ġ2",
        "30"
      ],
      [
        "u",
        "te"
      ],
      [
        "Ġ25",
        "2"
      ],
      [
        "5",
        "42"
      ],
      [
        "Ġ25",
        "4"
      ],
      [
        "66",
        "9"
      ],
      [
        "Ġ3",
        "52"
      ],
      [
        "70",
        "4"
      ],
      [
        "5",
        "31"
      ],
      [
        "Ġ24",
        "1"
      ],
      [
        "ff",
        "f"
      ],
      [
        "Ġ2",
        "50"
      ],
      [
        "Ġ2",
        "32"
      ],
      [
        "Ġ3",
        "00"
      ],
      [
        "Ġ19",
        "9"
      ],
      [
        "66",
        "8"
      ],
      [
        "Ġ24",
        "9"
      ],
      [
        "56",
        "8"
      ],
      [
        "5",
        "17"
      ],
      [
        "Ġ2",
        "22"
      ],
      [
        "0",
        "55"
      ],
      [
        "Ġ19",
        "4"
      ],
      [
        "68",
        "4"
      ],
      [
        "0",
        "58"
      ],
      [
        "0",
        "62"
      ],
      [
        "0",
        "52"
      ],
      [
        "og",
        "ram"
      ],
      [
        "6",
        "18"
      ],
      [
        "6",
        "54"
      ],
      [
        "70",
        "5"
      ],
      [
        "5",
        "43"
      ],
      [
        "6",
        "36"
      ],
      [
        "Ġ2",
        "21"
      ],
      [
        "Ġ18",
        "7"
      ],
      [
        "89",
        "4"
      ],
      [
        "s",
        "hape"
      ],
      [
        "5",
        "24"
      ],
      [
        "b",
        "i"
      ],
      [
        "Ġ27",
        "2"
      ],
      [
        "7",
        "27"
      ],
      [
        "f",
        "low"
      ],
      [
        "le",
        "d"
      ],
      [
        "or",
        "ient"
      ],
      [
        "1119",
        "18"
      ],
      [
        "60",
        "2"
      ],
      [
        "Ġ25",
        "1"
      ],
      [
        "orient",
        "ation"
      ],
      [
        "57",
        "1"
      ],
      [
        "pict",
        "ogram"
      ],
      [
        "0",
        "46"
      ],
      [
        "te",
        "d"
      ],
      [
        "67",
        "1"
      ],
      [
        "6",
        "58"
      ],
      [
        "78",
        "4"
      ],
      [
        "Ġ2",
        "29"
      ],
      [
        "di",
        "rect"
      ],
      [
        "7",
        "25"
      ],
      [
        ")",
        "\"/><"
      ],
      [
        "B",
        "B"
      ],
      [
        "E",
        "C"
      ],
      [
        "6",
        "23"
      ],
      [
        "ch",
        "e"
      ],
      [
        "Ġ24",
        "7"
      ],
      [
        "6",
        "27"
      ],
      [
        "6",
        "52"
      ],
      [
        "F",
        "A"
      ],
      [
        "8",
        "22"
      ],
      [
        "Ġ19",
        "3"
      ],
      [
        "5",
        "38"
      ],
      [
        "67",
        "3"
      ],
      [
        "ia",
        "n"
      ],
      [
        "57",
        "5"
      ],
      [
        "5",
        "21"
      ],
      [
        "Ġ20",
        "3"
      ],
      [
        "o",
        "ver"
      ],
      [
        "Ġ24",
        "5"
      ],
      [
        "47",
        "0"
      ],
      [
        "Ġ29",
        "8"
      ],
      [
        "59",
        "5"
      ],
      [
        "6",
        "35"
      ],
      [
        "Ġ2",
        "31"
      ],
      [
        "radial",
        "Gradient"
      ],
      [
        "9",
        "15"
      ],
      [
        "99",
        "8"
      ],
      [
        "7",
        "33"
      ],
      [
        "5",
        "23"
      ],
      [
        "aler",
        "ted"
      ],
      [
        "Ġ24",
        "4"
      ],
      [
        "pac",
        "ing"
      ],
      [
        "67",
        "4"
      ],
      [
        "f",
        "ull"
      ],
      [
        "Ġ2",
        "28"
      ],
      [
        "Ġ2",
        "58"
      ],
      [
        "7",
        "48"
      ],
      [
        "Fil",
        "l"
      ],
      [
        "7",
        "44"
      ],
      [
        "5",
        "27"
      ],
      [
        "é",
        "Ŀ"
      ],
      [
        "56",
        "7"
      ],
      [
        "0",
        "84"
      ],
      [
        "99",
        "4"
      ],
      [
        "mi",
        "x"
      ],
      [
        "58",
        "8"
      ],
      [
        "Ġb",
        "i"
      ],
      [
        "9",
        "84"
      ],
      [
        "Ġ3",
        "36"
      ],
      [
        "70",
        "2"
      ],
      [
        "0",
        "48"
      ],
      [
        ";",
        "\">"
      ],
      [
        "é",
        "¡"
      ],
      [
        "Ġ2",
        "35"
      ],
      [
        "éĿ",
        "¢"
      ],
      [
        "µ",
        "éĿ¢"
      ],
      [
        "é¡",
        "µéĿ¢"
      ],
      [
        "0",
        "39"
      ],
      [
        "Ġ2",
        "57"
      ],
      [
        "6",
        "28"
      ],
      [
        "6",
        "37"
      ],
      [
        "Ġ2",
        "36"
      ],
      [
        "Ġ2",
        "39"
      ],
      [
        "58",
        "5"
      ],
      [
        "mon",
        "otone"
      ],
      [
        "09",
        "244"
      ],
      [
        "is",
        "play"
      ],
      [
        "Ġ26",
        "4"
      ],
      [
        "7",
        "37"
      ],
      [
        "60",
        "7"
      ],
      [
        "96",
        "1"
      ],
      [
        "Ġ30",
        "4"
      ],
      [
        "C",
        "ute"
      ],
      [
        "M",
        "ing"
      ],
      [
        "79",
        "1"
      ],
      [
        "Ming",
        "Cute"
      ],
      [
        "55",
        "7"
      ],
      [
        "8",
        "53"
      ],
      [
        "56",
        "9"
      ],
      [
        "0",
        "41"
      ],
      [
        "5",
        "48"
      ],
      [
        "8",
        "33"
      ],
      [
        "5",
        "34"
      ],
      [
        "7",
        "43"
      ],
      [
        "58",
        "3"
      ],
      [
        "Ġ",
        "Icon"
      ],
      [
        "Ġ00",
        "0"
      ],
      [
        "57",
        "3"
      ],
      [
        "90",
        "6"
      ],
      [
        "5",
        "32"
      ],
      [
        "9",
        "37"
      ],
      [
        "e",
        "ff"
      ],
      [
        "½",
        "¢"
      ],
      [
        "90",
        "5"
      ],
      [
        "å",
        "½¢"
      ],
      [
        "7",
        "36"
      ],
      [
        "6",
        "48"
      ],
      [
        "6",
        "17"
      ],
      [
        "over",
        "flow"
      ],
      [
        "T",
        "itle"
      ],
      [
        "Icon",
        "Title"
      ],
      [
        "Ġ26",
        "2"
      ],
      [
        "0",
        "88"
      ],
      [
        "t",
        "op"
      ],
      [
        "8",
        "19"
      ],
      [
        "Ġ3",
        "41"
      ],
      [
        "Ġc",
        "olor"
      ],
      [
        "5",
        "10"
      ],
      [
        "7",
        "96"
      ],
      [
        "ne",
        "t"
      ],
      [
        "0",
        "67"
      ],
      [
        "0",
        "56"
      ],
      [
        "Ġ24",
        "3"
      ],
      [
        "0",
        "77"
      ],
      [
        "in",
        "y"
      ],
      [
        "99",
        "2"
      ],
      [
        "Ġs",
        "odipodi"
      ],
      [
        "Ġ24",
        "2"
      ],
      [
        "v",
        "i"
      ],
      [
        "7",
        "54"
      ],
      [
        "80",
        "6"
      ],
      [
        "direct",
        "ion"
      ],
      [
        "6",
        "14"
      ],
      [
        "58",
        "2"
      ],
      [
        "5",
        "19"
      ],
      [
        "ado",
        "be"
      ],
      [
        "5",
        "37"
      ],
      [
        "68",
        "7"
      ],
      [
        "Ġ2",
        "37"
      ],
      [
        "7",
        "26"
      ],
      [
        "88",
        "5"
      ],
      [
        "7",
        "29"
      ],
      [
        "im",
        "i"
      ],
      [
        "6",
        "38"
      ],
      [
        "6",
        "55"
      ],
      [
        "60",
        "6"
      ],
      [
        "C",
        "F"
      ],
      [
        "67",
        "5"
      ],
      [
        "0",
        "82"
      ],
      [
        "6",
        "44"
      ],
      [
        "ie",
        "r"
      ],
      [
        "69",
        "4"
      ],
      [
        "Ġ2",
        "38"
      ],
      [
        "Ġ3",
        "72"
      ],
      [
        "79",
        "7"
      ],
      [
        "0",
        "74"
      ],
      [
        "76",
        "5"
      ],
      [
        "Ġ2",
        "27"
      ],
      [
        "77",
        "7"
      ],
      [
        "69",
        "3"
      ],
      [
        "79",
        "3"
      ],
      [
        "9",
        "13"
      ],
      [
        "58",
        "7"
      ],
      [
        "78",
        "2"
      ],
      [
        "6",
        "40"
      ],
      [
        "ca",
        "le"
      ],
      [
        "Ġ2",
        "33"
      ],
      [
        "Ġ25",
        "9"
      ],
      [
        "8",
        "54"
      ],
      [
        "t",
        "i"
      ],
      [
        "8",
        "64"
      ],
      [
        "e",
        "n"
      ],
      [
        "7",
        "18"
      ],
      [
        "bo",
        "ard"
      ],
      [
        "5",
        "26"
      ],
      [
        "7",
        "19"
      ],
      [
        "Ġ29",
        "2"
      ],
      [
        "0",
        "76"
      ],
      [
        "99",
        "5"
      ],
      [
        "0",
        "98"
      ],
      [
        "8",
        "57"
      ],
      [
        ");",
        "\"/>"
      ],
      [
        "Ġ29",
        "6"
      ],
      [
        "78",
        "7"
      ],
      [
        "imi",
        "ze"
      ],
      [
        "57",
        "7"
      ],
      [
        "60",
        "9"
      ],
      [
        "78",
        "6"
      ],
      [
        "Ġb",
        "ox"
      ],
      [
        "0",
        "66"
      ],
      [
        "6",
        "33"
      ],
      [
        "99",
        "6"
      ],
      [
        "55",
        "228"
      ],
      [
        "8",
        "37"
      ],
      [
        "60",
        "3"
      ],
      [
        "80",
        "7"
      ],
      [
        "68",
        "3"
      ],
      [
        "0",
        "51"
      ],
      [
        "int",
        "er"
      ],
      [
        "0",
        "85"
      ],
      [
        "w",
        "eight"
      ],
      [
        "Ġ3",
        "68"
      ],
      [
        "70",
        "3"
      ],
      [
        "66",
        "5"
      ],
      [
        "6",
        "26"
      ],
      [
        "9",
        "87"
      ],
      [
        "b",
        "f"
      ],
      [
        "6",
        "32"
      ],
      [
        "9",
        "88"
      ],
      [
        "org",
        "e"
      ],
      [
        "D",
        "T"
      ],
      [
        "f",
        "orge"
      ],
      [
        "t",
        "d"
      ],
      [
        "Ġ9",
        "60"
      ],
      [
        "FF",
        "C"
      ],
      [
        "name",
        "space"
      ],
      [
        "source",
        "forge"
      ],
      [
        "d",
        "td"
      ],
      [
        "68",
        "9"
      ],
      [
        "DT",
        "D"
      ],
      [
        "namespace",
        "s"
      ],
      [
        "7",
        "67"
      ],
      [
        "6",
        "12"
      ],
      [
        "o",
        "pen"
      ],
      [
        "ion",
        "icons"
      ],
      [
        "iso",
        "metric"
      ],
      [
        "9",
        "59"
      ],
      [
        "0",
        "61"
      ],
      [
        "5",
        "39"
      ],
      [
        "77",
        "6"
      ],
      [
        "p",
        "er"
      ],
      [
        "Ġ12",
        "00"
      ],
      [
        "0",
        "89"
      ],
      [
        "79",
        "4"
      ],
      [
        "6",
        "15"
      ],
      [
        "lo",
        "ck"
      ],
      [
        "6",
        "29"
      ],
      [
        "56",
        "1"
      ],
      [
        "al",
        "ign"
      ],
      [
        "Ġ26",
        "6"
      ],
      [
        "dash",
        "offset"
      ],
      [
        "0",
        "54"
      ],
      [
        "69",
        "8"
      ],
      [
        "60",
        "5"
      ],
      [
        "80",
        "5"
      ],
      [
        "0",
        "93"
      ],
      [
        "7",
        "16"
      ],
      [
        "56",
        "5"
      ],
      [
        "55",
        "9"
      ],
      [
        "ç",
        "Ĭ"
      ],
      [
        "å½¢",
        "çĬ"
      ],
      [
        "å½¢çĬ",
        "¶"
      ],
      [
        "FF",
        "A"
      ],
      [
        "0",
        "53"
      ],
      [
        "8",
        "49"
      ],
      [
        "6666",
        "66"
      ],
      [
        "6",
        "42"
      ],
      [
        "9",
        "79"
      ],
      [
        "b",
        "il"
      ],
      [
        "0",
        "75"
      ],
      [
        "7",
        "32"
      ],
      [
        "Ġ4",
        "16"
      ],
      [
        "Ġs",
        "h"
      ],
      [
        "st",
        "art"
      ],
      [
        "9",
        "58"
      ],
      [
        "du",
        "ct"
      ],
      [
        "Ġ28",
        "1"
      ],
      [
        "6",
        "34"
      ],
      [
        "66",
        "3"
      ],
      [
        "77",
        "8"
      ],
      [
        "0",
        "86"
      ],
      [
        "9",
        "17"
      ],
      [
        "0",
        "72"
      ],
      [
        "8",
        "13"
      ],
      [
        "6",
        "96"
      ],
      [
        "59",
        "1"
      ],
      [
        "Ġ28",
        "9"
      ],
      [
        "69",
        "5"
      ],
      [
        "Ġ26",
        "3"
      ],
      [
        "Ġ26",
        "5"
      ],
      [
        "Ġ28",
        "4"
      ],
      [
        "Ġ3",
        "29"
      ],
      [
        "ou",
        "nd"
      ],
      [
        "C",
        "om"
      ],
      [
        "77",
        "9"
      ],
      [
        "6",
        "39"
      ],
      [
        "Ġ29",
        "3"
      ],
      [
        "77",
        "1"
      ],
      [
        "Ġ27",
        "7"
      ],
      [
        "38",
        "53"
      ],
      [
        "9",
        "83"
      ],
      [
        "Ġsh",
        "ow"
      ],
      [
        "5",
        "49"
      ],
      [
        "8",
        "25"
      ],
      [
        "Ġ28",
        "0"
      ],
      [
        "6",
        "49"
      ],
      [
        "7",
        "28"
      ],
      [
        "7",
        "38"
      ],
      [
        "96",
        "9"
      ],
      [
        "e",
        "y"
      ],
      [
        "į",
        "-"
      ],
      [
        "Ķ",
        "į-"
      ],
      [
        "69",
        "2"
      ],
      [
        "=\"ðŁ",
        "Ķį-"
      ],
      [
        "A",
        "D"
      ],
      [
        "9",
        "75"
      ],
      [
        "FF",
        "E"
      ],
      [
        "69",
        "1"
      ],
      [
        "9",
        "45"
      ],
      [
        "9",
        "77"
      ],
      [
        "6",
        "21"
      ],
      [
        "0",
        "87"
      ],
      [
        "İ",
        "¨"
      ],
      [
        "59",
        "3"
      ],
      [
        "ph",
        "one"
      ],
      [
        "=\"ðŁ",
        "İ¨"
      ],
      [
        "t",
        "iny"
      ],
      [
        "90",
        "2"
      ],
      [
        "7",
        "64"
      ],
      [
        "7",
        "52"
      ],
      [
        "9",
        "47"
      ],
      [
        "7",
        "46"
      ],
      [
        "9",
        "57"
      ],
      [
        "6",
        "41"
      ],
      [
        "7",
        "14"
      ],
      [
        "a",
        "sk"
      ],
      [
        "eff",
        "ect"
      ],
      [
        "Ġ28",
        "6"
      ],
      [
        "9",
        "16"
      ],
      [
        "l",
        "i"
      ],
      [
        "Ġ28",
        "2"
      ],
      [
        "s",
        "pacing"
      ],
      [
        "8",
        "44"
      ],
      [
        "7",
        "21"
      ],
      [
        "Ġ0",
        "10"
      ],
      [
        "Ġ29",
        "0"
      ],
      [
        "Ġ29",
        "4"
      ],
      [
        "6",
        "16"
      ],
      [
        "Ġ29",
        "7"
      ],
      [
        "99",
        "3"
      ],
      [
        "Ġ26",
        "1"
      ],
      [
        "7",
        "47"
      ],
      [
        "88",
        "9"
      ],
      [
        "ce",
        "a"
      ],
      [
        "8",
        "73"
      ],
      [
        "8",
        "58"
      ],
      [
        "9",
        "68"
      ],
      [
        "0",
        "65"
      ],
      [
        "6",
        "47"
      ],
      [
        "8",
        "76"
      ],
      [
        "0",
        "68"
      ],
      [
        "7",
        "35"
      ],
      [
        "5",
        "41"
      ],
      [
        "6",
        "45"
      ],
      [
        "4477",
        "153"
      ],
      [
        "8",
        "27"
      ],
      [
        "6",
        "22"
      ],
      [
        "6",
        "53"
      ],
      [
        "9",
        "35"
      ],
      [
        "78",
        "3"
      ],
      [
        "70",
        "9"
      ],
      [
        "6",
        "43"
      ],
      [
        "lo",
        "c"
      ],
      [
        "Ġ3",
        "28"
      ],
      [
        "c",
        "od"
      ],
      [
        "Ġ29",
        "1"
      ],
      [
        "t",
        "ing"
      ],
      [
        "t",
        "ien"
      ],
      [
        "7",
        "56"
      ],
      [
        "7",
        "49"
      ],
      [
        "80",
        "2"
      ],
      [
        "9",
        "66"
      ],
      [
        "88",
        "3"
      ],
      [
        "Layer",
        "Group"
      ],
      [
        "MS",
        "LayerGroup"
      ],
      [
        "Trans",
        "form"
      ],
      [
        "cod",
        "ing"
      ],
      [
        "0",
        "69"
      ],
      [
        "0",
        "92"
      ],
      [
        "Ġgradient",
        "Transform"
      ],
      [
        "he",
        "m"
      ],
      [
        "9",
        "12"
      ],
      [
        "6",
        "19"
      ],
      [
        "bo",
        "hem"
      ],
      [
        "ian",
        "coding"
      ],
      [
        "bohem",
        "iancoding"
      ],
      [
        "=\"ðŁİ¨",
        "-"
      ],
      [
        "0",
        "83"
      ],
      [
        "FF",
        "B"
      ],
      [
        "AA",
        "B"
      ],
      [
        "89",
        "8"
      ],
      [
        "licens",
        "es"
      ],
      [
        "FF",
        "D"
      ],
      [
        "Ġ3",
        "26"
      ],
      [
        "36",
        "3853"
      ],
      [
        "78",
        "5"
      ],
      [
        "Ġ30",
        "2"
      ],
      [
        "off",
        "ee"
      ],
      [
        "0",
        "96"
      ],
      [
        "Ġ28",
        "7"
      ],
      [
        "88",
        "7"
      ],
      [
        "con",
        "ne"
      ],
      [
        "8",
        "68"
      ],
      [
        "MS",
        "Page"
      ],
      [
        "6",
        "11"
      ],
      [
        "90",
        "8"
      ],
      [
        "0",
        "30"
      ],
      [
        "Ġ26",
        "8"
      ],
      [
        "9",
        "27"
      ],
      [
        "8",
        "77"
      ],
      [
        "a",
        "s"
      ],
      [
        "Ġ5",
        "00"
      ],
      [
        "8",
        "55"
      ],
      [
        "al",
        "t"
      ],
      [
        "9",
        "28"
      ],
      [
        "8",
        "14"
      ],
      [
        "a",
        "a"
      ],
      [
        "60",
        "1"
      ],
      [
        "Ġ29",
        "5"
      ],
      [
        "Ġ3",
        "40"
      ],
      [
        "58",
        "1"
      ],
      [
        "69",
        "7"
      ],
      [
        "9",
        "18"
      ],
      [
        "8",
        "24"
      ],
      [
        "8",
        "66"
      ],
      [
        "d",
        "isplay"
      ],
      [
        "9",
        "49"
      ],
      [
        "Ġ27",
        "1"
      ],
      [
        "Ġ3",
        "66"
      ],
      [
        "89",
        "3"
      ],
      [
        "Ġ3",
        "12"
      ],
      [
        "6",
        "99"
      ],
      [
        "up",
        "stroke"
      ],
      [
        "Ġ3",
        "38"
      ],
      [
        "80",
        "3"
      ],
      [
        ";",
        "&#"
      ],
      [
        "c",
        "offee"
      ],
      [
        "d",
        "r"
      ],
      [
        "in",
        "line"
      ],
      [
        "lo",
        "ad"
      ],
      [
        "9",
        "60"
      ],
      [
        "8",
        "67"
      ],
      [
        "7",
        "55"
      ],
      [
        "Ġ3",
        "31"
      ],
      [
        "89",
        "1"
      ],
      [
        "v",
        "al"
      ],
      [
        "ke",
        "d"
      ],
      [
        "fe",
        "a"
      ],
      [
        "8",
        "65"
      ],
      [
        "9",
        "52"
      ],
      [
        "8",
        "52"
      ],
      [
        "c",
        "y"
      ],
      [
        "8",
        "17"
      ],
      [
        "8",
        "39"
      ],
      [
        "o",
        "sition"
      ],
      [
        "8",
        "43"
      ],
      [
        "7",
        "51"
      ],
      [
        "fea",
        "ther"
      ],
      [
        "m",
        "il"
      ],
      [
        "88",
        "8"
      ],
      [
        "0",
        "97"
      ],
      [
        "5",
        "99"
      ],
      [
        "Ġ3",
        "27"
      ],
      [
        "re",
        "f"
      ],
      [
        "vi",
        "j"
      ],
      [
        "e",
        "m"
      ],
      [
        "Ġ30",
        "7"
      ],
      [
        "CC",
        "CC"
      ],
      [
        "6",
        "59"
      ],
      [
        "Ġ3",
        "33"
      ],
      [
        "Ġ3",
        "24"
      ],
      [
        "u",
        "nits"
      ],
      [
        "Ġ2",
        "99"
      ],
      [
        "58",
        "9"
      ],
      [
        "80",
        "9"
      ],
      [
        "p",
        "ro"
      ],
      [
        "u",
        "se"
      ],
      [
        "77",
        "5"
      ],
      [
        "79",
        "5"
      ],
      [
        "7",
        "53"
      ],
      [
        "8",
        "34"
      ],
      [
        "%",
        "\">"
      ],
      [
        "7",
        "42"
      ],
      [
        "0",
        "73"
      ],
      [
        "Ġ30",
        "1"
      ],
      [
        "0",
        "81"
      ],
      [
        "o",
        "om"
      ],
      [
        "8",
        "79"
      ],
      [
        "d",
        "oc"
      ],
      [
        "90",
        "9"
      ],
      [
        "O",
        "val"
      ],
      [
        "j",
        "ect"
      ],
      [
        "Ġ3",
        "30"
      ],
      [
        "9",
        "34"
      ],
      [
        "88",
        "1"
      ],
      [
        "Ġ3",
        "44"
      ],
      [
        "o",
        "k"
      ],
      [
        "cc",
        "cc"
      ],
      [
        "Ġ28",
        "5"
      ],
      [
        "7",
        "12"
      ],
      [
        "Ġ3",
        "32"
      ],
      [
        "36",
        "36"
      ],
      [
        "67",
        "9"
      ],
      [
        "CC",
        "D"
      ],
      [
        "t",
        "a"
      ],
      [
        "Ġ27",
        "0"
      ],
      [
        "8",
        "11"
      ],
      [
        "04",
        "0000"
      ],
      [
        "7",
        "23"
      ],
      [
        "Ġ27",
        "5"
      ],
      [
        "Ġ27",
        "9"
      ],
      [
        "37",
        "37"
      ],
      [
        "100",
        "0"
      ],
      [
        "7",
        "24"
      ],
      [
        "Ġ6",
        "40"
      ],
      [
        "Ġ3",
        "34"
      ],
      [
        "Pro",
        "duct"
      ],
      [
        "E",
        "B"
      ],
      [
        "90",
        "4"
      ],
      [
        "434",
        "7"
      ],
      [
        "8",
        "26"
      ],
      [
        "h",
        "atch"
      ],
      [
        "6",
        "31"
      ],
      [
        "9",
        "55"
      ],
      [
        "v",
        "ersion"
      ],
      [
        "l",
        "ight"
      ],
      [
        "Ġ27",
        "4"
      ],
      [
        "9",
        "39"
      ],
      [
        "z",
        "oom"
      ],
      [
        "bil",
        "ity"
      ],
      [
        "7",
        "15"
      ],
      [
        "77",
        "4"
      ],
      [
        "Ġ27",
        "6"
      ],
      [
        "Ġ27",
        "3"
      ],
      [
        "7",
        "62"
      ],
      [
        "8",
        "41"
      ],
      [
        "99",
        "7"
      ],
      [
        "89",
        "2"
      ],
      [
        "f",
        "x"
      ],
      [
        "Ġ26",
        "9"
      ],
      [
        "fx",
        "emoji"
      ],
      [
        "9",
        "56"
      ],
      [
        "66",
        "1"
      ],
      [
        "doc",
        "name"
      ],
      [
        "base",
        "line"
      ],
      [
        "8",
        "78"
      ],
      [
        "8",
        "74"
      ],
      [
        "Ġ26",
        "7"
      ],
      [
        "8",
        "36"
      ],
      [
        "9",
        "78"
      ],
      [
        "Ġ",
        "orientation"
      ],
      [
        "Ġp",
        "osition"
      ],
      [
        "7",
        "22"
      ],
      [
        "9",
        "24"
      ],
      [
        "Ġ28",
        "3"
      ],
      [
        "D",
        "e"
      ],
      [
        "77",
        "2"
      ],
      [
        ";",
        "-"
      ],
      [
        "90",
        "3"
      ],
      [
        "licens",
        "e"
      ],
      [
        "u",
        "n"
      ],
      [
        "iso",
        "lation"
      ],
      [
        "77",
        "3"
      ],
      [
        "0",
        "79"
      ],
      [
        "8",
        "23"
      ],
      [
        "int",
        "ig"
      ],
      [
        "Ġ48",
        "0"
      ],
      [
        "323",
        "8"
      ],
      [
        "88",
        "4"
      ],
      [
        "9",
        "46"
      ],
      [
        "na",
        "l"
      ],
      [
        "7",
        "39"
      ],
      [
        "9",
        "85"
      ],
      [
        "FF",
        "DC"
      ],
      [
        "Ġ30",
        "3"
      ],
      [
        "79",
        "8"
      ],
      [
        "ou",
        "d"
      ],
      [
        "9",
        "23"
      ],
      [
        "9",
        "31"
      ],
      [
        "Ġ3",
        "64"
      ],
      [
        "7",
        "45"
      ],
      [
        "26",
        "3238"
      ],
      [
        "80",
        "1"
      ],
      [
        "Ġ3",
        "14"
      ],
      [
        "8",
        "51"
      ],
      [
        "7",
        "99"
      ],
      [
        "Ġ3",
        "11"
      ],
      [
        "9",
        "36"
      ],
      [
        "9",
        "67"
      ],
      [
        "Ġ36",
        "2"
      ],
      [
        "9",
        "73"
      ],
      [
        "R",
        "G"
      ],
      [
        "7",
        "31"
      ],
      [
        "Y",
        "Min"
      ],
      [
        "x",
        "Min"
      ],
      [
        "Ġ",
        "jam"
      ],
      [
        "96",
        "2"
      ],
      [
        "xMin",
        "YMin"
      ],
      [
        "0",
        "95"
      ],
      [
        "44",
        "44"
      ],
      [
        "80",
        "4"
      ],
      [
        "Ġm",
        "ask"
      ],
      [
        "Ġ3",
        "35"
      ],
      [
        "Ġ3",
        "37"
      ],
      [
        "conne",
        "ctor"
      ],
      [
        "S",
        "h"
      ],
      [
        "ver",
        "y"
      ],
      [
        "8",
        "35"
      ],
      [
        "8",
        "63"
      ],
      [
        "cur",
        "rent"
      ],
      [
        "Ġ3",
        "39"
      ],
      [
        "70",
        "1"
      ],
      [
        "ocu",
        "ment"
      ],
      [
        "Ġ3",
        "76"
      ],
      [
        "Ġs",
        "cale"
      ],
      [
        "a",
        "f"
      ],
      [
        "9",
        "14"
      ],
      [
        "99",
        "99"
      ],
      [
        "Ġ37",
        "3"
      ],
      [
        "Ġ27",
        "8"
      ],
      [
        "6",
        "51"
      ],
      [
        "9",
        "44"
      ],
      [
        "fil",
        "ter"
      ],
      [
        "loc",
        "ked"
      ],
      [
        "8",
        "15"
      ],
      [
        "8",
        "29"
      ],
      [
        "8",
        "72"
      ],
      [
        "9",
        "43"
      ],
      [
        "9",
        "32"
      ],
      [
        "ap",
        "h"
      ],
      [
        "el",
        "i"
      ],
      [
        "Ġ",
        "overflow"
      ],
      [
        "Ġ3",
        "10"
      ],
      [
        "/",
        "\"/>"
      ],
      [
        "8",
        "42"
      ],
      [
        "fa",
        "mil"
      ],
      [
        "du",
        "otone"
      ],
      [
        "Ġ3",
        "15"
      ],
      [
        "90",
        "1"
      ],
      [
        "717",
        "17"
      ],
      [
        "famil",
        "y"
      ],
      [
        "9",
        "33"
      ],
      [
        "8",
        "18"
      ],
      [
        "le",
        "t"
      ],
      [
        "96",
        "5"
      ],
      [
        "2929",
        "29"
      ],
      [
        "D",
        "eli"
      ],
      [
        "9",
        "48"
      ],
      [
        "Ġ3",
        "16"
      ],
      [
        "set",
        "ting"
      ],
      [
        "7",
        "63"
      ],
      [
        "b",
        "d"
      ],
      [
        "Ġ4",
        "26"
      ],
      [
        "7",
        "59"
      ],
      [
        "9",
        "76"
      ],
      [
        "Deli",
        "very"
      ],
      [
        "9",
        "42"
      ],
      [
        "ma",
        "x"
      ],
      [
        "0",
        "91"
      ],
      [
        "R",
        "e"
      ],
      [
        "ag",
        "ing"
      ],
      [
        "99",
        "1"
      ],
      [
        "88",
        "2"
      ],
      [
        "Pa",
        "ck"
      ],
      [
        "v",
        "ature"
      ],
      [
        "cl",
        "o"
      ],
      [
        "88",
        "6"
      ],
      [
        "cur",
        "vature"
      ],
      [
        "k",
        "it"
      ],
      [
        "Ġ3",
        "13"
      ],
      [
        "Ġ30",
        "8"
      ],
      [
        "o",
        "od"
      ],
      [
        "68",
        "1"
      ],
      [
        "Pack",
        "aging"
      ],
      [
        "7",
        "41"
      ],
      [
        "8",
        "56"
      ],
      [
        "max",
        "imize"
      ],
      [
        "ble",
        "nd"
      ],
      [
        "page",
        "shadow"
      ],
      [
        "vij",
        "f"
      ],
      [
        "9",
        "86"
      ],
      [
        "90",
        "7"
      ],
      [
        "h",
        "ref"
      ],
      [
        "Ġ3",
        "25"
      ],
      [
        "Ġx",
        "link"
      ],
      [
        "RG",
        "B"
      ],
      [
        "9",
        "41"
      ],
      [
        "po",
        "lation"
      ],
      [
        "inter",
        "polation"
      ],
      [
        "n",
        "ce"
      ],
      [
        "at",
        "ter"
      ],
      [
        "ur",
        "n"
      ],
      [
        "Ġf",
        "ont"
      ],
      [
        "39",
        "05"
      ],
      [
        "DE",
        "CE"
      ],
      [
        "7",
        "69"
      ],
      [
        "9",
        "82"
      ],
      [
        "d",
        "o"
      ],
      [
        "9",
        "74"
      ],
      [
        "0",
        "99"
      ],
      [
        "d",
        "ocument"
      ],
      [
        "Ġ36",
        "9"
      ],
      [
        "dr",
        "ie"
      ],
      [
        "te",
        "or"
      ],
      [
        "me",
        "teor"
      ],
      [
        "9",
        "29"
      ],
      [
        "b",
        "u"
      ],
      [
        "mar",
        "ker"
      ],
      [
        "setting",
        "s"
      ],
      [
        "Ġ3",
        "42"
      ],
      [
        "8",
        "69"
      ],
      [
        "de",
        "nt"
      ],
      [
        "9",
        "22"
      ],
      [
        "66",
        "757"
      ],
      [
        "808",
        "184"
      ],
      [
        "Ġ3",
        "18"
      ],
      [
        "Ġ3",
        "78"
      ],
      [
        "ĠĠĠĠĠĠĠĠ",
        "ĠĠĠĠ"
      ],
      [
        "9",
        "26"
      ],
      [
        "f",
        "older"
      ],
      [
        "c",
        "x"
      ],
      [
        "Ġb",
        "order"
      ],
      [
        "7",
        "11"
      ],
      [
        "8",
        "62"
      ],
      [
        "or",
        "t"
      ],
      [
        "ig",
        "h"
      ],
      [
        "F",
        "D"
      ],
      [
        "Ġ3",
        "79"
      ],
      [
        "re",
        "s"
      ],
      [
        "A",
        "r"
      ],
      [
        "atter",
        "y"
      ],
      [
        "Ġ3",
        "43"
      ],
      [
        "Ġ30",
        "6"
      ],
      [
        "20",
        "10"
      ],
      [
        "8",
        "61"
      ],
      [
        "Ġ",
        "page"
      ],
      [
        "Ġ3",
        "45"
      ],
      [
        "Ġ37",
        "4"
      ],
      [
        "C",
        "a"
      ],
      [
        "v",
        "ier"
      ],
      [
        "Ġ3",
        "19"
      ],
      [
        "0",
        "71"
      ],
      [
        "ro",
        "pacity"
      ],
      [
        "or",
        "de"
      ],
      [
        "Ġb",
        "orde"
      ],
      [
        "page",
        "opacity"
      ],
      [
        "Ġborder",
        "color"
      ],
      [
        "Ġborde",
        "ropacity"
      ],
      [
        "f",
        "c"
      ],
      [
        "Ġshow",
        "grid"
      ],
      [
        "maximize",
        "d"
      ],
      [
        "Ġpage",
        "color"
      ],
      [
        "Ġ3",
        "17"
      ],
      [
        "p",
        "in"
      ],
      [
        "z",
        "even"
      ],
      [
        "55228",
        "47"
      ],
      [
        "8",
        "71"
      ],
      [
        "Ġ3",
        "23"
      ],
      [
        "Fil",
        "led"
      ],
      [
        "Ġ5",
        "76"
      ],
      [
        "Ġ36",
        "5"
      ],
      [
        "7",
        "61"
      ],
      [
        "cl",
        "oud"
      ],
      [
        "5",
        "20"
      ],
      [
        "828",
        "282"
      ],
      [
        "Ġ5",
        "11"
      ],
      [
        "ff",
        "e"
      ],
      [
        "de",
        "s"
      ],
      [
        "Ġ30",
        "9"
      ],
      [
        "8954",
        "305"
      ],
      [
        "8",
        "21"
      ],
      [
        "st",
        "one"
      ],
      [
        "or",
        "e"
      ],
      [
        "si",
        "ze"
      ],
      [
        "Ġ3",
        "21"
      ],
      [
        "9",
        "11"
      ],
      [
        "op",
        "y"
      ],
      [
        "9",
        "72"
      ],
      [
        "Ġ40",
        "5"
      ],
      [
        "fa",
        "ce"
      ],
      [
        "19",
        "20"
      ],
      [
        "Ġ37",
        "1"
      ],
      [
        "ig",
        "nal"
      ],
      [
        "9",
        "89"
      ],
      [
        "in",
        "dent"
      ],
      [
        "Ġ3",
        "77"
      ],
      [
        "li",
        "st"
      ],
      [
        "ap",
        "p"
      ],
      [
        "19",
        "19"
      ],
      [
        "ra",
        "nce"
      ],
      [
        "Ġ38",
        "1"
      ],
      [
        "Ġ3",
        "22"
      ],
      [
        "s",
        "n"
      ],
      [
        "Ġ30",
        "5"
      ],
      [
        "8",
        "31"
      ],
      [
        "9",
        "51"
      ],
      [
        "Ġ3",
        "60"
      ],
      [
        "9",
        "64"
      ],
      [
        "Ġ",
        "B"
      ],
      [
        "b",
        "ar"
      ],
      [
        "u",
        "ch"
      ],
      [
        "ter",
        "n"
      ],
      [
        "che",
        "ck"
      ],
      [
        "r",
        "ink"
      ],
      [
        "ut",
        "t"
      ],
      [
        "ul",
        "ti"
      ],
      [
        "D",
        "A"
      ],
      [
        "Ġ38",
        "2"
      ],
      [
        "9",
        "25"
      ],
      [
        "l",
        "l"
      ],
      [
        "sk",
        "top"
      ],
      [
        "c",
        "ff"
      ],
      [
        "o",
        "b"
      ],
      [
        "Ġ4",
        "64"
      ],
      [
        "Ġ3",
        "46"
      ],
      [
        "Ġ3",
        "70"
      ],
      [
        "n",
        "um"
      ],
      [
        "Ġ3",
        "75"
      ],
      [
        "Ġ4",
        "32"
      ],
      [
        "be",
        "an"
      ],
      [
        "ic",
        "al"
      ],
      [
        "m",
        "in"
      ],
      [
        "Ġ3",
        "80"
      ],
      [
        "Ca",
        "pa"
      ],
      [
        "Ġ38",
        "3"
      ],
      [
        "Ġ39",
        "2"
      ],
      [
        "Ġ3",
        "48"
      ],
      [
        "ad",
        "d"
      ],
      [
        "H",
        "igh"
      ],
      [
        "f",
        "d"
      ],
      [
        "bb",
        "ox"
      ],
      [
        "5",
        "40"
      ],
      [
        "ge",
        "o"
      ],
      [
        "s",
        "ion"
      ],
      [
        "9",
        "81"
      ],
      [
        "C",
        "D"
      ],
      [
        "me",
        "d"
      ],
      [
        "sa",
        "nd"
      ],
      [
        "geo",
        "metric"
      ],
      [
        "S",
        "e"
      ],
      [
        "ci",
        "sion"
      ],
      [
        "ĠĠĠ",
        "Ċ"
      ],
      [
        "Pre",
        "cision"
      ],
      [
        "geometric",
        "Precision"
      ],
      [
        "c",
        "o"
      ],
      [
        "eve",
        "l"
      ],
      [
        "sa",
        "ns"
      ],
      [
        "Ġ3",
        "47"
      ],
      [
        "le",
        "rance"
      ],
      [
        "t",
        "urn"
      ],
      [
        "Ġ3",
        "53"
      ],
      [
        "ĉĉ",
        "Ċ"
      ],
      [
        "F",
        "ood"
      ],
      [
        "e",
        "x"
      ],
      [
        "label",
        "led"
      ],
      [
        "labelled",
        "by"
      ],
      [
        "ĉĉ",
        "ĉĉĉ"
      ],
      [
        "w",
        "or"
      ],
      [
        "Ġ3",
        "67"
      ],
      [
        "Ġ4",
        "96"
      ],
      [
        "S",
        "ource"
      ],
      [
        "b",
        "ine"
      ],
      [
        "ob",
        "ject"
      ],
      [
        "Ġ3",
        "59"
      ],
      [
        "Com",
        "bine"
      ],
      [
        "Combine",
        "d"
      ],
      [
        "angle",
        "s"
      ],
      [
        "6",
        "10"
      ],
      [
        "(",
        "."
      ],
      [
        "st",
        "em"
      ],
      [
        "line",
        "sand"
      ],
      [
        "linesand",
        "angles"
      ],
      [
        "9",
        "71"
      ],
      [
        "Ġ3",
        "58"
      ],
      [
        "g",
        "radient"
      ],
      [
        "w",
        "intig"
      ],
      [
        "ate",
        "s"
      ],
      [
        "8",
        "99"
      ],
      [
        "p",
        "lu"
      ],
      [
        "re",
        "e"
      ],
      [
        "D",
        "rink"
      ],
      [
        "id",
        "es"
      ],
      [
        "FFA",
        "C"
      ],
      [
        "nt",
        "wintig"
      ],
      [
        "ot",
        "t"
      ],
      [
        "bo",
        "ok"
      ],
      [
        "S",
        "y"
      ],
      [
        "l",
        "ic"
      ],
      [
        "ac",
        "ht"
      ],
      [
        "5",
        "30"
      ],
      [
        "9",
        "19"
      ],
      [
        "E",
        "x"
      ],
      [
        "o",
        "on"
      ],
      [
        "F",
        "CE"
      ],
      [
        "FF",
        "CC"
      ],
      [
        "g",
        "er"
      ],
      [
        "39",
        "39"
      ],
      [
        "ze",
        "s"
      ],
      [
        "De",
        "sktop"
      ],
      [
        "56",
        "0"
      ],
      [
        "b",
        "utt"
      ],
      [
        "g",
        "roup"
      ],
      [
        "ar",
        "ch"
      ],
      [
        "Ġ36",
        "3"
      ],
      [
        "cap",
        "s"
      ],
      [
        "59",
        "59"
      ],
      [
        "b",
        "evel"
      ],
      [
        "_",
        "-"
      ],
      [
        "S",
        "ignal"
      ],
      [
        "23",
        "18"
      ],
      [
        "Ġ39",
        "0"
      ],
      [
        "er",
        "ic"
      ],
      [
        "Ġ",
        "/"
      ],
      [
        "D",
        "B"
      ],
      [
        "13",
        "10"
      ],
      [
        "sn",
        "ap"
      ],
      [
        "b",
        "lock"
      ],
      [
        "28",
        "57"
      ],
      [
        "Ġ3",
        "49"
      ],
      [
        "9",
        "21"
      ],
      [
        "l",
        "ig"
      ],
      [
        "CE",
        "E"
      ],
      [
        "or",
        "y"
      ],
      [
        "Ġ",
        "serif"
      ],
      [
        "Ġ36",
        "1"
      ],
      [
        "nt",
        "er"
      ],
      [
        "Ġ3",
        "56"
      ],
      [
        "Ġ40",
        "8"
      ],
      [
        "a",
        "cc"
      ],
      [
        "Ġ50",
        "9"
      ],
      [
        "pr",
        "int"
      ],
      [
        "po",
        "sition"
      ],
      [
        "num",
        "eric"
      ],
      [
        "pa",
        "dd"
      ],
      [
        "padd",
        "ing"
      ],
      [
        "7",
        "00"
      ],
      [
        "al",
        "tern"
      ],
      [
        "sh",
        "ar"
      ],
      [
        "3905",
        "243"
      ],
      [
        "ar",
        "ker"
      ],
      [
        "Ġ4",
        "90"
      ],
      [
        "ature",
        "s"
      ],
      [
        "Ġ3",
        "54"
      ],
      [
        "Ġ4",
        "40"
      ],
      [
        "57",
        "0"
      ],
      [
        "p",
        "ort"
      ],
      [
        "ff",
        "ce"
      ],
      [
        "fe",
        "ature"
      ],
      [
        "lig",
        "atures"
      ],
      [
        "altern",
        "ates"
      ],
      [
        "shar",
        "p"
      ],
      [
        "w",
        "ard"
      ],
      [
        "Ġ3",
        "50"
      ],
      [
        "Ġ3",
        "51"
      ],
      [
        "a",
        "e"
      ],
      [
        "G",
        "r"
      ],
      [
        "BF",
        "BF"
      ],
      [
        "ct",
        "ion"
      ],
      [
        "sc",
        "ien"
      ],
      [
        "cor",
        "n"
      ],
      [
        "ict",
        "ion"
      ],
      [
        "f",
        "iction"
      ],
      [
        "ĉ",
        "Ċ"
      ],
      [
        "Ġ39",
        "5"
      ],
      [
        "let",
        "ter"
      ],
      [
        "wor",
        "d"
      ],
      [
        "h",
        "o"
[...]
